/**
  ******************************************************************************
  * @file    network_data_params.c
  * @author  AST Embedded Analytics Research Platform
  * @date    2025-02-16T17:05:14+0800
  * @brief   AI Tool Automatic Code Generator for Embedded NN computing
  ******************************************************************************
  * Copyright (c) 2025 STMicroelectronics.
  * All rights reserved.
  *
  * This software is licensed under terms that can be found in the LICENSE file
  * in the root directory of this software component.
  * If no LICENSE file comes with this software, it is provided AS-IS.
  ******************************************************************************
  */

#include "network_data_params.h"


/**  Activations Section  ****************************************************/
ai_handle g_network_activations_table[1 + 2] = {
  AI_HANDLE_PTR(AI_MAGIC_MARKER),
  AI_HANDLE_PTR(NULL),
  AI_HANDLE_PTR(AI_MAGIC_MARKER),
};




/**  Weights Section  ********************************************************/
AI_ALIGNED(32)
const ai_u64 s_network_weights_array_u64[41926] = {
  0xbf66fc20bfe60857U, 0x3cc7f0efbf851a0eU, 0xbf524f893f180191U, 0x3e1288753ebdfed1U,
  0x3f596db43e82ab93U, 0x3f2cd7423e16e8cdU, 0xbf96549abefe0643U, 0x3e8bc715beb78742U,
  0xbf64d9d6bef34322U, 0xbf0026a5bf36e866U, 0xbf0afd18beddd5b2U, 0x3fbc8d663e12b03dU,
  0x3f196d713fb93857U, 0x3ebc1c1bbee5f923U, 0xc00d558ac000a207U, 0x3ec405cb3f0813f1U,
  0x3eceea7b3f5b2201U, 0xbf216d08bef9040dU, 0xbeac50623f2f0982U, 0x3fb7631c3f824c33U,
  0xbf888a52bf04e3bdU, 0xbd9a5f633e59874fU, 0xbe1bef1c3f7f388dU, 0xbef43575bf919f0dU,
  0xbf7ef095bf9fcb95U, 0x3dbde7d7bf07394eU, 0xbf52f3e5be027a28U, 0xbe43e99dbf1c4a44U,
  0x3eacda483ec141fbU, 0xbf4abf67be1c5d39U, 0x3ce02448bee5f31fU, 0xbeb4c0993ee758dfU,
  0xbe813422bf4a971dU, 0xbe23e9dabea71601U, 0xbf0ea185bf114a59U, 0xbddbdfeebd4e17e8U,
  0xbe63f532bcd461aaU, 0x3f23ae57bef3cbf2U, 0x3ecedaeb3dfac391U, 0xbdbde2053e2e2a71U,
  0xbc8ec577bea5072cU, 0x3ee2ec713f3d0657U, 0xbebf47cbbf76e1e4U, 0x3e98af56be2e2a37U,
  0xbf98a03abfad2684U, 0xbd2f6a2a3d13e620U, 0xbf906bbbbf232e6aU, 0xbf52c738bcbebf8dU,
  0xbf1b5a67bf2a6351U, 0x3cee227b3f66a45cU, 0xbf93d0dcbf028323U, 0xbf3f03bbbf6b8b10U,
  0xbf7e173e3eb53a29U, 0xbf02490b3e6305f8U, 0xbec80ef5bf890396U, 0x3ec82bb5bd639a29U,
  0xbef7c0633d94a32dU, 0x3e6282e1bf07b03fU, 0x3e24bfb83e6f043cU, 0xbe8f5e7cbd2ea679U,
  0x3ee159ae3ec017beU, 0x3e75a3f9becef00cU, 0xbe5eb0d23ed01b6bU, 0x3e104279bd4f0ca9U,
  0xbe64af1bbe90461aU, 0xbf9b85f6bed1f6f5U, 0x3d9211b7bec6d23cU, 0xbc2a2060bf9f6ce3U,
  0x3f8153a93f136073U, 0xbedd6e523f21ccd4U, 0x3f497f10c00e6b55U, 0xbebc431cbedacfe5U,
  0xbf449d9cbeba12c8U, 0xbeb860bebebd1e5fU, 0xbec777343d44f3adU, 0xbe9ac7eebf03d4f6U,
  0x3e016d7ebf4b629cU, 0xbe492f233f7f290bU, 0xbed38a20bf7a0e36U, 0x3f1b9afe3eb43d3bU,
  0xbf8d62b0bfa43251U, 0x3f1616923eab644dU, 0x3dee81acbde04438U, 0xbf35670a3e86ee58U,
  0xbea3ea7e3af8b441U, 0xbe4d59993f2e88b0U, 0xbf14e7fcbf185c58U, 0x3eb505a9be74e2ceU,
  0xbe2cfaca3ea83aacU, 0xbe9a4adb3f3ad4b1U, 0xbd57b4813f2ec7bdU, 0x3e998a2f3ecfb218U,
  0xbf051a9cbc53c056U, 0xbe2c3289befec78dU, 0x3f2395b7bd4a659dU, 0xbfa3c1d2be8a5f0dU,
  0xbfbd1e4dbf77ac51U, 0xbdae058fbe971cbaU, 0xbdef680c3eaf290aU, 0xbfa89fc7bf2008d0U,
  0xbf4e2917bf218e98U, 0x3f6a35923f2c353fU, 0xbf64683d3e6fac9dU, 0x3dc8d080bf322733U,
  0xbe40c481bdf3e44fU, 0xbf9171ebbed2f757U, 0x3e07b9823e5dabc8U, 0xbfdbb660bdac46b1U,
  0x3f5ab2083af4215cU, 0xbe88138f3e85cbdbU, 0xbe8a992dbeab93a8U, 0x3de6f3a4bdcf1c50U,
  0x3f3b4cbd3e13580fU, 0xc048055dbfb4c5b2U, 0xbe60f7b33dd79d3dU, 0x3f42b1dc3f07293fU,
  0xbf3fc6923a8f02b9U, 0xbe791731be61dbbcU, 0x3e1d83d240082a78U, 0xbfe1db2e3f74193dU,
  0x3fa9b1e5c025d010U, 0x3e3d72803f100ae7U, 0xbf143607be8d2122U, 0x3ebe27d7bf6d2922U,
  0x3f7a2bfdbed4391fU, 0x3ee29f4e3f727e2fU, 0x3ebf6feabe1f5902U, 0x3ed00b863f980f91U,
  0xbf258410bf15c3d9U, 0x3fb19cbebefc264dU, 0x3eb569693f03ca80U, 0xbfb87cc93d03e307U,
  0xbdf94991bea4ddfdU, 0x3eebfc26be7ae3a7U, 0xbf1ee74bbf146941U, 0x3ce28e6b3f79c1deU,
  0x3fb0666a3fb73a1aU, 0x3f3872aa3f88447dU, 0x3d2fb7893e9eb90eU, 0xbf335a8bbf10c8fcU,
  0x3f024a0f3f1ef6d1U, 0xbf6eef18bf640645U, 0x3ec5ae7abdaa2b07U, 0xbf13c7f8bea67827U,
  0x3dbd1e5fbf7e87abU, 0x3eaca4073e80e0abU, 0xbeb03fb83eae615bU, 0x3d6c64cebf00f49eU,
  0xbcaee5953eb1a1f1U, 0xbf554a27beefd0eeU, 0x3ed7fca23e90f703U, 0x3f3f31533f27adbcU,
  0xbfd1c374bffb9044U, 0x3f4571aabee97c58U, 0xbf853f18be576e47U, 0x3e1e03c1bfc11297U,
  0xbeda1f804017f1e5U, 0xbea4f9adbfc998d4U, 0xbf2c6b013f63cbb4U, 0xbf5634e2be6a44beU,
  0xbf1a809d3f7898d3U, 0x3f62dfb7bf7ab460U, 0xbfa47f2a3f6e435bU, 0x3ea1554fbe32f0c1U,
  0x3f63b5a03f96f9cbU, 0xbe86112abf92553fU, 0xbee777723ecfe874U, 0x3d269be6be883bbbU,
  0x3f0a2251be07a08cU, 0xbdd220a0bb9a3362U, 0x3f6a62aebe1e7861U, 0x3eaa670e3eae8f62U,
  0xbf4bef243ef565f5U, 0x3f2b8f5fbf0337e2U, 0x3f8e6dca3ee04880U, 0x3ebe85b6bf97e830U,
  0xbe62ea343e48ad08U, 0xbf58af6bbec58b2bU, 0x3f3fea97bed258f5U, 0x3f985d73bea04843U,
  0x3fb351e8bf1a9785U, 0x3ee0e3093f019b07U, 0xbbc317793f9a7a1aU, 0x3f5928063d2a45ffU,
  0x3ed7923d3e3a7cb2U, 0xbf914fe5bf2d5e75U, 0x3e1e880ebee0159bU, 0x3db10a103e11ee54U,
  0x3e395c763ddc0769U, 0x3f305a093f15fda0U, 0x3e448c163e745441U, 0x3ef6eb4bbd0c8766U,
  0x3f2529ec3e788c7cU, 0xbe19e70b3e8e63fbU, 0x3eebf5953e99094eU, 0x3f14c2853f1974f6U,
  0x3ebf2c713d206b43U, 0x3ea856a33d0eb7b2U, 0xbf0d75d4bd623664U, 0xbec0ec083e2cc85bU,
  0x3ebcd7ea3e972565U, 0x3eaba6103f0df558U, 0x3f1372bb3ef3f378U, 0x3eb4357e3eac48dcU,
  0x3ebd3aa03ec4de55U, 0x3e9a3f19bf1af64bU, 0xbeab668a3eb35ec0U, 0xbf0914d3be444102U,
  0x3de207253d0443c4U, 0xbc9addf1bc367b44U, 0x3db19ae6be81c2adU, 0x3de3e83ebe1b6431U,
  0x3d8a70acbded54b8U, 0xbda9841abcb99c42U, 0xbe06f92cbe73acaeU, 0xbdeca59dbd1e4e7eU,
  0x3e1434c23d73e4aeU, 0xbd134ad93c5685b8U, 0xbd622a39be0d4669U, 0xbd371d5b3d8eaafaU,
  0xbe3904483d2d146eU, 0xbcb6962ebe1ff303U, 0xbd3b7840be40538aU, 0xbc4990eebd642b25U,
  0x3e20ebb63d7d615cU, 0xbd8e85b4bdb4ffa8U, 0xbac1d231bd319cd5U, 0xbda54494bc806866U,
  0x3c1baabebe6e5f2eU, 0x3dade819bdabef02U, 0xbd044cddbd1a5518U, 0xbc31eb9c3dd0faa2U,
  0x3d87410b3de025f8U, 0x3dba0fadbd8d0055U, 0xbdc6c72dbe36be36U, 0x3d88af853d37f9dfU,
  0x3dffa93cbd0f4d38U, 0xbe78d99dbe536511U, 0xbdc4491fbea2be9eU, 0xbde878b53cff6561U,
  0xbe5ee519be04cb49U, 0xbe637ebcbe2473bfU, 0xbd97e3dbbe4b2e36U, 0xbe194465bdf6d1e2U,
  0xbe5812f03b9345cfU, 0xbe75c5a7be02d32cU, 0xbd6e6d6ebe750273U, 0x3c9cb5e3be0ed5dfU,
  0x3c443df03bc12b96U, 0xbdcb6379be3a65f6U, 0xbd2d8eb5be0fdbe9U, 0xbdef8d41becc9f22U,
  0xbdaa631dbd49004dU, 0x3d03cedebda8171bU, 0xbdced8babe841c57U, 0x3d583983bd7ccd8bU,
  0x3b94ba9abd79b072U, 0xbcaef4e53b84e6adU, 0xbc36a2d0be7101acU, 0x3dc981bb3de70b78U,
  0xbdd1adb43e15ae94U, 0xbd5c239abec1175bU, 0x3dd54318bded96b3U, 0xbdd748f4bd8291bcU,
  0x3ebc99f2be126393U, 0xbcc45304be00563fU, 0xbdd3c4b9bd42f0f3U, 0xbddebb5abdb8cd8fU,
  0x3dde57bcbd9001aeU, 0xbda00876be30dad8U, 0xbc2fcd9fbc87c344U, 0xbd335bc73d62b20eU,
  0x3e832c78be5c95f0U, 0x3bd0ac72be092fd2U, 0x3d9dfe68be908762U, 0xbceba826bd7a5347U,
  0xbe7bd6a8bcc522fdU, 0x3c4df824bc89f8d0U, 0xbcdc8a113d46948cU, 0xbdf3373c3d22e027U,
  0xbe2b8ae2bc0ca918U, 0x3da36f9e3cf97489U, 0x3bdba74abd58feecU, 0xbc1d1330bd3a797cU,
  0xbdb58937be18943eU, 0xbc1295f03c1d6dc8U, 0xbd1c03fa3d2ea88eU, 0xbd3cccb3bd21b750U,
  0x3ca86b58bd7f0e9dU, 0x3dc2781f3d4fe54bU, 0x3ddfc4583c60aab5U, 0x3c244271bddeda29U,
  0xbe311b76bd19455aU, 0x3d22a2a63b975765U, 0x3d7e32ed3d88c4ddU, 0xbd89eeac3d6f0cacU,
  0xbc8c57f5bd110f85U, 0x3d2a3f133df78eb6U, 0x3d753932bbd87b86U, 0xbd158708bd087e1fU,
  0xbdf0e207bdb36eb0U, 0xbd91a05c3c93a3edU, 0xbd4add213cb3bab8U, 0xbd812c153db10ea9U,
  0xbd3e75a73d97994aU, 0x3e29a7e23d452f1aU, 0x3d96d9913cc2ebd6U, 0xbc2edf1fbcc5eecfU,
  0xbe339d60bd031d7eU, 0x3d2b976cbd240f3aU, 0xbbe61feebc74a0daU, 0x3d246b41bd61cc7dU,
  0x3c9033ac3da3c7c5U, 0x3e6e48383e177465U, 0x3e65af1d3d09f516U, 0x3df1474c3c3a1fbaU,
  0xbc87bd523d0709e6U, 0xbccdc410bd846f25U, 0x3cd6df8d3e059a65U, 0xbd7c1ec13d477f28U,
  0xbdc13c803ccdedc8U, 0x3e1718373e137444U, 0x3dea1c5bbd5f1554U, 0x3c3643c8bda14cb6U,
  0xbd3314bf3d29818fU, 0xbe22f803bde54f6cU, 0x3cd8fb7abc9e98c8U, 0xbe088c2ebcbfea73U,
  0xbc350e1a3db63a16U, 0x3cd26a203dd702a3U, 0x3d63c0013c0cc542U, 0xbda69d27bcd58c00U,
  0xbe0a38783c4d3d71U, 0x3d3b0320bd9af7efU, 0xbd20e9f0bd5709d1U, 0x3c1cb4373d19cd03U,
  0x3d92e2be3cb18619U, 0x3d8e4cbd3df2d55bU, 0x3d8e7a6a3e35d529U, 0xbd53b9cb3db04effU,
  0xbc8e58aa3d9a48b6U, 0xbdc321c8bd82887dU, 0x3d11ef5f3da4ec67U, 0x3cd89a10bd4528eaU,
  0x3df650173c306b11U, 0x3e15460d3c84f0e0U, 0x3e0907fa3e3990abU, 0x3d0b3154bcbe1e62U,
  0x3d5163063e87e51bU, 0xbdabcf7bbde87d77U, 0xbd5dd09b3d45ebe6U, 0xbbd7787abbfdc67fU,
  0x3e046e433d8b75d1U, 0x3e49e16fb9c7b297U, 0x3dacb87d3d9fc87fU, 0xbd9c2b543c13572bU,
  0x3d042aac3cd7c112U, 0x3d04de9b3e2bf590U, 0x3b252c2d3d7d5c48U, 0x3dbc1384bd6b4ffdU,
  0x3e217b443c54dc4eU, 0x3d352c413af125fcU, 0x3cf71b593c78f482U, 0xbc89d97d3d4a84ddU,
  0xbdc29714bc5cbea0U, 0xbc39a1c93d92937bU, 0xbc56042dbd9a3e88U, 0x3c24ac41bcf2ef50U,
  0x3ed7c9dc3d0d242aU, 0x3d04e5543e2518ddU, 0x3d66388ebdc69e44U, 0x3e0a37fe3c4147baU,
  0xbb3f89e7bd972f66U, 0x3d807e463d3f50b0U, 0xbe04d85e3e3ffd96U, 0xbcbc09d3bc4a5344U,
  0x3e0f472a3e0d8b83U, 0x3db60b6d3e2d52c4U, 0x3d6cf9f53d1b4120U, 0x3e29df28bdb0455aU,
  0x3da2b1513c640c0cU, 0xbd1c50513d0050d8U, 0x3da44ed93d87430fU, 0x3d9756a2be2c2e20U,
  0x3e690cbc3d73942aU, 0x3cb984ed3df1cb21U, 0x3d2138f83d5721aeU, 0x3de1c9f9bd31fb40U,
  0xbd88b455bcd80659U, 0x3c8af756bd2a173bU, 0xbdb0f6a5be2d0701U, 0x3d0f1348bda72ee3U,
  0x3e287c33bcb361f5U, 0x3deabe2a3e0a24dbU, 0xbc6792913d5dd802U, 0x3e713e04bd59113bU,
  0x3d548866bcaa628cU, 0xbd0a7558bcdefe38U, 0x3d6ba7f73ddd790eU, 0x3d20ca1abd281e1bU,
  0x3de43d853e10fe05U, 0x3da24a1f3da8e4e1U, 0x3dd9ea833d9dda79U, 0x3e3ec08abd8ec417U,
  0x3d7bf993bc9c793aU, 0xbe035abbbd038aa4U, 0xbe093ef73d0aeabbU, 0xbd817d11bcbd3b81U,
  0x3dc811c73a36a9e5U, 0x3de274cb3e48dd46U, 0x3dc6f0893d015b7bU, 0x3e2aaac63c43c61dU,
  0x3d233722ba0714b4U, 0xbdaee433bd848155U, 0xbe088e55be6c9138U, 0xbd8b0452bca0a18dU,
  0x3b77d247bdc031faU, 0x3e2fca9a3c8a51b1U, 0x3d288657bc149500U, 0x3e5bd6343cac9667U,
  0x3d9616413b82c06dU, 0xbda1084bbdc57896U, 0xbdfccb92bd162794U, 0xbccffe043db2efb8U,
  0x3deff449be0b8f60U, 0x3d195991be40f750U, 0xbe259a773e4bb67aU, 0x3de268463e0c8a54U,
  0x3d270e543dc14395U, 0xbd474b48bc352ed4U, 0xbd296da5be3b9f23U, 0xbde11b683c4c12a3U,
  0x3bd566f53c6f2babU, 0x3d4ba5c2bcfd735dU, 0x3cb13ea53c8f4a5eU, 0x3ebdf36f3dd0751eU,
  0xbdaee137bd68537dU, 0x3bfb8cc93c99b74cU, 0xbe08556dbd995bd0U, 0xbd55a81e39b5c1d1U,
  0xbdc4bd97bd88069dU, 0xbd91cc51be498cd8U, 0xbacda1e1ba6407f0U, 0x3e7777bb3e177139U,
  0xbe356bf8bc045382U, 0x3c29d8233d81f737U, 0xbd703ce53d81d6fcU, 0xbd07f142b90ddbe6U,
  0xbdc12c163dcdbc6cU, 0x3d82fe31bd50c31dU, 0xbce688123e4a911cU, 0x3d753e943d80286eU,
  0x3d6baeddbcf463e7U, 0xbd62cab03cc6a984U, 0x3e2f58793ca74791U, 0xbe4d4046bc7f7fdfU,
  0x3d98ff663c7784daU, 0x3e03b0e6bdb5b73bU, 0xbe405ce33da7e6aeU, 0x3d46a9db3dd6c9f6U,
  0x3e314053bc142181U, 0xbdda70903d422a81U, 0x3db3d913be30c5f8U, 0xbe0bba1cbe3961b5U,
  0x3e07dffd3d654114U, 0xbe131f4cbd993540U, 0xbd9c3fbf3d301d14U, 0x3dd586b53bdb0105U,
  0x3c6c2fa9bd2db0b2U, 0xbe1dc873bc81ac1bU, 0xbcb720af3c058768U, 0xbd73fbf8be9580afU,
  0xbdaedc66be0de8c2U, 0x3d0e0254bd9760e6U, 0x3bbd8d2c3e35cee5U, 0x3b826053bc8a0250U,
  0x3cfc4901bd038771U, 0xbdfe45f53db12e01U, 0x3e28a6523e0e5aabU, 0xbe6d626fbceeb7d5U,
  0xbe8037bcbd56244fU, 0xbe6c982bbd86f818U, 0x3d4e92793de03f04U, 0x3cf1255f3d05790fU,
  0x3d92028a3c9788b3U, 0xbe2984723c4f68ebU, 0xb99f7a96be3c96c6U, 0xbe08d378bd405acfU,
  0xbdd89597bd111950U, 0xbddadf1ebcfc1958U, 0xbdbe9eb53e171808U, 0x3e31010e3df350fcU,
  0xbd1e3f5bbda278e9U, 0xbe4001cd3b1948c0U, 0xbdcbd2763e178d08U, 0xbd6d5f8ebe2747a0U,
  0x3d7183adbd308a01U, 0xbc3e1c65bda6b9dbU, 0xbdac18bb3d80f829U, 0xbd118a263e86dbf7U,
  0xbe99da913df2bc18U, 0xbd7c4841bd948213U, 0x3c3fe90e3d88548fU, 0xbdcbf4493d1d02b3U,
  0xbe500266be53b5f7U, 0xbcb96041bdf52acfU, 0xbc9f4a00bca7c36cU, 0xbe18ff323e5ef812U,
  0x3bd69681bd271c73U, 0x3cd6deb9bd98339fU, 0x3d8031f33e6fafbfU, 0xbd1fcd1e3d39437fU,
  0xbd5921c5bd5d4fa5U, 0x3dc03d0cbc79cafaU, 0xbd10c4b63e843f63U, 0xbdd338c03c4d847eU,
  0x3d0a9d67be2fa1e6U, 0x3c242cffbe5fefa8U, 0x3d0a87f53e394838U, 0xbe2b97b33cddaab5U,
  0xbe85de50be1f6d85U, 0x3d81dc77be43ace9U, 0xbd40face3e1718c8U, 0xbdbac9f83e1f4144U,
  0xbd8855d73dea6b21U, 0xbd8a9ee0bdd5ea12U, 0x3d9098a9be05a699U, 0xbcce8602bae6e1c8U,
  0xbee73d543c2c1791U, 0xbd98ab75bd6a151aU, 0xbd6f63c83cade2baU, 0x3d221725bdb95761U,
  0x3dae22f33a989fe9U, 0xbd8f4511bd5f9f01U, 0xbd7bed973d5effe3U, 0xbd353e89bd4564f3U,
  0xbe8b78483e75c169U, 0x3e19736cbc8d49f8U, 0xbde40e4a3d1a2c00U, 0x3d34eab7be020165U,
  0x3e287b7ebd9c4c19U, 0x3ce5970ebe223a98U, 0xbd945a6b3db2db27U, 0xbc20c729bdbd0337U,
  0x3e2c52e2bd0b7417U, 0x3db2a1febdf2632fU, 0x3cc58c9fbd95b9bdU, 0x3e206707bd92bbf4U,
  0xbe47d6ba3d6daf7cU, 0xbe37d16b3d79f6ccU, 0x3df807adbd8941c8U, 0x3d270033bd6ee9eeU,
  0xbcd84cd8bde8af08U, 0xbcaa7ecebb14ddffU, 0x3e398e90bda3bcaeU, 0x3ccbe685be51a1c6U,
  0x3c5655823cab0944U, 0xbd071d34bcbaa202U, 0xbe337c4f3d9642feU, 0xbb9c9fda3cd92f07U,
  0x3dd2334ebec13ebfU, 0xbdae59ccbd7fc88cU, 0xbd8196a8bcc3fa35U, 0x3e12f3d3be632b9bU,
  0xbd4130a9be021542U, 0x3debf334bdd280d8U, 0xbe97c4283dff81efU, 0xbdaa1bbcbe0e3fa9U,
  0x3c96b59dbde3cfb7U, 0x3db7e7b9bda3db01U, 0xbdb62411bd35af8cU, 0xbd6d25393dd7ffc3U,
  0xbc5b5b6c3d95d19dU, 0x3d0282a53ca8bdc6U, 0xbd4ff6a8bde9c664U, 0x3ca1bc2bbd2f8c31U,
  0xbd84ad47bdd010d8U, 0x3dba25fbbd968338U, 0x3ce119233e00446aU, 0xbd93804dbca613feU,
  0x3dee870a3d8be6deU, 0x3c57e49abcdfb8ceU, 0xbe6fb7483e75143cU, 0xbc9e18e0be0d6957U,
  0x3d48b81abd31a999U, 0x3df2f1fabd99d474U, 0xbcb6e6a03e147f9fU, 0x3c56147dbb8f36eaU,
  0xbc4b4fb9bbecf381U, 0x3e0b0e73bcd1eef7U, 0xbdaddc023da9b646U, 0xbe1f41aebd2445f2U,
  0xbbc60e313d2473c0U, 0x3dcd2aeabdbeafbcU, 0xbd57cd023d8f21e0U, 0xbda0eb053e20ab13U,
  0xbd28e7773d7c1c23U, 0xbd9411aebcd06da1U, 0xbd31ac373ddef7adU, 0x3cf802b03db290d5U,
  0xbd78c26dbd1dd78eU, 0x3c40a6d5bdc9f46bU, 0xbde2a36d3cd4f1b8U, 0x3daedcca3dad914dU,
  0x3c3f0646bd686ea1U, 0x3cedab8abca0c094U, 0xbe4d81c5bdc83d57U, 0xbe22b23cbdbab6c7U,
  0xbc31aed9bdcd5f0aU, 0xbddfbaa1be444accU, 0xbe6cfcb5bba2bfb8U, 0xbd899ea43cc6126aU,
  0xbdf0bb84bcb806acU, 0xbd7fa9d03c999996U, 0xbe0b73203e1aa12eU, 0xbd95b747bdbd8c97U,
  0x3cd81b76bba9912cU, 0x3e27a305bd164b2bU, 0x3c9108d03dd75f47U, 0x3e08ef4c3b6b7ea8U,
  0xbdb19257bd01aa92U, 0x3c814da0bdc521e6U, 0xbe1efe3bbe6747c6U, 0xbce62aadbd6b3ba7U,
  0x3e0c09b8bdabeaa6U, 0x3dac6c1dbe68a712U, 0xbd4aa7993d8c463cU, 0x3debc755bd0eeee8U,
  0x3e0ab42c3d7beef7U, 0xbda0f46bbe4a645aU, 0xbdaa7793bdc12a0cU, 0xbce8377abe0e59edU,
  0x3b58b5f63d2b3fdbU, 0x3ba1ad20be0d0a8cU, 0xbe3a78af3bbf02b5U, 0x3d28d8fcbda4e4daU,
  0xbc81d932bdb334afU, 0xbd881f3dbc0a585aU, 0x3d08c4cf3d405b14U, 0xbd8f4f2e3cee349aU,
  0x3c8dc985bd5dd2ceU, 0xbe10c9af3d933966U, 0x3cc21a203e07b2d4U, 0xbe8170263d2bf5c5U,
  0xbde7dc87bdc67a39U, 0x3d8a126dbe49f8dfU, 0xbe15e3833b519d55U, 0x3ccf7b82be037deaU,
  0x3b90aebe3e48c59dU, 0xbe2445e03bb94297U, 0x3db8d0abbe2ce8acU, 0xbea13d8ebde278b0U,
  0xbd88192cbe0038f2U, 0xbdbd5e46bd88a218U, 0x3d47e71a3e1a258eU, 0xbda25faa3ea2a9ecU,
  0xbdd95316bdd8a343U, 0xbea3d1203e3da9a1U, 0x3dfff8053ddee94dU, 0xbe322baebd9d8adeU,
  0x3dbbc399ba90166cU, 0xbe84656bbe63d4c8U, 0xbe0516ce3e9ae499U, 0xbd019f783d5d1fc4U,
  0xbc7c433cbde2016aU, 0x3c1a3068bd9459c6U, 0x3c2be1703d33be5bU, 0xbd0d6fbf3ca16413U,
  0xbdc337bcbc2bd5aeU, 0xbd992a3bbe1cdd60U, 0xbe34c327bd2e1539U, 0xbcf98b6cbe91f562U,
  0xbd0cb7733d329b35U, 0xbdd59bffbdaf9eafU, 0xbd923ff93bd3382fU, 0xbe1f5c78bdb635b3U,
  0xbe555a78be52f452U, 0xbd4816b1bd8bcacfU, 0xbda4c1dc3dcf730aU, 0x3dbe72dc3e299593U,
  0xbd62d77ebe30d8d5U, 0xbe6f31bbbc86ced8U, 0xbe8840e8bdd9dd69U, 0xbe4ea1c3bdf0c2cbU,
  0x3d3548c7bd946df1U, 0xbdbf487a3cb182d4U, 0xbde023df3cbfea6eU, 0xbde27f9ebd4b19f6U,
  0x3e86f58fbdf6d55fU, 0x3dded6c23cd6ada6U, 0x3daf2a0cbe89dd07U, 0x3dab13913d868095U,
  0xbd296086be4f2610U, 0x3d9f60dcbdd02f02U, 0xbe870d8dbdcb821cU, 0xbe3fc119bd92594cU,
  0x3cf0d3af3cd055b5U, 0xbe05262cbdafd7d5U, 0x3c9ab1bebdb6912cU, 0xbe20bbe83e6189beU,
  0x3d8a4ae5bcc94359U, 0xbd3942e13ba20b17U, 0xbdbd3009be1e7a00U, 0xbd1e6c3d3c8610d5U,
  0xbd136cb3be5ad34cU, 0xbe8eeb31be6e7befU, 0xbe07ee7abd074ff1U, 0xbe20d2c7be944c53U,
  0xbd0711013de1f679U, 0xbe902db7bdb1c8ceU, 0x3dda046ebe17deb3U, 0xbe08fe4bbda197edU,
  0xbd555d3cbe0e6958U, 0x3cc0d6c6bde1f561U, 0xbc7e70c3be23d8e2U, 0x3d3262593e703b2eU,
  0xbe029a533e48e0b5U, 0x3e5e03813b6a86d7U, 0x3d0d22fe3dcad286U, 0xbdfb43debdc33b00U,
  0x3d3efef8be0fd079U, 0x3e0638dfbdb1ae9bU, 0x3bbe8a16be190d98U, 0x3c222cc53e5aea8cU,
  0x3d87d5483d9b24d3U, 0x3b89bb0eb9c5a7adU, 0x3d86b48c3e193255U, 0xbe0886243d08e099U,
  0xbdaf9e2abdb1a946U, 0x3d479e2cbd1b80beU, 0xbd41ad4ebd5af4e1U, 0xbd842a023c2271c4U,
  0x3cdc58aa3d02073fU, 0xbd13e616bdf2f5a1U, 0x3e1318d33da7a4d0U, 0xbb74ba6fbac8c9abU,
  0x3dca5624bd9c6b18U, 0xbb1e089dbd67f765U, 0x3d91422fbe1d8f5eU, 0xbd4a41083e8d791eU,
  0xbcec37d13d8a3d2bU, 0x3d6c8b193d00b442U, 0xbbb8ddb73ce1b506U, 0xbd1bbf2dbcc6a7a5U,
  0xbc923e4abd44852eU, 0x3e318581bd3d61f4U, 0xbb464284bd8bc9ceU, 0x3c1f04f63e80a195U,
  0x3ca121933c7d4e52U, 0xbd776035bd0df79cU, 0x3e491beb3e962508U, 0xbdacfd6c3dae5186U,
  0x3e0b2a9ebe3102c1U, 0x3dd10df03dcc8832U, 0x3d970288bcf5efc2U, 0x3dc151d6bc87ffa5U,
  0xbdbadad2bb7eee04U, 0x3df16891bcf77ca1U, 0x3b9f1f2a3d045e6aU, 0xbe20383a3d04d0daU,
  0x3e246acfbddd4ee9U, 0xbc4e885bbb653f6fU, 0x3dbb423abe0380ecU, 0x3d14fc88bdcbe840U,
  0x3d8dcb9dbe239e93U, 0xbd00da9a3ce5ed0cU, 0xbd91c9e13d3a004aU, 0xbdf38525be8c6164U,
  0x3d72e3b53dc70c9dU, 0x3e7c49c0bb82c74bU, 0x3dd5c82b3d90dd99U, 0x3d96e98dbc16a026U,
  0x3dc013a2bd6d472aU, 0xbe270e023b359d73U, 0x3c64de593e017065U, 0xbe1938cb3d0512bfU,
  0xbe4a339ebe01daccU, 0x3df082643e2a803dU, 0x3dafcb82bd6fe5d3U, 0x3e49a9f9bdbb0223U,
  0x3e0cc339be1839edU, 0x3bcf4c70bbb857a2U, 0xbe36ed313e097552U, 0xbde85c74be26ff4cU,
  0xbd39b9cfbd7e192dU, 0x3ccdc1bdbdf602b9U, 0xbca5ba0b3dd7ae94U, 0x3cea0bf4bd9a1bccU,
  0x3d45e11cbdf546e1U, 0x3d152b39bdaef8c2U, 0xbd87b370b9f8ad28U, 0xbce475413cedd31eU,
  0x3d585e823e3c4c24U, 0xbc8f3993bdc7fccaU, 0xbd49e49d3e374d99U, 0xbd8bfe47bd5a7f9fU,
  0x3d9c0b35bd37971dU, 0x3cd186a03c96d659U, 0xbe0839293d447534U, 0xbe4cb59fbe1d6bf6U,
  0x3d6926613e4cb949U, 0xbd8d81c3bd5bdc31U, 0xbd95f6193de3439aU, 0xbe16a393bd3ac944U,
  0x3dcf3fb8bc92c5b3U, 0x3c4061b63d679776U, 0x3ccdd9543da8bc42U, 0xbe1233a4bd7235e4U,
  0xbb9a8dba3d8206a9U, 0xbd30ea8a3b9e0a2dU, 0xbc9c9d553c633ccbU, 0x3b9b8c07bd5bf90eU,
  0xbc6b89993ae2d9b2U, 0x3d6eca8bbd77b41dU, 0xbd89bf4cbcd11057U, 0xbd8a1678bd0fc74fU,
  0x3d87300dbcd7d481U, 0x3bc4824bbd88e3e7U, 0xbd337a6f3c86cad0U, 0xbd725176bcf854fbU,
  0xbd8b789cbdd046dcU, 0x3d17190fbd7b73b2U, 0x3d19fa993c327fe9U, 0xbe51a241bd67eb74U,
  0x3d2baa37bcd63c6eU, 0xbcf62b25bd6a6457U, 0xbcc90cb83d21395dU, 0xbdf0a3403d121635U,
  0xbd8f1298be06a47bU, 0x3d89455f3cfb9a9bU, 0x3d0ca41d3e75818eU, 0xbdbb59513d4181e8U,
  0x3d85a27ebd0525d0U, 0x3de6f53d3cc82dabU, 0xbc89442dbc8a6807U, 0x3e0af78ebd3e1a3dU,
  0xbcbb2e50be1e4c53U, 0xbbf43a213b0df371U, 0xbd9b084fbd33b462U, 0xbde410473d21ee88U,
  0x3da4b9aabe20dbb4U, 0x3ddb667abd7dc7bdU, 0x3d61e7d0bdc61740U, 0x3e1ca460bc936963U,
  0x3ccfcc95be1a50aeU, 0x3ce2a2c6be1060dcU, 0xbdb922183be92dd6U, 0xbd8926bbbc3ae524U,
  0x3e0d51c3be285760U, 0x3c196eb8bcb97eb8U, 0x3c9b5a72be0afa57U, 0x3d0e01f73da43f92U,
  0xbd02d852bdd7ce3cU, 0x3d6cf6b6be3b2ca8U, 0xbd037a703e22c595U, 0xbbd999d73e0d25f3U,
  0xbd4767ff3e271ce3U, 0x3dee7b263e59716bU, 0x3de53e163e044becU, 0xbdf4e67bbd2e0218U,
  0xbe0495903ddeb11bU, 0xbd36b233bd958f9dU, 0x3d152dc23e319c47U, 0x3df869183df4a0afU,
  0x3dae12b9bd84d0f2U, 0xbc6913c33e044a4eU, 0x3db8b1163ded7037U, 0xbde0f063bdd0e9f4U,
  0x3da45d553dc65f7fU, 0x3e3e1c483e00fd2cU, 0x3d90c0423e3a9258U, 0x3df11f23bc4b4be4U,
  0x3d87c6263b7d28e7U, 0xbe2ccdbd3d73828bU, 0x3dad3b283e73c486U, 0xbe8883c6be18021bU,
  0x3e0722d03cd98bbbU, 0xbc4233aebc4a6f49U, 0xbe4f9c22bd1fc823U, 0x3d41e578bdd7305bU,
  0x3d10d4e33cc5d14cU, 0x3dadfef23e04248dU, 0x3ccad9ff3e88f559U, 0x3d2061803eb43970U,
  0xbcc0f6323e0d1af6U, 0x3cb68566bdccf213U, 0xbc8b3d7dbdf17fcaU, 0x3d13fd01bd875387U,
  0x3e01752dbc917509U, 0xbcfb4e263e10c8d0U, 0x3d95a1f63e7eb1e9U, 0xbd9e8a043e841955U,
  0x3e5da1363e0944bfU, 0x3d14491dbd4318c6U, 0x3d6013b53e34b381U, 0xbd93c135bd3d18dbU,
  0xbd9bf6643e04c13eU, 0x3d2f36dabcdb3e6aU, 0x3e917e973e07559dU, 0xbe39ba903dd3c57bU,
  0x3ca09c333e4dd0ecU, 0x3dad4bb7bc31e50aU, 0x3d0468843d40b72aU, 0xbd7135883b25905cU,
  0x3cbaf148bdee6c6cU, 0xbd3685933d31450fU, 0x3c966ce43ea7246bU, 0xba9a9f2d3e43737dU,
  0xbe689ebf3c26f9e3U, 0x3c94c2fcbcb2c892U, 0xbd9cfc08be807e15U, 0x3d284cd7bd8f4f5bU,
  0x3de2b1aabda20e19U, 0xbcdc0a463d2d01e4U, 0x3af6f9583e2fe3c0U, 0xbe84155f3e5629e9U,
  0xbcf19c143e036416U, 0x3d70a03c3ca1900eU, 0xbde403a33d125471U, 0xbd8d888abd5ee509U,
  0x3a20e2463ad83f2fU, 0x3e34097c3c664f29U, 0x3df5835e3d143c7dU, 0xbe0b46cf3d95e0aaU,
  0xbc8e78a33dfb1313U, 0x3bbd1eb2be030d2aU, 0xbe7181203e472a0bU, 0xbd79756cbdca5a05U,
  0x3e3d798f3d06561eU, 0x3d58817e3dd123cbU, 0xbe2fa3c33bcab97dU, 0xbd34e2853eba869fU,
  0xbe7c4183bea8f28dU, 0xbd0315df3d20f8caU, 0xbd75214d3dff5b7eU, 0xbbec709dbdf3584aU,
  0x3e1a28d13d8965b2U, 0xbda30f87bcb4c777U, 0xbd8c47e43cc33616U, 0xbe78af2f3e1b5381U,
  0xbd961ea33cdacfd1U, 0x3e0ac2c63c9dac6eU, 0xbc0741ba3d4388a6U, 0xbb1060dbbd13e707U,
  0x3ea1f8edbdb05d58U, 0x3df851493dc6815eU, 0xbdec8fef3d351ee8U, 0xbea5b524bd06576eU,
  0x3d82cce8be57fc58U, 0x3ea83e99bea78edcU, 0xbd9d92073e832570U, 0xbd93ee453d62922eU,
  0x3ee81a003dad49abU, 0xbe4348b33e070da5U, 0xbdb72b803dd2306fU, 0xbdecfa323dbaf99eU,
  0xbe95a7c33d99e007U, 0xbd008b05be6fc130U, 0x3d6b0e693da1de18U, 0xbd4c9ed53c5cbbc1U,
  0x3e6930433e0b6f6fU, 0xbd0a17afbe00ca66U, 0xbc7365c63c6d4ba8U, 0xbed597f13c1bc851U,
  0xbd09ba073e5eb0faU, 0x3cfe37dbbe4cb905U, 0x3adf0bb53e69ce2bU, 0xbd20ab94bde22ac3U,
  0xbdec2f16bdbbfdc1U, 0xbe3e3122be56de93U, 0xbdf40cb03dc4f0a9U, 0xbcbe61bfbd093817U,
  0x3d0e95103e4cc55bU, 0x3d61655fbe8c8c0cU, 0xbe3c92153adc61b1U, 0xbcfe86573d0dcb2cU,
  0x3de8d2423e511d4cU, 0xbe5ad4393d560b5cU, 0xbe7fc51bbe638c2fU, 0xbe9008ea3e7fcd1aU,
  0x3e07b71e3e9c0c36U, 0xbe7d3f1fbd341858U, 0x3df134a03e9b4dceU, 0xbe15e63d3d8399e3U,
  0xbdddfe133e0ff6e2U, 0xbee9b877bd30c154U, 0xbe2b5f56bd6af406U, 0xbebd51f33e5fee8cU,
  0x3da4e2b13d20cc02U, 0xbd99ecac3d19b6ceU, 0xbd6993873dbfc910U, 0xbc8b75d63d876eaeU,
  0xbea4cdcd3d08e057U, 0xbe12dc6dbba1d3bdU, 0xbe64e29cbe494de0U, 0xbe8affac3c04af43U,
  0xbdf73f9b3e1e63acU, 0x3e22bdf9bd0d2501U, 0xbc011a96bde913feU, 0xbe03b275bd6cb5e3U,
  0x3d42e0bf3dcddc47U, 0x3d9c4759be852264U, 0xbd52c31cbd188af4U, 0x3c0ebfacbd21fc83U,
  0x3e8540f0bcf0c7d6U, 0xbd4ca7f6be18f6e8U, 0xbeada4a93e2a1f57U, 0xbdda9302be3b8af1U,
  0x3d8b3d8fbe52d5b0U, 0x3dde3bdabe7b394cU, 0xbdb21940bc8fcf74U, 0xbd9b59753e301e08U,
  0x3dee994f3d4b8402U, 0xbc85671c3ce45c9eU, 0xbe0325523ced42e3U, 0xbdd5d313bdf3d108U,
  0xbe04cc65bdd5f59bU, 0xbe052ceabe0ae4e0U, 0x3dfbff24be1aa34dU, 0x3d4725583d93024cU,
  0x3d87ceb9be0879bfU, 0xbe1209d83dc4db2bU, 0xbe0146763f0868e2U, 0xbdc9e627bbabee6dU,
  0xbca5a7e63e4f1dc0U, 0xbd745c1cbe4b1f1dU, 0xbd910a8fbda6e28cU, 0xbd1db9133e533c9aU,
  0xbd403c843e56fbcaU, 0x3d9bb6e3be072b99U, 0xbdb1dc1dbe840186U, 0xbc5d8a1abdfe0320U,
  0x3b3236ecbd134c37U, 0xbe35efa1bea63b31U, 0x3ba9d9ecbdb37834U, 0x3db8f5313cd90304U,
  0x3e24ecc8bd4361faU, 0x3d543cc1bda7bf73U, 0xbd92cc76bd5bcc71U, 0xbd834a7dbba922a2U,
  0xbd62c8ecbe1a2e30U, 0xbd85f90ebe4beb2aU, 0xbd39164abd42f95cU, 0xbd65f11fbd7b9bcbU,
  0xbd83d67dbd017c6bU, 0xbd8e20c6bdc3b03dU, 0xbd0b9aee3e0d68b0U, 0xbe073c26bc10b283U,
  0x3bd368613e44176eU, 0x3c100796be5fbec2U, 0xbdeeea2a3d96aed2U, 0x3e9c7b0a3ca48054U,
  0x3cc005f93e3d2ba9U, 0x3e5d724abcccab27U, 0x3db2c178bcf3a903U, 0xbdf44069be03fbcbU,
  0x3dd6abe3bccf6840U, 0x3c8e8ed2be856cccU, 0xbc988a423d05302cU, 0x3e4d1ed1bd274789U,
  0x3e15f81b3c7a3036U, 0x3d5d219abc784b9eU, 0x3e28b863be83debbU, 0xbdce6a45bc64a0e6U,
  0xbe044f00bd43b7edU, 0x3d381c52bd310a22U, 0x3d69fea83d0ab829U, 0x3e407465bdb491ebU,
  0x3e68bcd03dc4a3f3U, 0xbe8ef58ebdfb1430U, 0x3db23341be22355bU, 0xbca9146e3c6cc2deU,
  0x3e0361243d85f0f5U, 0x3cbafde43e178fceU, 0x3e05a6fd3da6ad84U, 0xbda13426bec031acU,
  0xbe5dff4abdcaf1bbU, 0xbdbfa31c3b063152U, 0xbe6c53543dadfef9U, 0xbd14b822be8a9561U,
  0x3ea53a0e3e0607a5U, 0xbe6b8a433df391c2U, 0xbbda258c3a623ab9U, 0x3cd5ec31bdfdd242U,
  0x3e9068f2bdd64feaU, 0x3d437135bda53f6eU, 0xbcd875c2be1120beU, 0xbcd9681bbe511585U,
  0x3d51a7a33d8202a6U, 0xbe376111bb3abdd8U, 0xbc3b01ecbdec8ecbU, 0x3de4a009be7e5dbdU,
  0xbc446c0cbe529b61U, 0x3d15fe94be826304U, 0x3e4df970be29d4afU, 0xbdbf352ebdd40babU,
  0xbe0da7643e058c16U, 0xbc09011b3dfe3037U, 0x3d046598bda684eeU, 0xbe843d7dbe5a5defU,
  0xbe4a21083d5daad1U, 0xbd6c601d3cf78303U, 0xbd4c01633dfa3d70U, 0xbd7c19b5bdd59936U,
  0xbeabb6c0bda74a54U, 0x3d9755313d230739U, 0xbd0fc211be32abbeU, 0x3d6ba8d4bea9db28U,
  0xbd5faaa3bd36fa0cU, 0xbe29ef203c22f322U, 0xbb1ed1b93e9a74aaU, 0xbcd4f0f43da14b9eU,
  0xbe8d41afbe36a096U, 0x3dc171b3bdb0bb2cU, 0xbe331e0abe064492U, 0x3d2961e8be58016bU,
  0x3dae62f2bc30a824U, 0x3cedc15abdbac9d8U, 0x3cda19d6bee41f61U, 0x3dea1fd53b2f3047U,
  0xbe6cedbbbcd2499eU, 0x3d4a8e60bd553c09U, 0x3e2e1df4bdf2229fU, 0xbea6ef1b3df8e0c6U,
  0xbcda15e43e91e663U, 0x3d280d97bd677413U, 0xbc5c1a113e42965eU, 0xbd9854edbd042de4U,
  0xbea1aaf63d236081U, 0xbd96e2d43e3b9358U, 0x3db8529fbe89666eU, 0xbe00f6563917efc2U,
  0xbc8fa6673e930346U, 0xbdb220cebdfe71bbU, 0xbe02357e3cab6305U, 0x3dadd26ebd05d5beU,
  0xbe516b5d3df87b90U, 0x3e4b45b43db04f6cU, 0x3e5690bcbed11803U, 0x3c72f229be580facU,
  0xbe7996133e46bf39U, 0xbba8cba0bd6eeb3dU, 0x3da1db6ebdb988b1U, 0xbcbde9c83bdeb346U,
  0x3db338233e9c3e2cU, 0xbd034aea3b3c0ce1U, 0x3c08ffaa3d7059aaU, 0x3e609344bd8ecd5eU,
  0xbcb73f31bdd12634U, 0x3d3677ea3d75d7bfU, 0x3d4095f3be020b4aU, 0xbda92df0bdb287f1U,
  0xbe2ce547bd83011fU, 0xbd4600bbbd49dbb0U, 0xbd15c34d3e091e7fU, 0x3e1bfb6c3dce57efU,
  0x3e930bb5bb00fb9fU, 0xbd3a88f2bd8237d2U, 0xbdd66e453d94b972U, 0xbd85bc73bd5d5983U,
  0xbe9b12efbd85be9bU, 0xbe1fc4a5bde74298U, 0xbd6618903e90f8d8U, 0xbd4a8e793e0e988cU,
  0xbd5ed9303e062106U, 0x3dba3049bb96dea1U, 0xbd1840ff3da8a663U, 0x3cd25e313c4d6d8bU,
  0xbdd41a26bcb94b89U, 0x3da9498dbbaebeeeU, 0x3deda1bbbdbcb626U, 0x3e12f245be0a0a71U,
  0x3c4a787a3e03c6b2U, 0xbe1c5deebcdb928cU, 0x3d5a348a3d508de3U, 0xbe29e3883c3591f7U,
  0xbeb4f4da3b857bf4U, 0xbd880de2bdc00ad0U, 0xbb54b63d3dc67e11U, 0xbda0969d3e12d8d3U,
  0x3e5353f83da9b591U, 0xbe89a014be04dcc3U, 0xbd0106b0be822878U, 0xbc7d6252bd0178a3U,
  0xbe82089e3cf4c66cU, 0xbcc58c13bdf0e878U, 0xbd074f383e3b7358U, 0x3dd913683d159f25U,
  0xbe6fd8743bbe4824U, 0xbd9ae6d63c8c95b0U, 0xbdcf5847bc005eeaU, 0x3d95efa03d104371U,
  0xbe63c0c13db53241U, 0x3ced10eabcc58feeU, 0x3e039cd5bdd117beU, 0xbe2b20c0bcc90471U,
  0x3db7de9b3de9901dU, 0xbea190b6bdbca727U, 0xbb9927fb3bb64edcU, 0xbddd9186bd92a467U,
  0xbecf6b01bdc10cb8U, 0x3ceeb257be00446cU, 0xbd04f5eb3dd91dc4U, 0xbcc96a6b3dc67933U,
  0xbda03502bd888e32U, 0xbe7865aebe4d30b9U, 0xbe0137373bc82f34U, 0xbd800f27bc2ff005U,
  0xbe3926bbbd75389eU, 0x3cc340a0bd7042fbU, 0xbde1413b3d6705e5U, 0x3cd430983dc5820dU,
  0xbdeb8befbd5cd4cfU, 0xbdeb09a4be4705c1U, 0xbe13a88fbcdca910U, 0x3cbebb7fbd964163U,
  0xbdc496b33dd71000U, 0xbb80dbe0bd17baeeU, 0x3e0921b3bdda9a7dU, 0x3c98f06f3cc785b3U,
  0xbee7653b3d6f5885U, 0x3e140f403d33c53bU, 0xbebcc6b43d896b75U, 0x3dd47f8ebe0bc93cU,
  0xbc903832be9c9630U, 0x3e01bf9ebdb8d8e8U, 0xbcb354d0bd8c988aU, 0xbd819a7fbd53b543U,
  0x3d0814aabd28f5c3U, 0x3e2f21ce3e17765dU, 0xbe32cc463d4858a4U, 0xbd3e0697be0c1343U,
  0xbdac9e2cbcbe1c3cU, 0xbccbabee3d0c2ce1U, 0xbcc3cc2fbe40c22eU, 0xbcb84e13be67a6eaU,
  0xbe9c90793b83ba82U, 0x3e82a2df3df0612fU, 0xbd35e6673e243348U, 0xbe233e72be86d6bfU,
  0xbc4734493db45a59U, 0x3cb9af0fbc2b7ee8U, 0x3d413c0dbcd7c96dU, 0xbc9597793e4762c9U,
  0xbe51dbbf3e609802U, 0x3e04404a3e4347abU, 0xbe70c7d0be795e26U, 0xbc4752f4be593a5fU,
  0x3df6004b3e035d02U, 0xbe33af12bcf2b1ddU, 0x3db1eaa7be234f8dU, 0x3e273ed83e112f99U,
  0xbd1f0e923e029c56U, 0xbdf8c491bc63dcc9U, 0xbd00e129be3ca6f8U, 0xbca5e2ef3d6f9d22U,
  0xbdcacb28bdb67568U, 0xbd200aacbe2511b4U, 0xbe636ca2be264032U, 0x3d8294a3be092e50U,
  0x3ca807dfbdcd540aU, 0xbe15108bbd42cc79U, 0xbca27a5ebe538252U, 0xbda02febbe2d7cefU,
  0x3e496b2f3e7c5367U, 0xbe6297da3deaada3U, 0x3e8d7042be339a36U, 0x3e1dd05bbce76ce3U,
  0x3bc9a5eb3e17ccb9U, 0xbe064d813d3ee5faU, 0xbdcf3bdb3e3f2adfU, 0xbd8291e7be16ffcfU,
  0x3e8e6cb23d6d5680U, 0xbbbe70283cd8deb3U, 0x3db1c9ed3d81215fU, 0x3c21c4b6bd9809ecU,
  0x3e55635abdd7d715U, 0xbea331a5bd8e0967U, 0xbc999823be95de03U, 0x3b6331363da95221U,
  0x3eb23e45bebec6f2U, 0x3d7003d2bc885bbdU, 0xbe61ae24be9da116U, 0x3ec8a3b0bdda7132U,
  0x3dd208e6bd919939U, 0xbe6a7e2bbc939716U, 0x3db395a7bd2e76c3U, 0xbe0a5b183b31f901U,
  0xbdd61670be2307f0U, 0xbee1ffc93bff4b26U, 0x3de816ee3e21b317U, 0x3dfac93ebe968a5eU,
  0xbd08dc22becaa910U, 0xbe7c6493bdfd5923U, 0xbd9c3565be0a5099U, 0xbe5c0090be1528c2U,
  0xbd084721bab1bdeeU, 0xbcd9b72bbd752bf0U, 0xbe49f9693e37487fU, 0x3e3b19c93d1e3cc5U,
  0x3d8a6606bef73955U, 0xbebf3b6d3c6b3d2bU, 0x3de46783be4de71cU, 0xbd650febbd20f434U,
  0xbdb5c7f53d7f724eU, 0x3e5d11703d0b0ee1U, 0xbdd72f2ebcb140a7U, 0xbe56bc4b3e6e549eU,
  0x3e112179beb49bb8U, 0xbe8401443c8f573bU, 0x3e837f1abe58e186U, 0x3c82a692bd656070U,
  0xbbf77f12be82dd6aU, 0xbe7fbabdbe303c47U, 0xbe648420bd579a20U, 0x3eb048abbe57aeaaU,
  0xbda1d9e9bc847e26U, 0xbecef36dbe87e211U, 0xbe019e883debfccfU, 0xbe2468abbddeb4a8U,
  0x3c7db90cbd9d9ccdU, 0xbe90b92cbe847458U, 0xbdb53f43be2853beU, 0x3d97da02bf0fbd82U,
  0x3e1c7c17be3a52e7U, 0xbe10ab6bbde2cba7U, 0xbd9c99dc3e846337U, 0xbdcc870dbe23625fU,
  0x3ea8bbdabe8194a2U, 0xbe11a09dbd62c0b1U, 0xbd1678d63c861746U, 0x3e63ff66be94d7bbU,
  0xbd82d613bf1ad918U, 0xbd80e17e3d0b146fU, 0x3e4fa88fbc8358f9U, 0xbda414ef3d4ce73dU,
  0xbec62bffbcdf653bU, 0xbe88ec9fbe015c04U, 0xbea0817ebd5edbd8U, 0x3ce227a0bdad0575U,
  0x3d914a44bdfdafbbU, 0xbe071a72bd64e5d1U, 0xbdeb7bfbbe276f5bU, 0xbdcec2b8be026364U,
  0xbdbf34d23b7a5cf5U, 0xbe6e8e4ebe5ab5b6U, 0xbeb98dd0bcf1ba23U, 0xbd0f8e6fbf2310fdU,
  0x3da6cec93de0bfd6U, 0xbdb2fd7a3d00ae8dU, 0x3e06e44dbee1644fU, 0xbc200ca7be046781U,
  0xbe46181ebe28a09eU, 0xbe5fbfccbd9f38f9U, 0xbe1f00c63dbd73bbU, 0x3e5359d6be68f841U,
  0x3d8ede09be66d071U, 0xbca9ed0dbd9853abU, 0x3def88813e14bb4eU, 0x3d92cecb3e16af90U,
  0xbd7b9b71bdb8f9d1U, 0xbde785f53d725d06U, 0xbd25ea393d40dc1cU, 0xbd84342ebe3ecef8U,
  0xbd975361bc811cd3U, 0xbe78684c3d1cd6b5U, 0xbdbd23b43e6d5ac2U, 0xbde9474abc840f1cU,
  0x3ce65e8a3e0de962U, 0xbcc0123bbd8c5906U, 0xbd60c5e93cdf23aeU, 0xbd1474babe0fb734U,
  0x3e75c0a4bd905f76U, 0xbd3d72de3db67625U, 0xbdc5016f3da382ffU, 0x3cf16110bd5881f4U,
  0x3d836f22bde9b705U, 0x3d92be403c79d804U, 0xbdd2b71b3d4f3d3aU, 0x3ddadc7fbeab44a3U,
  0x3d99c9d3be3459a3U, 0x3d892e71bd449c45U, 0xbda9e4c03e73ac14U, 0xbdc089f73cb803a2U,
  0x3d103a32be271088U, 0xbe12ddd63d5c1b9eU, 0x3d9ef9cebd25d108U, 0xbea1a5b23dd42714U,
  0xbe0ef0423e6aead3U, 0xbe538115be9bb857U, 0xbd4465b43d9c8cacU, 0xba3edf243e38071fU,
  0xbcab0decbc572e30U, 0x3c931612bd9de8eaU, 0xbcebe412bdeb09d9U, 0x3c883dcf3cbe0904U,
  0x3a8c482c3da06a73U, 0xbcf28725be5bd081U, 0xbd2400753e057314U, 0x3c2379e13db7fb0dU,
  0x3c1b5ea1be582a40U, 0xbc994f44bd6d43f2U, 0xbe1c1b4ebdb1a5a8U, 0x3e3d0daabed7b74fU,
  0x3e2474403e1c1713U, 0xbdb37ef9be0a6a83U, 0x3d027bbb3e23d592U, 0xbd0f5f683c1110efU,
  0x3da670a6be6fe37eU, 0x3cf7bd633ce43534U, 0x3d7a29383d0cf6e9U, 0xbe929d4b3e8a2a63U,
  0xbe45d2cd3e052376U, 0xbe03b4bcbe00d231U, 0xbd493a363d7a2e54U, 0xbd4156583d31d649U,
  0xbe0069ca3de73fc1U, 0x3df2e15dbd3df6adU, 0x3cd9752fbdad3cd0U, 0xba2d1f063bb6fd2dU,
  0x3e12abebbcbc0c07U, 0x3dd53dfebe38beecU, 0x3d760c1d3d0faa89U, 0x398e21743cb10810U,
  0x3e082d763d74bb29U, 0x3e2e726ebde87f56U, 0xbdc03d2abdda3acfU, 0xbd2ccfc33e0d72ccU,
  0x3db4bca93d17833bU, 0x3d943b67be3f8147U, 0x3d3d4a2fbbb68e76U, 0xbd7cd5cb3d864606U,
  0xbd34c4c63db756ecU, 0xbe013cc53e5ba764U, 0x3e2f4ce63e72f11eU, 0xbcbd7df23cc85efdU,
  0xbdad3eb0be458ca8U, 0xbe6d23723d8dd4d1U, 0xbe2cdff9be0a13b7U, 0xbd50ab17be04df90U,
  0x3cdbd94f3e0ff62aU, 0xbd9432523e6211e4U, 0x3e0ecf263ddf37f8U, 0x3d8a41263dd590a6U,
  0x3dbd04b5bc498ed8U, 0xbdd3e5953e13f8f1U, 0xbc8f1b34be9486ecU, 0x3c90384dbc8b6103U,
  0xbeb4cc10bd371238U, 0x3d43f6e23e20495dU, 0x3d50a00a3c21e860U, 0x3e42fde23d89840cU,
  0x3d7b71b83d41f325U, 0xbddff2e33d36dd11U, 0x3e955ca63e4c0048U, 0xbc5f094cbd83906eU,
  0x3dd8db783d2ed3b4U, 0xbe1615153dc645a0U, 0x3e38fdbc3d62c8a6U, 0x3dbb92babdf131acU,
  0x3e293887be77876eU, 0x3df5bbca3d6c1c87U, 0xbe38c487bd8716d3U, 0x3d017bc6bc4ae752U,
  0x3e761190bdaf74d1U, 0xbe637ae63ddab4f2U, 0x3d0ca6f53de5ab88U, 0x3e84d75ebde6fe5fU,
  0xbe1eb8dabda7f65aU, 0x3da243f73d622ccfU, 0xbd217b20bde2e88aU, 0x3da786a8bb904e70U,
  0xbd2ae54abdc09fdbU, 0x3b45bcefb900bbd2U, 0xbbc06b653cda5571U, 0x3e8c5802bd9cb3adU,
  0xbd7a95c8bb35a0deU, 0xbe4324d23dda6142U, 0x3e0c6bf7bdd686ecU, 0x3d9d10063d97bf13U,
  0x3ab8eb5a3c93fd1bU, 0xbe1c18e93db6481cU, 0x3d8f70713cc690beU, 0x3a2fe10dbd9b9ac2U,
  0x3e8af530bcc69f1eU, 0x3e9d79173e1c6ef0U, 0xbccb1aa03c9aa599U, 0xbc55f244bcba7a5fU,
  0x3e81941c3e64af7fU, 0xbd57a3783d58b62fU, 0xbd78c91d3c4ea818U, 0xbe182a3bbd91c629U,
  0x3dc32efdbceb60baU, 0x3e5cc1013de911f7U, 0x3b58e11bbeaf7d2dU, 0x3d0459e13e207badU,
  0x3de60162bda01711U, 0xbdee4aa3be4f28fbU, 0xbd29467cbdd7ea18U, 0xbddd80cabcadbc8cU,
  0x3e3f899fbe10175dU, 0xbdbcdab13e063dbeU, 0x3deb4bc9be66d0dfU, 0xbdc68a773d14af7bU,
  0xbd06d0a33e33e9d5U, 0xbd6798ddbd9e3e92U, 0xbd88020dbdab1f92U, 0xbe170d493e2160e2U,
  0xbd68db713deca11bU, 0x3b938d09bd68ae4fU, 0x3dd0c18dbe9810e7U, 0xbe56d737bde67296U,
  0xbe805e453e3e8db5U, 0xbdf93a60be19abd5U, 0xbdaa459b3d88f042U, 0xbcf7df5b3b07a52aU,
  0xbd55e79f3dd58167U, 0xbebbe7523d032da5U, 0x3decd9813dd03b19U, 0xbdf431bdbde14e07U,
  0xbdc92202bdf88023U, 0x3d285708be36459eU, 0x3d34b82dbd7f50dcU, 0x3ce224a1bd61f012U,
  0xbe171abf3a96fabeU, 0xbdf64952bd5c734cU, 0xbe1026babd1c9803U, 0xbdb500a5bdacb049U,
  0x3e0001383e5f4533U, 0xbd429494bd94073fU, 0xbc82201dbe1c2006U, 0xbd86fbfc3cd32f6aU,
  0xbe1abfedbd1b6599U, 0xbc04fccbbd9fa5dbU, 0x3dedf68e3d96185fU, 0xbe079bdebdd52e8cU,
  0x3df3b2dc3da68050U, 0x3b0a576bbe276dd3U, 0x3d9b7857be9e93dcU, 0xbd39c5163c749e39U,
  0xbc99707f3db2e1efU, 0xbea6cde53d90d391U, 0x3d0dfe993b8885c6U, 0xbd78af35bde90a89U,
  0x3e836805becd120aU, 0x3abda189bd9ded3bU, 0x3d8589ddbe27ce22U, 0x3d6f2d993cab4faeU,
  0xbddb150abd80622dU, 0xbc06e1f9bd15068bU, 0xbe025cd23e501444U, 0xbdf62175be149effU,
  0xbe1f3d113dad480bU, 0xbe20aa8cba7a4f4fU, 0xbd11df41be95b18eU, 0xbdffb3a5bc2999f4U,
  0x3c14f590bd855655U, 0xbd803643bca05708U, 0xbbe0267ebd1e37dbU, 0xbe06f76fbdafdf50U,
  0x3ccdd88a3e621ee2U, 0xbdd0c6d0bd0ec316U, 0x3dee59f9beac9351U, 0xbdfb366cbd5312eeU,
  0xbe4bb7423aebd488U, 0xbe556cc3bc4ed9c6U, 0xbd92921dbdc4c741U, 0xbdba94713d6af1dfU,
  0x3ccd6e21be3d8a1bU, 0xbe519b103da728bbU, 0x3dc4e73fbe90f949U, 0x3a4ae331bcc5996fU,
  0x3e0dba153d360dd4U, 0x3cbad79d3bc8e1e4U, 0xbd3f642c3e8bfd4dU, 0xbcf0887fbdd801faU,
  0xbde6131d3c3b72c3U, 0xbd541962bd408b05U, 0x3df262b53e09c7a2U, 0x3d8b5d94bdb7bc41U,
  0xbdf06e3e3c8d6f59U, 0x3e5ecd713d4ee695U, 0xbe228bf2bd123cadU, 0x3dbeb4f1be8d9544U,
  0xbcdd92e8bd694e9aU, 0x3d5b1e0fbd63ca49U, 0xbd7e7d593e7ed431U, 0x3d7fa6e3bdd42342U,
  0x3dcdaac83b84b29bU, 0x3d02b8a8bd776101U, 0x3cc6e3583ea0378bU, 0xbd65e273bcc0ace9U,
  0xbd0037723cdd1eaaU, 0xbd86241dbb1b964dU, 0xba5978f43d298d5fU, 0x3df3e81dbd67ba9cU,
  0xbd72b1c9be2fff83U, 0xbdd2bbc93d083894U, 0x3c8f44d9bda7e4d1U, 0xbe081f23bcb34f20U,
  0x3d04c2b5bcbbbfa0U, 0xbdb6902fbd8cdcbfU, 0x3cf72aafbd9eb1f4U, 0x3de1dcf0bd914e7aU,
  0xbdb4170d3d6a2c27U, 0x3dbbbde93e1a904cU, 0xbe030cffbdce1714U, 0x3d1f2e88be64bcb7U,
  0xbce5a8f0be43b69eU, 0xbdedeb05bd23ceceU, 0x3ddeea19bce811d6U, 0x3d476615be245febU,
  0x3dd2be4d3cbea752U, 0xbd48084bbdc184e3U, 0x3c9a9ab1be0dd5afU, 0xbdff02f3bc12ec6fU,
  0x3da29d063e117dbaU, 0x3db4280dbdaac0efU, 0xbdc73202bddde06bU, 0x3b4de8653d06aa00U,
  0xbd43cc9ebe830b23U, 0xbdf556c03d9aa906U, 0xbd660373bcfcdf0aU, 0xbe125a5ebc1a27c1U,
  0x3e22b0c33e4311afU, 0xbd581772bcc68813U, 0x3d7df4e8bddf5377U, 0x3deeb23f3e0f9371U,
  0xbd05da443d6c5dd8U, 0x3db3a0173d165a3cU, 0x3a889bfdbdae5179U, 0x3d86c6b0be759b50U,
  0xbc911f8ebe17a280U, 0x3df440d4bda722fdU, 0xb989a580bdda22e5U, 0x3e6429a93dbdd3cfU,
  0xbd886beabc73da77U, 0xbe70db99bd89b73cU, 0x3b8d45d2be8c462eU, 0xbddb9b223d953ceaU,
  0xbd86a13abd109bafU, 0x3dabefa5bb52c41bU, 0xbd4303e0bdefba9aU, 0x3e2a466b3e746ed5U,
  0x3e5b5fbfbe03fd3eU, 0xbe6a839ebda3ca72U, 0xbd5babf5bec34f8cU, 0xbdfc36fbbd8bcd19U,
  0xbd995b573e140c4aU, 0xbe4446683d590f55U, 0xbe3e654a3d74c93fU, 0xbeee99213dc1a446U,
  0x3e1e3e513d8d9fa8U, 0xbd255e69bd25a85dU, 0x3e7133e2bd698d76U, 0xbdd6a0bf3b519737U,
  0xbd8b19653e733697U, 0xbd52e26f3e0a5593U, 0x3e07ce363dba71bdU, 0xbeacd2803e3cf8deU,
  0x3dfb1ee03e4365d0U, 0xba262e643b51705dU, 0x3e39600f3e56be2bU, 0x3c089549bbb14f6eU,
  0xbe06feae3d952450U, 0xbe153adb3da35580U, 0xbd673ef13d70c8a6U, 0xbe27457c3e5b1b43U,
  0x3db07a093e10fbb2U, 0xbc4582093c94ef4aU, 0x3db93a0f3db79864U, 0xbc4a1162bd233bb3U,
  0x3dcec3e13cedb1cdU, 0x3e8a920fbd0e92f4U, 0x3d8e42b53cf67dddU, 0xbe6132f83dc7c685U,
  0x3dec24c13c8f15d5U, 0x3d3f57e0bde3c734U, 0x3d3642ce3e37cdc7U, 0xbddf2b6abceab36aU,
  0xbe8ef69d3d86cc6aU, 0x3d6c1d0ebd36d092U, 0x3e0745193db64e27U, 0xbc597a483e07396dU,
  0xbda8224fbda34555U, 0x3cd05c0fbda08348U, 0x3d8c852b3dcd26cdU, 0xbd2702883d4248afU,
  0xbee9c6093d918696U, 0xbe089601bd5b1c8bU, 0x3d2fdaaabcb5e398U, 0xbd34c9de3dee0296U,
  0xbda7ab1f3db771ecU, 0x3e350a2bbd188611U, 0x3da7b1bf3d54a5f3U, 0x3cceaeee3e2f054dU,
  0xbe4e93cbbe9ba3c1U, 0xbd07bf58be18cb32U, 0xbe48c62d3e18d50cU, 0xbeafee3a3dfe065bU,
  0xbddb49f3be88bf40U, 0x3d3c1b03bd3f5faeU, 0xbd8bb4b53dd15386U, 0x3b5484b0bc390628U,
  0xbd8b9a11bea478ccU, 0xbde5a664bce1726aU, 0x3bf0da473de02cdcU, 0xbd4705c4bdd599a0U,
  0x3dad55f9be80e2e1U, 0x3e90e0b03bc4ae95U, 0xbca22eb23e30eedfU, 0xbd9f97c93d21bf92U,
  0x3dbc0bdcbe007898U, 0xbcfb30a5be212287U, 0x3d9cbc1a3d533fb5U, 0xbe08e32bba2efeb6U,
  0x3d9bb29cbe667d8dU, 0x3d56aca03e0d7390U, 0xbdcb400a3e63f6dcU, 0xbcd07661bd9cdb77U,
  0xbd60d81cbdfdee45U, 0x3c1a1a423d5bae0aU, 0x3c9584f2bc266447U, 0xbe6d96663de5d6e3U,
  0xbe82de8a3cb66df2U, 0xbda6f5e2bc7ade08U, 0x3c7049dc3e5432a6U, 0xbdd6c98dbe739c5eU,
  0x3d462cd53c1fede4U, 0x3d8308e33e1d9899U, 0x3cacd5d53e1b9fe8U, 0xbe2382aeb99645e7U,
  0xbeab17703e26cdc1U, 0x3d862968bc9840d5U, 0xbdf8e3c83c91ce27U, 0xbe0555babe859809U,
  0xbcc63031be4680e4U, 0x3da7990c3da3c0c7U, 0xbc353d953e805f46U, 0x3b3153aa3e33c293U,
  0x3b5c26e63db745bbU, 0x3d71fd62bdb56b8bU, 0x3cada66f3dcd468bU, 0xbe146663bdb93f0eU,
  0xbc3ca86e3e05a3e0U, 0xbd5a5edc3cec8827U, 0xbd0ebef73db100b4U, 0x3cfbc030bd21aa0cU,
  0x3e607a73be3229c6U, 0x3ce7ef0d3d37dcf5U, 0x3d8b9284bd64bdecU, 0xbd9bfd0b3ce67471U,
  0x3c8b07ed3d5bab62U, 0xbbc6055b3db4c3a5U, 0xbd365816be344ef9U, 0x3b890c39bddce240U,
  0xbd293cbbbe28fab7U, 0x3cf537e83c1f44c1U, 0x3d3bfc5abd83b866U, 0x3d9c3ebcbda1217fU,
  0x3d23eef5bcda12cbU, 0x3da8556e3bd95d8dU, 0x3e2b0726bcaa5593U, 0xbe3fb1e8bdba7d50U,
  0x3e2693d43d2db94fU, 0x3de29eb2bda7bcd0U, 0x3d8ca0a9be295b73U, 0x3d02dd813cd15622U,
  0xbdd9437abdb90647U, 0x3aede3ee3d13abd4U, 0xbded4eb33cb9f85aU, 0xbe53f7c1bdba8f93U,
  0x3e80fd30be1d29c3U, 0x3dded35e3d301562U, 0xbd91b0d2be124ed5U, 0x3e11385c3e8c3a24U,
  0xbdc883a3bda2a272U, 0x3e059b163e1f91e6U, 0xbd1574b7be03cc48U, 0xbe08d9a7bdfe0b00U,
  0x3d9a95b7be4905e8U, 0x3c5f0cf83dd468efU, 0xbe8ad2293df7a3a9U, 0x3dd53b433da3ca7aU,
  0x3db7cd24bd232922U, 0x3b4e44af3d41a675U, 0x3d5cd90abdf1dd36U, 0xbe0725183e1f0513U,
  0xbddc4bf3bd93bd0dU, 0xbd71bc33be630f8bU, 0xbe66ded1bd43d60cU, 0xbc7499debd824964U,
  0xbd39b26a3e1afcdbU, 0xbda22d003e80f33dU, 0xbce54ac33e96eae2U, 0x3eaea9283d35e933U,
  0xbd503fe7be733c40U, 0xbddf1547bdf86b53U, 0xbea483bd3e73b36bU, 0x3de00fc8be284e7dU,
  0xbb92e30cbbf15706U, 0xbc2c58d43e289198U, 0x3d2742d5bd97040dU, 0xbdda49d3bd63ea94U,
  0x3d705665be23ca66U, 0xbe0e22283d918cb5U, 0xbd771bea3ee1a417U, 0xbe2d60163e180209U,
  0x3e076eebbe467e91U, 0x3deccd533e8b0eb9U, 0xbdae34cabddbec33U, 0xbe943077bdefd28aU,
  0x3d63253abe287b0cU, 0xbdc320fb3ced3ff0U, 0xbe2140a33e6855f6U, 0x3e0e5d93bc483823U,
  0xbd7a04b3bd22dfb6U, 0xbe049fad3d4b1230U, 0xbd55ad4abe1a7e10U, 0x3df8bc5c3c9d9745U,
  0xbedaf19c3da2d057U, 0xbd3b5ddcbe400d82U, 0xbd7ec41bbe853584U, 0x3da883c1bd8b0e61U,
  0xbdbe8bf7be6c068bU, 0xbe72ed9f3ec2ef16U, 0x3cd98891bd6a4c14U, 0xbd93f522beb5d72bU,
  0xbeb9e0cabe0633b4U, 0xbe46bc61be3c761bU, 0x3d92863a3e81ccfbU, 0xbd1f05cf3ce75833U,
  0xbdd41b64be725058U, 0xbe4b3c55bc92bd1fU, 0xbe79dcc43d94ffadU, 0xbea0b1bc3dfc9b61U,
  0x3d202d58be2ab257U, 0xbe567b483d79ed3eU, 0xbea3b7643e52166eU, 0xbd3620793e0c1556U,
  0xbe691b073e93a367U, 0x3e0a89e83d0ca6a5U, 0x3c0dd48abe68d0e4U, 0xbcc9dbb73d0730abU,
  0xbe20aa473e88007eU, 0xbe372be03de175a4U, 0xbdb253b2bdd5a57dU, 0x3da556803d4d04b2U,
  0xbc23052bbe41d889U, 0xbed2bf653e73b38fU, 0x3deb3589be6dcde1U, 0x3d897e353e0a5317U,
  0xbdc836413dffd12eU, 0x3c998394be6784d7U, 0x3cb960babe3cbd7dU, 0x3deedebf3d1b7f96U,
  0xbd2bc586bdc52710U, 0xbeed47593e1a7da6U, 0xbe942ec2be151f3eU, 0xbd97e15b3d8e0d5eU,
  0x3e1d0d283dd7e4d7U, 0xbdd153dfbe976d0bU, 0x3d6712d9bd79aa6aU, 0xbd19184b3e1664cdU,
  0xbd8adf833dc9a899U, 0x3e026a3abe0bddc3U, 0xbd76fccabe3b7f5cU, 0x3df4f567bdbaa3e5U,
  0x3ca38d1ebc28907aU, 0xbe0a394fbdbe61b2U, 0xbdfb6ddcbd2b3fb5U, 0xbdaa5972be08c8f6U,
  0x3b613faf3dc160efU, 0x3e62a00dbc97f83dU, 0x3ba60abebe0c5981U, 0xbad86adabe84c515U,
  0xbef18ff1bd0bdba6U, 0x3db6fbcb3d80a0bbU, 0x3d5c445f3d323c9fU, 0xbc52a77abd1a8579U,
  0x3befc382bb3b8776U, 0x3de08d41bd8e97d3U, 0x3e300a47bd9ab7a8U, 0xbe7fc53abe2dd7dbU,
  0xbe359100beb64c32U, 0xbe5cc9603dcb3f9aU, 0xbb02e4e6be347843U, 0xbc5b754cbd1a6e5bU,
  0xbe4c535abe238be6U, 0xbc66df4a3b729c62U, 0x3caa5aaabda2b8ebU, 0x3dfaf95bbdb09bfeU,
  0xbe5acf6bbec3eba2U, 0xbe36fe4ebe0024d5U, 0x3c55403bbe218103U, 0xbdfbeb71be4017ccU,
  0xbe2f6e42be4d147bU, 0xbdce49403dd4fa51U, 0x3d27dcbd3aac2b59U, 0x3d1fc857be58bcebU,
  0xbe583b9fbe5377c7U, 0x3d8fb269bbdb98ddU, 0x3cb24fc9bd4c8caaU, 0xbcfe2881bda14f50U,
  0x3e651c4ebdd67f91U, 0xbe440e7f3e626610U, 0x3b318d953daaa59fU, 0xbe5dc6c1bea527dfU,
  0xbe3402cebeac5d14U, 0xbe334ff23da2ba60U, 0xbc0b3a07be52c373U, 0xbd8a4ba1bd70a0cdU,
  0xbe698c883db159c9U, 0x3c6f951bbe06224fU, 0x3caf0432bdf368d1U, 0x3c3ac485be36da0eU,
  0xbd51120cbed7190bU, 0xbd713a5dbe3034d3U, 0x3c9e99993d3e2ddfU, 0xbd975f4e3c9c731dU,
  0xbe3d02fe3c81c7e9U, 0xbcdfa5963aa39576U, 0xbd1d6c6bbbf8e734U, 0xbd63073ebe7ba6d5U,
  0xbe40cfebbe0c29f1U, 0xbe5a40833dc717f5U, 0xbb8c309cbe06f4f3U, 0xbd48f73d3c2fec43U,
  0xbea6145f3e226736U, 0xbdf1238a3d7dbca5U, 0xbd6315ad3dc325caU, 0xbe020208be0ffcccU,
  0xbd3b3ddfbe644c1eU, 0xbe8a7bd33e078ac6U, 0x3e0ceb59be855061U, 0xbd3a255c3da3d356U,
  0xbdf7b2a5bccd284aU, 0xbc625641bd008ef6U, 0x3db0dedebc1cd129U, 0xbdc4cd45be0a542dU,
  0xbd8c54dcbe186e42U, 0x3c0dd9ffbbdca77eU, 0xbe4ebc8f3e271da3U, 0xbda3f3afbe4bc7a7U,
  0xbdd9c60b3dc01995U, 0xbe040f19bc82c02cU, 0xbe0d57bebd9a07adU, 0xbe531b63bdd45aa4U,
  0xbd06c148be169b34U, 0xbd13f501be136985U, 0xbdc2fcf13cfff414U, 0xbd9bc5a9be07db00U,
  0xbe0d7b43bd2b3ddeU, 0x3d93c3c4be7b9278U, 0xbe19accbbde46f85U, 0xbd429b7b3d887839U,
  0x3d54f8903db2109eU, 0xbd2a1746bdedc345U, 0x3d8fd6bf3d5c2988U, 0xbe017445bdf91088U,
  0xbdc40309bde526a6U, 0xbbcd4ae9bd5a9cc2U, 0x3d3d04cebdfc77b7U, 0x3c9895843ca391deU,
  0xbdcd96adbd1ff307U, 0x3cc918ce3c6d4c9aU, 0xbe38ad0fbcc64d2fU, 0xbd6d8d47bdbf715dU,
  0xbdd1cb97be08f4a6U, 0xbb794176be0709afU, 0xbe1d9aecbe05a3bbU, 0xbe7d923ebbfe5e7dU,
  0xbbb67155bddf9fd8U, 0xbdf94d40be08acc1U, 0xbdddeca83df2fe1fU, 0xbd7755613d869f21U,
  0xbe564613bdbabaf9U, 0x3dfbfa41be33fe11U, 0x3dd066d9be91b03dU, 0x3d402e6dbdfd8974U,
  0xbe78332d3bf2d355U, 0x3defccf2bdde8ce6U, 0xbd7546babdcff18fU, 0xbe007f68bdbcf14dU,
  0xbd7036f2bc1f0d60U, 0x3d7e8817bc7581c1U, 0x3d969c18be0dd914U, 0xbd4d76a93d979170U,
  0xbdb912d53b55c93fU, 0x3e1bd9843b785a4dU, 0x3d96679b3e3950c9U, 0x3d1d0776bd4cc1e8U,
  0xbdc58b89bc7ea99cU, 0x3da3e401bc9c311eU, 0xbe06ddccbe9ddff3U, 0xbd4a6e4e3e01adc0U,
  0xbe83dc8d3df1fa69U, 0x3c2c504ebd97bfb9U, 0xbd58317a3e2839bdU, 0xbc3890d7be2f7444U,
  0x3c10a8623dfd1e5cU, 0x3e1bb5d8be09f5d0U, 0xbce9f2c3beb473dfU, 0x3cbde894be048db6U,
  0xbdbc48023dc67787U, 0x3da7afc33c7cf70eU, 0x3dfa32393db799a4U, 0xbdefb3633c923b65U,
  0xbe81eea6bd3563b6U, 0xbdfe995a3e1998cbU, 0xbc07c2443c531436U, 0x3e9024473e103392U,
  0x3d1d02ddbdf1dedcU, 0xbda8e622bdc11650U, 0xbdd926cf3e0df574U, 0x3b75ff6bbcde2510U,
  0xbeda3af0be98bf96U, 0xbec16f283eda451cU, 0xbe26017bbc80f183U, 0xbe02cba8bd8aadf4U,
  0xbce9a92abd9414bcU, 0xbcad128ebe368d30U, 0xbdde9703be0468c5U, 0xbe2219063c8e8d3cU,
  0xbf2156e63d502288U, 0x3dfd5a373e0094f6U, 0xbcd92d3b3e308e06U, 0xbf1f33e5be32da53U,
  0xbd4a3f31bc0f7f31U, 0xbdba8352be47c5d6U, 0xbd8dd7553bf1abefU, 0xbe29ef0d3db16975U,
  0x3c6b5fafbe511e5fU, 0xbe505e11be39195eU, 0xbe59e67abc0d2d80U, 0x3e15bb34bd78783cU,
  0x3cf354bfbed61232U, 0xbe07a477bdb0b734U, 0x3d192fd23e959d39U, 0xbdd71f00bc4298e9U,
  0xbe8c56c9be2d95dfU, 0xbf1c1c66bdaf9be3U, 0xbe20fb1bbd8fce8bU, 0xbd961242be80a2caU,
  0xbcd747cf3ea8d1c7U, 0xbe3415f6bdcb8867U, 0xbe265623be8a23aeU, 0xbd0bfde33c964046U,
  0xbeb82135be9ebe3bU, 0xbddf068cbd7dacc1U, 0xbe54677bbcadf47cU, 0xbe30d0ee3df45ae0U,
  0xbb287a9cbd4bae73U, 0xbe3a466dbdb3ff75U, 0xbd1b86f0be06a90fU, 0x3da7ae09bc0d5cfbU,
  0xbe6f84ba3d1de98eU, 0xbeae2378be03cf5aU, 0xbd32ebbfbe411799U, 0x3bf43697be17d92cU,
  0xbdf48cc13e884eafU, 0xbdbc0d50bd32b770U, 0x3bb002ec3da1c7dcU, 0x3cb980f7bddc02d0U,
  0xbeaead6d3c603645U, 0xbeefc76fbdfdd49cU, 0xbe4f4922bc3448ddU, 0xbc682d953dc7be18U,
  0x3e4a787a3ea2cf4fU, 0xbe93fae53df6cc54U, 0xbda123dc3d89d7e4U, 0x3e142528bda95055U,
  0xbe37cf5bbdac83b6U, 0xbe467ac9be1a8dd9U, 0xbe05cb4bbe54fd5cU, 0x3e207a3ebcfe7b2bU,
  0x3e38a81f3c3034eeU, 0xbe4e62d93e686235U, 0x3ba82c86beb2efc7U, 0x3e11553e3da82978U,
  0xbd1da9b0bdcd2214U, 0x3d9aaba7bdeafed0U, 0xbd4ab69a3c219a80U, 0x3dcf98993ce93f4eU,
  0xbd64d58d3de9bc48U, 0xbc8d3f273b2d0560U, 0x3cc49a933e21909dU, 0xbdb214483d18cd5aU,
  0xbbf4ad45be09b51cU, 0x3d010493be2d1425U, 0xbcf4e384bbf3d32bU, 0x3d69aa4fbd3827c2U,
  0x3d2a43f23be27752U, 0xbd961546bd881915U, 0xbd5b87463d8d28e5U, 0xbe53eb28bcc3f3fcU,
  0x3db8d732be180175U, 0x3d6b0e24bd86d844U, 0xbd86dc49bd4885d7U, 0xbd3ad96cbd844797U,
  0xbd6c5625be09ee1dU, 0xbdd0a964bc56a48bU, 0xbda6000dbd733a3aU, 0xbe12deecbc60a08cU,
  0x3d0ffbadbd21c6aeU, 0xbdf52d91bc48cf2bU, 0xbc2442ba3d64f07bU, 0x3b74ae3e3da125e9U,
  0xbe8b8e1f3c945fe2U, 0x3d677b07bc8028d7U, 0xbde07482be997f66U, 0xbc58a1023d044adbU,
  0x3d6d3a6b3dc5adc1U, 0xbe2a62e0bd683292U, 0xbccac79c3bedd8f9U, 0xbdea31e33cb5be4aU,
  0xbe1542733d001103U, 0xbe022bd4be428465U, 0xbd985b44bd92ee75U, 0xbb004ddbbe031610U,
  0xbcb76a24be6d786eU, 0xbd1b7cec3c19a39cU, 0xbd5e4867bd4bc728U, 0xbe0cda1abcecf774U,
  0x3d17f113bceec478U, 0xbdbde2ffbd75b40dU, 0xbdd75050bda4503dU, 0xbd804e2b3dcacf76U,
  0xbde6ef803e8026acU, 0xbc95ca62bdbbff08U, 0xbc09667f3d821ce1U, 0xbb42098d3abbcea5U,
  0xbdb20b26bccc0a3cU, 0xbc52c6dfbd0224ccU, 0xbcd26bcabd3f54b4U, 0xbd5bbf9f3d46e5a9U,
  0x3ba0afa6bb0b86d0U, 0xbd87ebcdbcfaf09cU, 0xbcad4bf0bd1d0a39U, 0x3cc776823ce7f500U,
  0xbdb83d9fbdecf94dU, 0xbddc0328bdb5896bU, 0xbe0224cfbdf14e5bU, 0xbd4e85da3d343d9dU,
  0x3db51f5cbe1d9db5U, 0xbda07a003c2e29d2U, 0xbd12d4233b51bdccU, 0xbdc8a16c3ca9c787U,
  0xbea72b81bda2b596U, 0xbddfcfb1be1666d2U, 0xbe6be1b0bdb94463U, 0xbd50121c3d765accU,
  0xbe81430fbdbcc5b7U, 0x3d1d2cce3d00ef37U, 0xbc108895bd847af5U, 0x3d4a1501bd8bdba8U,
  0xbe52bdbebb7ef71cU, 0xbde4a0963c00d848U, 0xbdfa0f5cbe8052d1U, 0x3cc8092cbcaa3200U,
  0x3d3023c4be917d6bU, 0x3da137f5be0008e5U, 0xbd9b5efdbdb11172U, 0x3d32542bbd3852eeU,
  0xbe15c644be427535U, 0xbe10e97abd3ba9a3U, 0xbe6c18dd3e04d89cU, 0x3ca166463b2634cfU,
  0xbd8cbd1dbcbe0613U, 0xbbd862fd3d9cb49bU, 0xbd3446dd3dd3fbd4U, 0x3e28c84abdfd353aU,
  0x3df3ca59bd81fd6eU, 0xbd640f0e3bcffee4U, 0xbd91a100bd317e2cU, 0xbd5dd6fd3d77a6c4U,
  0xbe3608d83cb0bab1U, 0xbde18c083c631e39U, 0xbd056961be2e2804U, 0xbc8b0880bda5c485U,
  0xbd42e0853e84f628U, 0x3db9da7abcec696fU, 0x3bbd7da8be39a13cU, 0x3ced1118bc22783fU,
  0x3e63f4c8be044cdeU, 0xbe061dd0bdb74cb9U, 0x3d228fbcbe172818U, 0x3e693a7dbe236c7dU,
  0xbd87650d3d8b8e06U, 0xbdf48747bd8e921eU, 0xbe1819abbd19c45aU, 0xbc69619b3beb05acU,
  0x3e5abf733da34df6U, 0xbce27eb0bc13ad6eU, 0x3ba07cd23dc8a661U, 0xbc7b0f6bbd2a61c7U,
  0x3d2e13f03db9d289U, 0xbe372004bc57971cU, 0x3de458c83e0500beU, 0xbbd53fa9bdb0801dU,
  0xbd72f14e3c0403eaU, 0x3ccfe8423d990bbaU, 0x3db18f70bd9b5600U, 0x3c476f8e3d6ec7fbU,
  0xbe133eddbcf671b7U, 0x3e42bb4c3c214c26U, 0xbe22136bbe43735bU, 0xb94809fdbe3101c6U,
  0xbe0a29893d5cea61U, 0xbc379643be222741U, 0xbd74e7063e23cc00U, 0x3d88c9d4bda5ba2dU,
  0x3caec8b3bd7d24b3U, 0xbdc2a41fbd92bb08U, 0xbe033c4bbd7edb2fU, 0xbdab5bb53bf9b019U,
  0xbe48726a3e8e4e64U, 0x3dd26f493ceb95feU, 0xbd4d18ff3e550620U, 0xbc479178bb5b3111U,
  0xbd4604f7bdc8d578U, 0xbe5de38ebe100698U, 0xbdfc2d83bd94669bU, 0xbcc161d13e202698U,
  0x3d488944be2a15bfU, 0xbc50d37f3c6c9f3aU, 0xbdf33b80bd633f76U, 0xbd14d4b73e707be7U,
  0xbd75c3ebbb87e022U, 0x3d34dacdbe2a9ab9U, 0x3dc84e50bd024064U, 0xbda33ee5bd4a727bU,
  0x3d44f562be0aaf0eU, 0xbd06d3f73c58e85dU, 0xbdaf31273b96de63U, 0xbe4986bbbd3f9ab4U,
  0xbe36ecf7bce2147dU, 0x3dabcdfdbde0cbd3U, 0xbc118b613dbfe19cU, 0xbe165fd83d388f8cU,
  0x3d0ab20bbdba745dU, 0xbe4f3b9e3b7fd7b7U, 0xbdbaa4123d1552b0U, 0xbd7fb375bd6e2c27U,
  0xbe8c78e0bddacb5fU, 0x3e035927bdd897dfU, 0xbdc85b673d2f3f5bU, 0xbe1c0f8a3d2aed7aU,
  0xbe5961f2be1b8c08U, 0xbdc1d560bdaae262U, 0xbd75003cbd054bb4U, 0xbdc00ff63daa4bd7U,
  0x3d1908c93dd858a3U, 0x3da8a52bbd421f98U, 0x3d1a5307be165b6bU, 0xbe112d2dbdd5cbecU,
  0x3dc6edd3be797573U, 0x3c005288bda89ad3U, 0xbdc72f01bcf05bc5U, 0xbc7dd860be24ce36U,
  0xbc6cea11bd8fe066U, 0x3e04d4a6bd1591a2U, 0x3c4a00233dadd183U, 0xbddb7c963c6269e5U,
  0xbe09c470bdb9710eU, 0xbe248bddbd718f80U, 0xbe10ca27bccf2bdaU, 0xbe51fe98bbe4d418U,
  0xbdbe7b11be19a9ebU, 0x3e0e6554bd2a024fU, 0xbe872769bdfcc566U, 0xbe27c0c9be0d21abU,
  0x3dc02ea4bdb21bd3U, 0xbd8d841a3dd8c97aU, 0xbcfcebbcbd7429e0U, 0x3dea1d743d2b1e5fU,
  0x3cee1a643e59c2c2U, 0x3cd5b8963ca24049U, 0x3a9fe0693d587662U, 0xbdaf136e3d41e1b2U,
  0x3c56ae9b3d176883U, 0xbddfb69abd18e252U, 0xbd85f223bdc8a2f8U, 0x3b98aefd3c451549U,
  0x3d6da6043d63e42aU, 0x3d45da6fbd0e0ae5U, 0xbd132f133e9aa6dfU, 0xbd5087593d892536U,
  0xbe07d1fe3db8ab43U, 0xbe00cac4bda94bd3U, 0xbe3d3249bd6027edU, 0xbdd3bb64bd68dab0U,
  0x3e57efdfbe9406b1U, 0x3c9af7d4bd290539U, 0x3dbe39f1bcf6b05dU, 0xbe487e42bde56436U,
  0x3c50b923be8e9fbaU, 0xbdd88e86bd121bb6U, 0xbcae9bcbbdbe800eU, 0xbe42c36bbe0c35c1U,
  0x3d6f1635bd1e8dc4U, 0x3ec1550a3d836ee0U, 0xbdb83d74bc420f1aU, 0xbd8eb487bdbc3868U,
  0xbe88b104bde9bbfcU, 0xbe5a59113d842987U, 0x3de01d653e3dd13dU, 0xbe8c2209bdc624b2U,
  0xbe204e8cbdb7e92cU, 0x3e055db5bd3b473aU, 0xbdb638a63e976987U, 0x3d3217913bd748fbU,
  0xbec755e23e8af074U, 0xbd233172be153395U, 0xbd2164a63dbd6dccU, 0xbef215fcbe22879eU,
  0xbdb6f3c0bdce305fU, 0xbddf02eebd0ef1aaU, 0x3e0a0e133ec4cf7dU, 0xbd1923c23b2ba240U,
  0xbe44080f3b87a898U, 0xbe0a09ad3cbb198bU, 0xbd8a5557be4ac405U, 0x3df238a63da3f31dU,
  0xbe273da0bd7b1148U, 0x3dce5729bcbd2503U, 0xbe023ce4be46ad37U, 0xba85a9d2bdfc4e05U,
  0xbeaeab8c3c310bd6U, 0xbd5612a23da38ec1U, 0xbb63e6bcbe85b024U, 0xbe229ffe3de9a38fU,
  0xbd20556abc8e3a97U, 0xbd7c1ed73ca3eb79U, 0x3d15cc5bbdde5922U, 0xbd004b5a3990e654U,
  0xbf03eca7be902db0U, 0xbd936f0abddd81d0U, 0xbde9f2a2bc339bc1U, 0xbe4bbde83ce6b74cU,
  0xbea2d8293d07c080U, 0x3e3cdd15bdb221f3U, 0x3e495f0fbe8c0ccfU, 0x3d168d6a3e2ef295U,
  0xbec16a763eb7e89fU, 0x3dc7cdc8be23f80bU, 0x3b8d328fbe16f1e7U, 0xbdf0f74e3e3e604eU,
  0xbe6b24083e51e2d9U, 0xbe14b351bc8fae2cU, 0xbe24581cbd1f9d10U, 0xbd27bed0bda10e09U,
  0xbf00c803be4476f1U, 0x3d2bbf023c6b619dU, 0xbd69a0adbd6cad8bU, 0x3c9b63463e147538U,
  0xbd5ba5ee3e12a43bU, 0xbe1f968bbe89203fU, 0xbd3521a2be61244cU, 0xbdb7e07b3c31b56eU,
  0xbedcb80bbe9535a2U, 0x3d865a4bbd647d65U, 0xbcc7de35bd16d6aeU, 0x3e51dfaa3d7cfb9eU,
  0x3d85dc7b3c20dcc7U, 0x3e09135abeae9052U, 0x3db781f4bd391408U, 0xbcaedf483b789596U,
  0xbe0eb91b3e0b0527U, 0xbcc3a7ee3e009385U, 0x3e0a19903e157984U, 0xbdbb0682be143291U,
  0xbe1b0ba8bcaf765cU, 0xbe6ff7dc3c94ba61U, 0xbca1a9343e2abed5U, 0xbe18d4e5be287205U,
  0xbe5267d4bd9adc49U, 0xbe214d323d246d43U, 0x3d7317a43e32f632U, 0xbd9c28cd3c8cb819U,
  0xbcdd4ad63b16eb2fU, 0xbc0907083d126681U, 0xbd55e128be2966d6U, 0xbd142294bcab3ae1U,
  0xbe4d599abe044cb5U, 0xbdf77a703e34d4a3U, 0x3dd46dba3d7f6544U, 0xbd84137abc126d30U,
  0xbe881d4a3d69f33aU, 0x3d0d5e2f3d4f6247U, 0x3e02d1143d1a4393U, 0x3caa4d27bba44419U,
  0xbe9218423d2ee5c9U, 0x3d1a059e3e1867e6U, 0x3decfcef3d5a4169U, 0x3d9d74fabc176cb1U,
  0xbd8bda753ded73e6U, 0xbe8cc511bdc2bfafU, 0xbca33b2cbe218c17U, 0xbd1ea362bdd4c7b3U,
  0xbe7a0a5e3c4f2da6U, 0xbda12e6e3dbcdd79U, 0xbbee9b123ddc48efU, 0xbd84afb83dc63a07U,
  0xbda2cd52bdf20ff7U, 0xbdea78fcbd9e2fb0U, 0xbd265ce53e0ce4deU, 0x3daf023b3d925772U,
  0xbeb755aa3e147039U, 0x3cd5f1ad3d2d32e6U, 0x3d99e3d33ca12d87U, 0xbc0a493dbdcdbeefU,
  0xbe202006bdbafe1dU, 0xbe12c012bd906187U, 0x3d2fa07ebdb4c0e2U, 0x3dbb4b7a3de1755bU,
  0xbe457ba5ba9aae5eU, 0x3e24b5bc3d2c189dU, 0x3e178ff63d0c902aU, 0xbd79f90c3c04e49bU,
  0x3d1f28c93cb2c6d6U, 0xbe99637f3cac9cdeU, 0xbe0d82963dbb5c00U, 0xbda72f16bc584101U,
  0xbe2a96b53d6050d9U, 0x3dc2b6f6bd68e846U, 0xbd193b7f3cd55a4dU, 0xbd6056db3c8d92e8U,
  0x3cb920eebe198470U, 0xbe65dc163ceec94fU, 0xbd094ce5bd1b50e1U, 0x3cf27b5ebcec2cb3U,
  0xbe84fd643d1704e0U, 0x3dcb9b0c3de5c7d8U, 0x3c0e3cb03dd249bbU, 0x3da97345bd26eca1U,
  0xbdc6e350bda13f74U, 0xbe6531883d2007f0U, 0x3bae4553bd92b507U, 0x3d12c236bc4f2389U,
  0xbd4e1eb33c21bab9U, 0x3db80e71bdf2886fU, 0xbdcc4227be7483f1U, 0x3c774b833dff8571U,
  0xbea29b1fbca73c16U, 0x3d5cb7403e00b079U, 0xbdf2054d3dc788afU, 0xbc758a46be7fe57dU,
  0xbdd55535bd57a44dU, 0x3d5bebd2be0f0910U, 0xbda8d0c3bea5896eU, 0xbe8efbd93ea1846dU,
  0xbe05393cbe1bfce0U, 0xbda3cc9b3e14fd35U, 0xbc35a5013e920b56U, 0xbe17af11bea1fa2fU,
  0x3d658ecb3dcdef2cU, 0x3d6d5985beadb1a0U, 0xbe666cbcbecc833dU, 0xbec421323e86f215U,
  0xbde5118b3e4c60dcU, 0x3dfaa9713db3cf6cU, 0xbe59073abe11a40bU, 0xbce0e80cbe97e694U,
  0x3e6faf61bc5b4b2bU, 0x3ccc0ea9be52f71bU, 0xbe11911dbde09babU, 0xbdd143ecbe0cf500U,
  0xbea383f2be2757c8U, 0xbe6954bb3e27a75eU, 0xbdcb0c72bb13266bU, 0x3b9d91b5bdef353dU,
  0x3d614a3f3d3819e8U, 0x3dd67198bcfb7d5dU, 0xbdd6bb70bdc8918aU, 0xbe97093fbd9ff02fU,
  0x3dd4941abd629111U, 0xbe80829d3bfa5c1dU, 0xbe0b09c2bc453653U, 0xbd2c048ebe2d732fU,
  0xbe21820c3cfffd2eU, 0x3d820c54bdc86fd2U, 0xbeb28d7ebec40a6cU, 0xbe60aaf0bd5fd391U,
  0x3dc8dd5f3ddcc117U, 0xbdc8c0e3bd3ba95cU, 0x3d6b5ebb3c225510U, 0xbdd728aebe89e889U,
  0xbd732a8b3d98dd3eU, 0xbe3390503c72b885U, 0xbdc99bdabe74205fU, 0x3da67090bdeba826U,
  0xbe9ec190bda0023bU, 0xbf0ccc52bddda168U, 0x3d00f1babd45eaf1U, 0xbd97bf0c3ddc9035U,
  0xbed68ef03e33e0cbU, 0xbe26b9943cc23fbdU, 0x3dad48f5bed019e3U, 0xbe90e9dabdb94db8U,
  0xbe5e22093cabce2bU, 0xbe94660abe3aa0a1U, 0xbd85ca073c3ddb65U, 0x3dd2fde4be5a9baaU,
  0xbee39e87be417cddU, 0x3cd41c17be021170U, 0xbe629e35bee730c7U, 0xbe1c693cbd8c3028U,
  0xbd916ffe3d4bc739U, 0xbcc0943c3d1396f3U, 0xbc7c4b26bd0caf4cU, 0xbd851ddc3dfbf14bU,
  0xbf1733ba402484b0U, 0x3f0ca264bfbf2dfdU, 0x3f55d7e43f953d23U, 0xbe8e9ed1401e874cU,
  0xbfc4a7c03f17b8cdU, 0x3f72ff873f4f340bU, 0x3f9224cb3fc2d642U, 0x406b20963f57c1f9U,
  0xbf24a8c73f348b3aU, 0x3f4c8e2c3fe7539eU, 0x3f0146b43db22090U, 0x40389e5b3fbd8397U,
  0x404fdf73400a0d21U, 0x3f8e9bd43fe6ca2dU, 0x401608073fdf4382U, 0x406a03b83f6604b1U,
  0xbd09cec8bd0fdcf9U, 0x3d5ecf1a3da626caU, 0xbe67b2f8be7cdb80U, 0xbeb23726bd8c3efeU,
  0xbd8021b13e26bd45U, 0xbebc8d963ece519aU, 0xbda9d06cbe8a71fbU, 0x3e49d25fbe3c7c52U,
  0x3dab57443e263f4fU, 0xbeaa28d03c26f957U, 0x3e94e9ff3cf19522U, 0x3dd7f7093e163e8dU,
  0x3d89d705be6c773bU, 0x3d3cb04c3e0c9953U, 0xbd20d15e3ed76313U, 0xbda76385bdecea98U,
  0x3db35521bd2f538bU, 0xbccbec3d3dbc553cU, 0xbde9feb1bbdd3562U, 0xbe0ff4d63d289476U,
  0xbdc1367a3eaad72fU, 0xbe45b3253d8bdfaaU, 0x3e1c20d1be5d3a64U, 0x3e2cf83fbb984d6fU,
  0xbd069440be1c73abU, 0xbd467da43df6adcbU, 0x3e49764e3e50abb1U, 0x3e3f6f5dbe5bc67eU,
  0x3da531343e70a995U, 0x3c950e753e508991U, 0xbd71b3933e606c5dU, 0xbe9b4bc43e98adbfU,
  0xbe83bb11be307241U, 0x3ca37523bde05135U, 0x3d695e9f3ec0974dU, 0x3b600cba3d842632U,
  0xbe38c2e53ed67ebeU, 0x3dfe3de63e1fa04fU, 0xbd6835e3bec5c352U, 0x3d744a783defe1b3U,
  0x3e8bf2de3e018c1cU, 0xbe2b02d63da6e98eU, 0xbee45caa3e4791ceU, 0xbd10b7383e7f4525U,
  0xbd628ed1bdaf39bfU, 0x3ecf8a74bdb06f5fU, 0xbe78afff3e352537U, 0xbd8d323d3e44e7f5U,
  0xbe0bd1f93d45c631U, 0x3d7f581cbe641bd3U, 0x3c5215963c09f245U, 0x3e65e1843e9d24c7U,
  0xbdf3666d3c133495U, 0xbda6e4063eacd10aU, 0x3b876e61bdfc9ca4U, 0xbdd3ccf5bcc042aaU,
  0xbce564d23dfa5f0cU, 0x3e7da6933e2b22c6U, 0x3d8277cebe9bd15aU, 0xbe806a083dfe889aU,
  0xbc27b851bed53a99U, 0x3cbb6a543ed0b100U, 0xbe0bbd33be49e99cU, 0xbc505761bea5d447U,
  0x3da324e63d9dedabU, 0xbd54a9ddbe5b79bdU, 0x3e631700b8aa4e4cU, 0x3e01e8e43e122f80U,
  0xbd83735b3e8b476fU, 0x3cf9dcea3dbd2f24U, 0xbe79f418be071509U, 0x3e8581853e81075fU,
  0xbe06fa6d3e147142U, 0x3e2974aa3e97c271U, 0xbd962a45be156bd6U, 0xbe7e8e24be3d32a7U,
  0x3dcb4753be202593U, 0xbe5ca2fb3e9e6007U, 0xbe1f2544be3f0726U, 0xbe06ebe2be9fbb9bU,
  0xbd989b963a761db4U, 0xbd52d3c6be71f826U, 0x3eb439773cc7d8baU, 0x3e7df94f3e214f50U,
  0xbe48378e3e8d4589U, 0xbe398d113e31a16bU, 0x3d2f31d8be101793U, 0x3e4311383e51203dU,
  0x3e02c467bcefa45dU, 0xbda6f9ff3e17f040U, 0xbecacda7bd13679eU, 0x3e6b77933d355faeU,
  0xbb99b035bd7f2b12U, 0x3dc6d9f23e00810bU, 0xbea149333dbd8b53U, 0x3df4ededbd5b341dU,
  0xbe2b895dbc1c141bU, 0xbbf904bdbdedc239U, 0x3e8702453e818fa0U, 0x3e80bf8cbe3ae407U,
  0xbce468d23e3d53c1U, 0x3dc62839be8d045fU, 0x3e85bef9be49dfefU, 0x3d784c5e3e412e00U,
  0x3e3eeed9bd835c1eU, 0xbbae7202be3eca63U, 0xbe7701893e66b9a7U, 0xbcc1ee83be04da2fU,
  0x3c74dbf9bef5634aU, 0xbebf472f3d9f3abfU, 0x3d4dfda2be3b4bd9U, 0x3db010da3e86ce9fU,
  0x3df7dd4d3e28b45aU, 0x3e83b4483cbdc6ceU, 0x3ef363653e8ee064U, 0x3dca86c93ea07070U,
  0x3b3722b43e895da8U, 0x3ee5aae4be9047ceU, 0x3e27f088bd9a00c5U, 0xbe1267223cad8bb9U,
  0xbc8658dfbea53622U, 0x3db1b9ab3d7b44faU, 0xbec9eb7a3eb4b6c2U, 0xbd9af1eebea7d058U,
  0x3e55b2e0bef90560U, 0xbf12cac4be2fe476U, 0x3e473496be8cccb0U, 0xbd4ffe733d201dcbU,
  0x3db205a93e71b9d1U, 0xbe320af03da698acU, 0x3ede9e0b3df3262aU, 0x3d7041f03ea54c2dU,
  0xbd819b6e3e6dd319U, 0xbe0094eabc7c5a6eU, 0xbe497ef6be7e8316U, 0x3e3540a43e0262d4U,
  0xbe8dfb47bea3f235U, 0x3e825713bc4c5de8U, 0x3d1a02b9bda77660U, 0xbe01a4ce3de2e5a0U,
  0x3e372746befffa6aU, 0xbedbda2d3d9f2b3aU, 0x3d566543be8dd03bU, 0xbc58bcdcbd1ee338U,
  0x3dd933ff3e551208U, 0xbe0cd8fbbd0904aeU, 0x3d966acb3da5b483U, 0xbd541925be5d7773U,
  0x3e7c11103e349b10U, 0xbe617b723d8d4172U, 0xbe7f34c63f1be131U, 0xbe0f30793e05cff9U,
  0x3e150883be361ddfU, 0xbe0b15443e8279f4U, 0x3e8e6ffcbd32a3d2U, 0x3e24afb03e0cf9b4U,
  0x3dbad190be8a4969U, 0xbe44d1993e2bad97U, 0x3e4f4c91bd1b4752U, 0xbe33213b3e24212fU,
  0x3ecb0db03e3e2a77U, 0xbdc7eccabdc1788fU, 0xbd96965fbe1e25c3U, 0xbe4a482a3e656431U,
  0x3eb878c1bf2ea9b6U, 0x3e186fbc3cee9ce5U, 0x3d8d1d0fbdb6f2d3U, 0x3e9eda383e67aca0U,
  0x3d89c093bdfeda8bU, 0xbe6c48edbf22172cU, 0x3d43577d3d8eb1b9U, 0x3f04ae1dbd66c1c0U,
  0x3eddccd3bf2bdc3fU, 0xbebf9a153d1e7c53U, 0xbe7b4bf93dcb4fb1U, 0x3e9a446b3c1bf5d5U,
  0x3ea549113e08df9cU, 0xbe6e95213e665760U, 0x3e5dbefd3e08cca7U, 0x3e563be63e271848U,
  0x3e9bb799bed0db5eU, 0xbe42904a3e5e5d41U, 0xbddc05513e7bdcd2U, 0x3df282d83e9cec18U,
  0xbe6bd279bea66c7aU, 0x3e3e7174bec8b10bU, 0x3d2c765fbd8a5704U, 0xbe16bb80bea080baU,
  0x3ec3d347bd69cff6U, 0xbe8b3714bd8ced94U, 0x3ed15d53be72c0ffU, 0x3e0ab1803ee59dc8U,
  0xbd1fd9af3ed4224eU, 0xbdf6e1e83cc302faU, 0xbe865e7a3e435c59U, 0x3d899ef93e8e6012U,
  0x3e2dedbbbe03eb3aU, 0x3dedeb2e3dd4ab6dU, 0x3e6000323e007d66U, 0xbec193c53ec601e5U,
  0x3d8477933eb72830U, 0x3e6fce0bbb1e2194U, 0x3e1a9e403cc0fcfcU, 0xbd3e22723dd17c57U,
  0x3de03e3dbe9c0528U, 0xbdca6dc13df00164U, 0x3eae521b3e54b103U, 0x3ea9ebe43d8f33c2U,
  0xbdb436413d932587U, 0x3e96cc9b3e96cc9dU, 0x3ec1915d3d811c1bU, 0x3dc987ddbde65d95U,
  0x3e69c66d3e08d80bU, 0xbd89fcf43ea606edU, 0x3d4652c9bea0b106U, 0x3dec17d03e3e55eaU,
  0xbe35dd75be2fdba2U, 0x3e1097a1beb4350eU, 0xbe4fd0f63e509860U, 0x3d0b53efbe0fe748U,
  0x3d863350be57c1f4U, 0x3ea9a17dbe2398cdU, 0x3e61f69c3f2b7be6U, 0xbc8cf0b33ef074d7U,
  0x3e290e863e4f085dU, 0x3d11640e3d8e5f08U, 0x3e95baf4be6204e4U, 0xbe9718cc3d9f2a11U,
  0xbd388bde3c49c62cU, 0x3e19e081bdd4f526U, 0xbe302b2bbea53e41U, 0xbe992763bcd02e1eU,
  0x3b9528d93dc92954U, 0x3e038d92be2fcc34U, 0xbcabd7243d7fa4f2U, 0x3e15589a3d923d26U,
  0x3e8319e4bd8c6124U, 0xbebee3903ea691c8U, 0x3e5455a6be65931bU, 0x3d3043973e773479U,
  0xbdecb609bea5d24bU, 0x3e9fb3c93e5a46dcU, 0xbaf693b0bf19c948U, 0xbd306f6abf3256a9U,
  0x3e28bf46be0bb355U, 0x3e6d3c3cbe7eaedaU, 0x3e242e593d456a29U, 0x3e812ee0bed02219U,
  0xbe3ee5afbe0c5cddU, 0xbed1313bbe9c1a5aU, 0x3cf3f24dbd2b68e1U, 0xbe2283ac3ced644eU,
  0x3d603a9cbe8ddcb7U, 0xbf26a10cbb311876U, 0x3a177477bdbb349eU, 0x3d94aff33da81f9fU,
  0x3e12eef9be8311aaU, 0xbe9317ae3e818fa1U, 0x3dd578fdbebd9b5bU, 0x3e84273cbefc742fU,
  0x3de41b103f159febU, 0x3e3193c1be622217U, 0x3eb41327bd19bd00U, 0xbe3e20623c446026U,
  0xbdfc04cebea31c6fU, 0x3ed0f25e3f481108U, 0x3de8f1e3bdd27084U, 0x3d3ee7bcbdbe484dU,
  0xbc8fb16f3eb8081cU, 0xbe491ada3e4d93fcU, 0x3eae5f803d6a462eU, 0x3e9750ea3d45df89U,
  0x3d523892bf89a156U, 0xbe9139c63ebcf5f4U, 0x3f05ff96bdda9905U, 0xbce9aad1bebbbcc6U,
  0x3d97189abcab31d8U, 0x3daa3f623c12a7f8U, 0x3f1e00533ec8e077U, 0x3dd7353fbd4094b6U,
  0x3e9d21c63e5b71e0U, 0xbe68b617becb8d33U, 0x3e92e9a1be9d5c9bU, 0x3e8280e23f11967bU,
  0xbe197b643e8d9811U, 0xbe8a0c4cbf62b258U, 0x3d7339f0bddb2f2fU, 0xbe8d23633e809b95U,
  0xbe6b8224bd3570d9U, 0xbd89688a3e0ad9d1U, 0x3e7334033ca1cc94U, 0xbe8fd450bdc0fd3cU,
  0xbdd849653e032757U, 0x3e8b03bc3e8939efU, 0x3e195937bd8161a3U, 0x3bc38dd93e17c753U,
  0x3d421d893e956e83U, 0x3e2d6b36be7a7db1U, 0x3e8f9aabbde0504fU, 0x3dfb2d6a3d028dcdU,
  0xbd4f0271be9b25c0U, 0x3e8c8d27be308f93U, 0xbd47e8f0bda5e10dU, 0x3e886efabe28bbdeU,
  0xbdb3d451be7d6a13U, 0xbd8807babe293065U, 0x3e0cc9e03dfece01U, 0xbe30f0c8be5b2a2dU,
  0xbea452a13de76ebcU, 0x3da19bf83e8dcbeeU, 0x3bd42a69bda3ad66U, 0xbe6ed1253ed103a8U,
  0x3e1f22493d8fc8b6U, 0x3edba8d5bd548b31U, 0x3cfb763dbe103448U, 0x399b374e3e6d9f80U,
  0x3e0b7eba3e3d80e3U, 0xbe71b2fb3e610487U, 0x3ea9f59fbdca0bcdU, 0x3ea2a4f93e05572eU,
  0xbdde2a56bddbfcafU, 0xbe2d42c93cd97d72U, 0x3d23969bbe5402f1U, 0xbe4cf4ad3e19f6a9U,
  0x3db43fd13d26fa95U, 0xbd139ad33e6aba0dU, 0xbe8747c23da88928U, 0xbec96170bdafdce8U,
  0xbe037831bcd9e92aU, 0xbe16d236be2ef789U, 0x3d9b5813bd9ed222U, 0x3cfbbbe6be15c1a0U,
  0xbe8004f73df980c3U, 0xbd3c71af3d22b94eU, 0xbd778781bddad006U, 0xbceab7c63e7f9b8aU,
  0xbe34840ebe333b37U, 0x3deb2ff1beea6162U, 0xbec632b43dadb973U, 0xbf033aabbda42af6U,
  0xbde1cc7c3dc3fdc9U, 0x3dafaef83b8f8c19U, 0x3eb7ab3b3e064658U, 0xbdcfff30be695772U,
  0xbe4ce6553d893669U, 0xbe4c0ff83df8152aU, 0x3dcbbef03d9a450dU, 0x3e07f3d9be609cbcU,
  0xbe589c51bdd845d5U, 0xbe1ccd41bcb09b41U, 0xbe6fc504be647cc0U, 0x3d646347bda58c6eU,
  0xbe39a6d5be060a5eU, 0xbb83c1dd3c514c1fU, 0x3ddeb3463d9d493bU, 0xbd61ff08bd9ea0aaU,
  0xbeb611d83ede6883U, 0xbd9f29e63e046e9dU, 0x3dbbbc57be1cc9d2U, 0x3d9879d1bd916f58U,
  0x3c3748a53e2bc0a5U, 0x3e29bdfb3d7a2646U, 0xbe902016bd55d2bcU, 0xbe48c2803d293a51U,
  0xbde5d5013e11475cU, 0x3e58f2d3be0d9c1dU, 0xbe8dea6fbd97638eU, 0x3e45dfb53deb1df3U,
  0x3ddc8e28beb91cbbU, 0x3d6c09a83d46317cU, 0x3d2049e5bd80854fU, 0xbe1cbedbbca123d5U,
  0xbe9b7e9c3d79f130U, 0x3d3f61183e8eb507U, 0x3ea3b1773d9de678U, 0xbe34a470be844544U,
  0xbd86a013bd4103a1U, 0xbd848039baf72fceU, 0x3e30ad32bdb8a4f1U, 0xbaeda105bd1ed99eU,
  0x3de17575beacfd69U, 0x3e8e928cbe268c9bU, 0x3d4373d23ea15584U, 0x3e186565be74e8dbU,
  0x3c82a226bebb6dacU, 0x3ef4d2413e1684a9U, 0x3d08a3ef3e12d628U, 0x3de2f9a6be5b0609U,
  0x3df89b11be90a592U, 0xbe6edb263dd7156aU, 0x3e9524453e291e38U, 0xbd04dc1dbd8cdd98U,
  0xbde43803bdf85d55U, 0xbc9debd33e60c4c9U, 0x3e86b9633d865886U, 0x3de2a806be329709U,
  0xbe5ff9a8bd4af550U, 0xbdddcbd9be47b254U, 0x3dbbb309be2573f2U, 0xbe7c0ea63ee43e31U,
  0x3dc43eccbe92f062U, 0x3d3892713ec6d455U, 0x3e7ab9f9bde42e11U, 0xbe9d85803d50a884U,
  0xbe1986093e840885U, 0x3d2a06c33ddf8227U, 0x3da2fd60bdaee7b1U, 0xbd2064833e876946U,
  0x3e1ccb753e74b301U, 0x3d32ec833dcbe96cU, 0xbed7d42b3c89235bU, 0xbec6eebf3e3750c1U,
  0xbe004b61bd2f5236U, 0xbc52ef54bf01658dU, 0xbdc342443e0db0aaU, 0x3e1896413dbe9223U,
  0xbdbbf7f3bea015b6U, 0x3e3454cfbee5f5e0U, 0xbc86e59d3ef883b6U, 0xbe8938503e8444a4U,
  0xbe5b75503df0d5cbU, 0xbdf82a3a3e99786bU, 0x3ea3d77cbee2b630U, 0xbe718482bda5e0c2U,
  0xbe643016bd67d53aU, 0xbe014b0d3ef0df61U, 0x3efba588be457954U, 0xbeadaecf3e2ea89eU,
  0x3e872881be82c58bU, 0xbe0113bcbdc37ff9U, 0xbe615e7b3e8264bbU, 0x3d8102eabed3b6d7U,
  0xbccd75a2be2acb3dU, 0x3e77678fbd234d7eU, 0x3d3d64873e8fe3f1U, 0x3e731651bdb7234fU,
  0xbc7dfc8bbe0a88c8U, 0x3ed272d5bdce8155U, 0xbca88ccfbe26899eU, 0x3e22d3a7bd866bcaU,
  0xbd4289b13e9d7d17U, 0x3cdc63443d97f477U, 0xbe6b750dbe004193U, 0x3eaaf98bbf2a0130U,
  0x3ca50d8cbe946668U, 0xbe23bef3be2c02abU, 0xbd7960c03d0336adU, 0xbe127891bd0c363bU,
  0x3dc30c5cbdec8885U, 0xbdb7ee5b3de1298eU, 0xbd4adf4c3d659d4fU, 0xbd9692243ece9b67U,
  0xbeb8dff33c86c39fU, 0x3e035d5bbe78a293U, 0xbe564489be2e484bU, 0x3df7e8523d8ba199U,
  0x3d42340f3e88489aU, 0x3d44c3153d2c7c69U, 0xbbf97effbeb228c0U, 0x3a46c0eb3e3252c0U,
  0xbcdccadabe34bcd6U, 0xbec121a8be4e35c9U, 0xbeb33bb4be8985d0U, 0x3e814de63dc88865U,
  0x3dbeff4fbe3e4ae4U, 0xbe406bd5bdc5285dU, 0x3e3ba8033eed5192U, 0x3e19f7293e06f209U,
  0xbdc5b9a13e8f16c7U, 0xbe9865033e88c9caU, 0xbe459a8abe2ab4a8U, 0xbe6fb96cbe9e955fU,
  0x3b845b603dde8ec9U, 0xbd680c24bb89446aU, 0x3e090d86be96d425U, 0x3eaa428dbdd9bf7eU,
  0xbeb653653e01b9cfU, 0xbe8454523e6efd7cU, 0xbe50831d3eb796d8U, 0x3d2fd7ed3de5a44eU,
  0x3d839a543d81470dU, 0x3d8d3562bde83cb1U, 0x3df7735dbdb0d232U, 0xbe97bbaebef479dbU,
  0x3b9fc5dcbe15f77bU, 0xbc2c00ecbe40e2afU, 0x3f3527273eb6355eU, 0xbf1e8b363e9a4076U,
  0xbdb1baa7bd937ac7U, 0xbd98e278bcc659b8U, 0x3e9b63593b58c524U, 0x3e5fd5c93d9900c9U,
  0x3e4324e23df7120cU, 0xbd57a1c9bddce9fbU, 0x3e174313be5b5914U, 0x3dbe780b3db35f55U,
  0xbe8c4b8cbe484047U, 0xbe037216bdcfc524U, 0x3bd5021f3e304199U, 0x3b0ed163be85f1ffU,
  0xbe846fdf3d387d32U, 0xbea675d63e27b56fU, 0x3d73db4a3e07b046U, 0x3e1be745bdf74368U,
  0x3dd6e6303daf125fU, 0xbe15b9bebdc66080U, 0x3e0b04443cdbe0b6U, 0xbe0a4f963e085780U,
  0xbdcc0f103e836278U, 0x3d6c9d433db1e394U, 0x3e34ca7bbeeab161U, 0xbe0e07273e8df321U,
  0xbd91d89cbcc053efU, 0xbe2fda41bd03087cU, 0x3e998397be458a64U, 0xbd90463c3ee5513eU,
  0xbe8207473e991fa2U, 0x3e54d826bda3b67fU, 0x3e585efe3d87a81dU, 0xbde9ad493e27f66fU,
  0xbe1ab31cbe28c1a5U, 0x3e73c400bd078e26U, 0xbe1597353ebec69aU, 0x3de0a1ab3e8c1aa3U,
  0x3e175938bea322a4U, 0x3e1014023e71f2c3U, 0xbe1c51fc3da50b05U, 0x3d941552bd96efbcU,
  0xbdd5a4c6be154326U, 0x3eb8d01dbe4680cdU, 0xbd6a554f3ece916eU, 0x3e2960e2beaa6569U,
  0xbeafcbbfbec598a4U, 0x3d64b9d43e9be0f1U, 0x3ed275513e8f60ceU, 0xbe3b8d383ed17201U,
  0xbd9826bfbe056eb7U, 0x3e5369ff3d290ae7U, 0xbd5e93503e225314U, 0xbe1c82e43c932166U,
  0x3d1e20e03e1b2a93U, 0xbda330e93de9a3cfU, 0x3ee85bfcbe4b9401U, 0xbe799b393f0699d4U,
  0xbe0151323e3419caU, 0xbd4c9bec3e0429edU, 0x3e3c2d7bbcd833edU, 0x3e4e28f3be2244c9U,
  0xbe122fcb3ec607f9U, 0xbd3d4c61beed3cf9U, 0x3dd1a39e3d8577f2U, 0xbe2517883e00c1f1U,
  0xbe07171a3e782dc8U, 0xbd10740f3d17d5a5U, 0xbcea0c703d6c462aU, 0xbe9073673e9db181U,
  0x3e7a73aebe46c281U, 0x3e14cc5b3cc802b7U, 0x3ee5e689bea36b12U, 0xbe75875a3d102596U,
  0xbe8b8d46bdee0196U, 0x3ed22881bda8f8b5U, 0x3d95148e3d5a3a33U, 0xbe095af53f300dcdU,
  0xbe48d47c3e895d84U, 0x3e8d3ffbbe14d062U, 0x3e58e205bebc377aU, 0x3e000aa93e666429U,
  0x3b977712bebcedf7U, 0xbd0bea1e3e20e62cU, 0xbe5ad5ddbcae6c09U, 0xbec6ad29be85b10dU,
  0x3dd92bc9bf6828a3U, 0xbe1a679fbb224bb1U, 0x3e3db3eabec817c0U, 0x3c2273d9bec39476U,
  0x3e0e3a3e3e0ef145U, 0xbde18b71be600500U, 0xbeac7753be3aafeeU, 0x3e0942b93d577880U,
  0x3d816a213e1da53cU, 0x3ac77ca53f18bd50U, 0xbd752c25be191ca6U, 0x3de4e356be912dfbU,
  0x3dea250ebdd4852fU, 0xbe0dcc8f3e91a10fU, 0x3d5d867bbd02f5feU, 0xbe88fbbd3c55d97fU,
  0x3db8ea73bec58b07U, 0x3dad69f23d30100bU, 0xbedb48f93bcf798fU, 0xbd458b09beb9e43bU,
  0xbd21f8e2bd0084f4U, 0x3def20f4bd534648U, 0xbd074f3a3eba8eaeU, 0x3eab596bbe01f345U,
  0xbe394db7bdbdd888U, 0x3d9054f83f00acebU, 0xbcfe4cc4bd74317aU, 0x3e2d9409bd7e0d91U,
  0x3d9cf16d3e816671U, 0x3e9875943ea2932eU, 0xbe9b53e83e2e6f30U, 0xbe7562023db2fb09U,
  0x3ce44663be75b4e6U, 0x3ea468083e3facb3U, 0xbc00ff7c3d6f022cU, 0xbe23fa7fbe21c975U,
  0xbdebc4613e65f992U, 0xbf42ca37bdfd9b1fU, 0xbe3f4f7b3e29f0caU, 0x3e162e48bddd2ff7U,
  0xbdfd6bd63e4b2d37U, 0xbe1363b9bc4e195dU, 0xbeceda24be8ccd6fU, 0x3df3e414be2880daU,
  0x3cff3447bd604923U, 0xbc25cba33ea93f1cU, 0xbda43ff33ea1993dU, 0xbe91c6973e85eacfU,
  0xbc8a53a3be3040fcU, 0x3e2dfc8d3dea4383U, 0xbe51b45ebb58faccU, 0x3d97dfc5be903adfU,
  0x3d35918bbe440269U, 0xbe51cb8cbe80ecdeU, 0xbe859bd13cdc5658U, 0x3de95d103d87a103U,
  0xbe550b79be155bb1U, 0xbd31a1e53d5e11f9U, 0xbe97d63b3c235f4cU, 0xbeb8b54abec3ed9dU,
  0x3ac4d6353ea78472U, 0x3e7397243f235468U, 0x3d65be8c3e6a2e82U, 0x3e80956d3e6d5cb1U,
  0xbdcdd762be90570cU, 0xbde973983eb07e2bU, 0xbe439ef03eb15f20U, 0xbe1149783df29dc6U,
  0x3d761fab3e192b7dU, 0x3e348e043e1089deU, 0x3de37737be9f94c3U, 0x3d135f2e3cf28b41U,
  0x3de421883d995d80U, 0x3e0c6644bebb0cc1U, 0xbe19f6703b86976eU, 0x3d7e084d3d080246U,
  0x3d8665c03dc99513U, 0x3e24bd893d205092U, 0xbe2c13dd3e185fb2U, 0xbcf4c5e13e9b46deU,
  0xbdad7940bebc9959U, 0x3e7868903e6b8edbU, 0x3db1b582bdc760c7U, 0xbe45b6ef3e9ce4dfU,
  0x3d977ab33d1bb574U, 0xbea3bfd1bd15352aU, 0x3e607f403d6db106U, 0x3d0a65f33dec9320U,
  0xbe368bb63dab5a92U, 0x3bbf5b6ebea51d49U, 0x3dd7e4903c498efeU, 0xbc561cfa3e8bbeabU,
  0xbdd0c2a53da2c6acU, 0x3e1a68273ebaa5bcU, 0xbdffe19f3eeb1155U, 0x3d246e5e3da01f8eU,
  0x3da75fde3d5e05aaU, 0xbe32937ebe2eeb0bU, 0xbe355802be9c44d9U, 0xbe0ae50f3e2c6259U,
  0xbe987f91be984e49U, 0xbdea4349be9dbf90U, 0xbd5de600be284969U, 0xbe7b7b403e1e883cU,
  0xbde01cfd3de0ce0eU, 0x3e8e3afd3e780ce4U, 0xbe504de13ec21ae5U, 0x3dbcb9e1bdc42bafU,
  0x3e7886aa3ee68652U, 0x3e5b76dabe374726U, 0xbc4ea53e3e819f15U, 0x3e25081abd5663d9U,
  0xbdd60082be40a6a6U, 0xbe331fd1be1e64feU, 0xbf249008bd3886f8U, 0x3c2ea2293db85d53U,
  0x3e82c8e9bdde7bc8U, 0xbeba727b3de7f1c8U, 0x3e8e9887bda7dbb9U, 0xbd1f80d53e3d3fbeU,
  0x3c8044febd7957acU, 0x3de5d248befc58bcU, 0xbd7f286fbb891e35U, 0xbcdd0b173e0cdbe4U,
  0xbe00881a3e569e5cU, 0x3c81da89bdfc5eb3U, 0xbebc29823dd923efU, 0xbdf07e433d9c4243U,
  0x3db666cdbe4656beU, 0x3e051305bdf46c0eU, 0x3e0c4d16be80906dU, 0x3c33978e3eb28cdaU,
  0xbd316317bdecfca7U, 0xbda844023e861278U, 0x3ec8005fbe935c12U, 0xbe0fc37b3e5ec1ecU,
  0x3ce6e7883e8c48cbU, 0x3e25887dbecc0e7cU, 0xbdf9d1a53ef1b249U, 0xbdd8e54c3eac9190U,
  0xbde20da03e287d2eU, 0x3e053b6cbe9d65d6U, 0xbc9fa53e3e17df56U, 0x3cafe8f33e3583e0U,
  0xbd70fefc3f0c93d3U, 0xbf02ff1ebe842868U, 0x3cfcbe82bea45a55U, 0xbedf7a3f3dcf2992U,
  0xbc8fd006be973f8fU, 0xbd91de96be2292c1U, 0x3e2ca4edbf3090f7U, 0xbe0756e33f32169fU,
  0xbf093bd53d50c24fU, 0x3edf3a913e6d4565U, 0x3d96382f3c7451bbU, 0xbde8b2b2bee9d3ccU,
  0xbbcd7bac3ebc562dU, 0xbe9d4216bb0fe615U, 0xbe923d7cbf02e739U, 0x3e50dad43e7a41fcU,
  0xbe75d8e9be821464U, 0xbec6aafd3d8115deU, 0xbe122ef7be3c824aU, 0x3dfeb0c3beb0631bU,
  0xbe6ee1793e8e7d33U, 0x3e82c662be35e980U, 0x3e63e178bf2141abU, 0xbc59d0b73ed397f0U,
  0xbe8a9a013d59ddacU, 0x3ea483873dfff2eeU, 0x3e3b8223be5a72dfU, 0xbe0fd07ebe465af2U,
  0xbeadaf4d3e2afb6eU, 0x3e0335213e309220U, 0xbe97fce6bd2b4046U, 0xbe7fd5603e544ffaU,
  0xbeed53dc3e89a170U, 0xbe88e3883e098ecfU, 0xbebb1edb3e0e66b5U, 0x3e0949f2be728100U,
  0xbdf81d513f1bff34U, 0x3ea8a78abe42992cU, 0x3e69e3c3bea7ef8fU, 0x3ee93019be9102d1U,
  0xbdeee9a1be396c9bU, 0xbdbc2cf23dd295b3U, 0xbe30c8e73dc5ec4fU, 0xbdbbfe363cf37483U,
  0xbe8b5a33be5a0d99U, 0xbda0d31e3eae8e95U, 0x3e41f74b3e95c3daU, 0xbeb5401d3e917ce7U,
  0x3e9a3ee3bce29e7aU, 0xbe9ee43e3eb95e86U, 0xbe67838d3f137516U, 0xbdf3d050be96814bU,
  0x3c2e0fd3beb05a18U, 0x3eb73f5bbcdb80feU, 0x3c8b727abe8574eeU, 0x3e3482c7be084793U,
  0xbe167e463e4473b9U, 0xbd82df4fbe2a54cdU, 0x3eae93da3edf82fbU, 0xbe765cacbe2ed787U,
  0x3e9186173e2b1d8eU, 0xbe4e2165ba82c69cU, 0xbd992efd3ea87d69U, 0x3ed848983e18841dU,
  0xbe62786c3dc79addU, 0x3d27260e3e5cfbe3U, 0x3d98c9933e52c7cdU, 0xbf0ef0b33e0f0fe4U,
  0xbdef7fc4bdd23d94U, 0xbe747a413dad34fbU, 0x3f36fb5e3afabd11U, 0x3d9f1cf03e80b0acU,
  0x3df3bea03da49540U, 0xbea5028abf44aeaaU, 0x3d951ac2be415b83U, 0xbdd9f8643d5f10acU,
  0x3e4ac365bcbca3ccU, 0x3eaafe42bd8cb752U, 0xbd735adcbe76b6d0U, 0xbe5ac6b0be68a364U,
  0x3e8afbd3bf0825a8U, 0xbdd3a3bf3f071ca8U, 0x3de4a9533eae5682U, 0x3c0fda67be424b38U,
  0x3e4e297fbeb8bae9U, 0xbe78ed813e48d964U, 0x3ed784e0bd01605fU, 0xbe569aab3ebe9838U,
  0xbd7068a4bdefc2e1U, 0xbf03fe49bf0f2c43U, 0xbd0ed95dbf215e08U, 0x3d54e3773d860ee2U,
  0x3cd1c4913d8d5638U, 0x3ec0f39b3ec07d67U, 0x3d7700e73d9a7197U, 0xbe01dbdd3d9a1a32U,
  0x3d308e88bf2fb238U, 0xbea4054d3ee94ec4U, 0x3d4f1a6bbe826b52U, 0x3f418de3be4f9790U,
  0x3e9bc84dbdd05460U, 0xbdbf8c733c387bdfU, 0x3f13785dbd6b49d8U, 0xbe3514b5bec4aac0U,
  0xbb0d4a2dbe4e4354U, 0xbe27335ebd17b061U, 0x3e57a639be82b184U, 0x3e44f7e03d586059U,
  0x3e10cc73bed68635U, 0x3ea1955b3e880b1bU, 0x3bb760b6bd87e22fU, 0x3d781f3dbe2ae69aU,
  0xbda34f423de81a9dU, 0x3e0c59bcbdcf7023U, 0xbe9e6dfa3eb39bb4U, 0x3e59eb293cc1d77cU,
  0x3df1023cbecc6ed3U, 0x3e68f135bdb2ae9fU, 0x3d635f1bbda878cfU, 0x3ddcd646be6dff05U,
  0xbe8f387b3d844170U, 0x3ec722473d502d72U, 0x3e769680bdc0247eU, 0x3df109ef3ddb4e48U,
  0xbe1c7e273e170f6eU, 0xbe9a7169bef36954U, 0xbe53a3533e2a1f85U, 0x3eabff6f3eb471d0U,
  0x3e93cfc7be3a8362U, 0x3d8c43af3eaabffaU, 0x3cc605de3eb34edaU, 0xbddc88fcbf04838eU,
  0x3d86c0373dbd6ccfU, 0xbd7347edbe49fed5U, 0xbd67b0743eea097cU, 0x3f2337ba3ef09289U,
  0xbf22bcc7bd9ecdb7U, 0x3f1a66d13c76156dU, 0xbe6b4fe8bf221f98U, 0x3e92790cbe622596U,
  0x3caa5ef33e880b9aU, 0x3ec785ecbf07b1f8U, 0xbf356e3c3df841d7U, 0x3ed1c504bddcf9a9U,
  0x3d2b9805be3e29c6U, 0x3e7f6a033e5cf019U, 0xbe89264d3d64d7b8U, 0x3d679bcb3ebc653bU,
  0xbeb33f983f0b5fb9U, 0xbda26307bef6dc99U, 0xbed4bdc8be978185U, 0xbd893e7bbea376f3U,
  0xbdc7645abe3d21a3U, 0xbeafda17bd8b43f7U, 0xbdb67f83bec049d4U, 0x3e85549b3f06a864U,
  0xbea1451fbe666448U, 0x3e96ee47be0a78b6U, 0x3ed4cb633c8d9169U, 0xbf3d259ebdb84ab0U,
  0x3ebb19963e0483f4U, 0x3e5f9d0b3f2cf807U, 0x3db270ecbe67b587U, 0xbe00bde53eb6e3e8U,
  0x3ed0760dbec6d305U, 0xbe3f8366be0f775aU, 0x3ed23ef0be540cadU, 0xbea41079be4b7adbU,
  0x3dcccd9bbe427397U, 0x3e88585c3ec35b20U, 0xbe071cb9bee45740U, 0x3ecb3cc93dafd071U,
  0xbe62a205be55bc52U, 0x3f0fc0243e78c016U, 0xbe0156443d372c79U, 0xbf103a5a3e703071U,
  0x3e86d1883cb3e06cU, 0xbe4ffe8a3d9e5c1aU, 0x3e8b1f83bee2945fU, 0x3f2b6daebe2b52f8U,
  0x3e35d4fd3e1c2672U, 0xbf78be84be1cfbb0U, 0xbee042543edf102dU, 0x3e7af6503debb7c1U,
  0x3de7c8013c0eb261U, 0xbc33e5ef3e8cdc1aU, 0xbde31fd03e947395U, 0x3e96a304be1264a7U,
  0xbec2b20fbf10db8aU, 0x3f15e86dbe3fb6feU, 0xbd9bccc53d2a1193U, 0x3e587b84be810bb4U,
  0xbeeb7e6a3efa2532U, 0xbe80e9b6bf5cd4a5U, 0x3e4ba179be8b049dU, 0xbe3f6e20be232b1fU,
  0xbd1639613edc9c62U, 0x3dee624ebef7104bU, 0x3d53abe7bd700e4bU, 0x3c0b2437bf84b3f1U,
  0x3ecae4523e487163U, 0x3eece9c83ea381fcU, 0x3eafc2953ec25b97U, 0x3f0808453ed45724U,
  0xbe29180bbed168beU, 0xbdee62d1ba6ac52fU, 0x3ee21d01be49f3f6U, 0xbeff9dbb3ef1ef9dU,
  0x3d4cbc5abe28f76aU, 0x3e6200c53e502b4cU, 0xbf3240083ea66e15U, 0xbc827f203cf7be4bU,
  0xbd6eca403dff75c9U, 0xbb700d3fbe0153c1U, 0x3d5eccf93e86683bU, 0x3e386844bef7b936U,
  0x3cadf8d6be559f50U, 0x3dd4afbb3ecdb968U, 0xbe04c8a73e321849U, 0x3e9c443a3d9f3756U,
  0x3eb07431beef56eaU, 0x3e1e0b56bdad9eb6U, 0xbe01fb063e246b1cU, 0xbe4850573e96d9cfU,
  0x3ec71f1bbeea58f2U, 0x3f07f11abe721d50U, 0xbe80fbe8bd476b90U, 0x3daead57be33e0e1U,
  0xb96a84353c9e46f0U, 0xbefdf0b73e8587d1U, 0xbe66b2893f238b9fU, 0xbd94858d3ea507c1U,
  0x3eca077dbd56a5e9U, 0xbc82cefdbd766600U, 0x3d5acd373d18b127U, 0x3f02ee8fbe2ebea8U,
  0x3e053be6be224fa1U, 0x3ef2118c3e86d10dU, 0x3e2ea2ce3c25a899U, 0x3e3a4451bf428367U,
  0xbea289b4bf3d819dU, 0xbdb61fcfbeaa0069U, 0xbe84c064bedb8e4cU, 0x3eb9f331bec07935U,
  0xbe5884f83ec1a53dU, 0xbe0b6fedbec872eeU, 0x3ee36e10bdde1317U, 0xbe3fc1febe61851dU,
  0xbd7b6008be262e88U, 0x3ccdfa6cbc8346d1U, 0x3c8df7923efe7defU, 0x3de4aaaebd5c66dfU,
  0xbe8af5dd3dc149e6U, 0x3b58ee8a3f17286cU, 0x3eb12442be48b7f5U, 0xbf68b6b93c929cd7U,
  0xbe8500b4be8fbdacU, 0x3eab2e293ea535d7U, 0xbee4952c3d3deee7U, 0x3e09cade3ee78e2dU,
  0xbd636077bd0fcfd2U, 0xbcf67b69be860287U, 0x3e85da093e045451U, 0xbe13c0f9be0c406cU,
  0x3e0b499a3ea5234dU, 0xbf0b9f7d3bfb2831U, 0xbed4d86c3e50efc7U, 0x3f0964f93bcaad7dU,
  0xbca1bc85be44b717U, 0x3d49813ebe32a479U, 0xbe05d2aabe908b3eU, 0xbef4a4a73f137cafU,
  0x3e54fd79be138e9cU, 0x3e97e9f4bedc0282U, 0xbe8697d5be28f2d1U, 0x3dbd67163e523c24U,
  0x3de5845b3e363a67U, 0x3f099b88be2bd790U, 0xbe65112f3f207699U, 0xbcbe81ef3ee4b3e5U,
  0x3eca73bf3dd7c95aU, 0x3e0bb375bdce2b67U, 0x3ea4bfe13e967b89U, 0x3d5562ac3ddec270U,
  0x3e438fda3e4953c2U, 0xbd8f504bbf86c426U, 0xbe7a6a213e4b0230U, 0xbd554c4e3e725227U,
  0xbe743cb2be058105U, 0x3eb124d63d0f87a6U, 0xbec6173fbf513236U, 0x3dd4888c3e45bd3aU,
  0x3d1ca21b3deff50cU, 0x3e5f8e3b3e3628bbU, 0xbd1e50343e0193ccU, 0xbe5daa2bbdbd3793U,
  0x3c8b3201bda2f05eU, 0x3d7a2e283e6e90e4U, 0xbcbdb40dbda54782U, 0xbd81479e3d6da3bdU,
  0xbd2bfe5bbd26956cU, 0x3ccabdf53bdaa61eU, 0x3e35041b3da62489U, 0xbe1245963d299f00U,
  0x3c3ba05abe831de4U, 0x3d1c0dd1bcfad3a9U, 0xbde22d763e13a619U, 0x3eaeb57b3e16ba50U,
  0x3dbcfe8a3e894838U, 0x3b4c9f39be8849adU, 0xbdc210f83e2c62b4U, 0xbe02f1aa3d590243U,
  0x3e5ae2e8bd99ddc1U, 0x3dd9e733bcbc9400U, 0xbe867d623cb11c6eU, 0xbe162b3a3cda3bbcU,
  0xbe3eb921bd04e4f2U, 0xbe550f9ebe82dc1dU, 0x3d9f06ecbcccddfdU, 0x3c13a9cdbcca529cU,
  0xbad1ed4bbe8b7f01U, 0xbdee65b9bea6c12cU, 0xbe05b66bbde32f90U, 0x3e34eaa13d99cd2aU,
  0x3e216aeabd6235beU, 0x3d9a8ab6be82f5e5U, 0x3c843f313e47c43cU, 0xbc53f1213dd003c6U,
  0x3e11cde2bdc25c03U, 0xbe1cfe97bdc1d25fU, 0x3d21736d3cacbbe0U, 0x3e62a5a0bd8fb405U,
  0xbe82f95fbe7fe564U, 0x3d9f3b64be749dbdU, 0x3e44cea0bcc82545U, 0x3d3e08bf3dd171aeU,
  0xbe7c32a63e161726U, 0x3e7736f3be421ffcU, 0x3e8f1eec3e1ab0faU, 0x3e8287843e8846c3U,
  0xbde7f4b13e5220d5U, 0xbdb59c7cbe58de6aU, 0xbe0501913e7cc448U, 0xbe1e10dbbd2f6a28U,
  0x3d02cf75bec8a3e0U, 0xbe8c4f473cde6bd7U, 0xbe346153be3abf40U, 0xbe879c423d020a19U,
  0xbdb8398fbd482f44U, 0xbe4cd7ae3d9ed0c8U, 0x3df3679dbe0e124bU, 0xbebfaacfbbc859e8U,
  0x3db20c23bdcb2126U, 0x3d3ad4ce3d3cb3e9U, 0xbe3a58453e08cdedU, 0x3ef7db63be5a307aU,
  0xbe1fad813e2ff77dU, 0xbc350bcb3da110abU, 0xbd13354d3dbefccbU, 0xbec3d8d83dde8641U,
  0xbe14f6923e091bfeU, 0x3b0ace503df58e43U, 0xbd8113143dea19e7U, 0xbe294415be6a8c6bU,
  0x3dc374683e190cf5U, 0xbd34ea21be0896b9U, 0xbe0075f7bd9c7ae4U, 0xbea7375c3cb04e10U,
  0xbd50d2543c0988f7U, 0x3d9d069bbdcbabb5U, 0xbd8b5c2d3e7c827aU, 0x3e1ac57dbe930855U,
  0xbe2de1283e626bb7U, 0xbde4b5c6bd9d9f04U, 0x3d0162323d3102eaU, 0xbe2eb7573d3943eeU,
  0x3caf2ae0bee399a5U, 0x3e7fdf763e224e9eU, 0xbe31cedf3e75ab06U, 0xbe153c16be709d94U,
  0xbe0db20c3d003240U, 0xbed60feebeb088d7U, 0xbe0434bd3d699e11U, 0xbc47da5bbc229630U,
  0x3e279c0c3e779927U, 0x3e241cb63d962ca7U, 0x3e58f188bd437e9dU, 0x3ce1fd303e869775U,
  0xbe9328e9be63622bU, 0x3dab5e7c3e1828a3U, 0xbc31aada3e9693b3U, 0x3e0d9feabde05887U,
  0xbdd6c9993e3b8dc0U, 0xbe5a73e1bde7349eU, 0xbe33a09e3e90fa2bU, 0xbebf7f36bda95601U,
  0x3e58c3d4bd6b3e69U, 0x3e22721d3d12bfe9U, 0xbd36e449be7e4e37U, 0xbd1159843d3aac25U,
  0x3e08ca003e7606f9U, 0x3efe211cbd84958fU, 0x3e25914e3eda94d7U, 0x3e9ccc6dbd62c820U,
  0xbe8c3661be20107cU, 0x3ded0325bc291fa4U, 0x3e489d0ebd5f169bU, 0xbeadabd33d548228U,
  0xbe4c3bc63e346a49U, 0x3e49900b3e3bd373U, 0xbda3a62cbe2a71efU, 0xbe30adb6be952e7dU,
  0xbe5d9c4fbdaea364U, 0xbe3b19013c322251U, 0x3ebdbb333c4fb28dU, 0xbedb09c33d74e8d9U,
  0xbdf0700e3e951cceU, 0x3ec4a1d53e0763e8U, 0x3da0583f3ebf319fU, 0x3e93f32abf115379U,
  0x3d23fe1bbe597c08U, 0x3ebea6093d8eec44U, 0xbcda2e5bbd8818e5U, 0xbe637b00bf0f8d77U,
  0x3e00adebbd7327bdU, 0xbe08267dbe92d6d1U, 0x3dbf4ff63d77f79bU, 0xbda7cbccbd978029U,
  0x3d9e173dbe86bfb2U, 0xbf0e66cf3e1f16acU, 0x3ea695fb3e70b5b4U, 0x3e2ffc07bdf605b9U,
  0xbba04048be1f5ce5U, 0x3d82625abbdbf7c8U, 0xbe99f8dc3e12f047U, 0xbd8ae8b6be7a85d3U,
  0x3d79fe02be65d363U, 0x3d72d3d33f0feec0U, 0xbcc9b7a43e24fad0U, 0x3ee9d5703b88a764U,
  0xbc9b88a63e03a606U, 0x3da3df97bde45e4eU, 0x3e7bfd0d3ce21584U, 0x3d2b8a42be07e3acU,
  0x3e4a480fbe28a43fU, 0xbf0fe3103ec5bcd3U, 0x3d211ab5be422940U, 0xbe900fef3d03c92cU,
  0xbea33f393ec03c9bU, 0x3e89d72f3d0f8886U, 0x3e9ee94d3e7d27f0U, 0xbdde517d3f58df7cU,
  0xbe85a6fcbeac51e3U, 0x3e3b097a3cb6e3d2U, 0x3d730febbdb5b853U, 0xbe7c0a093e9fb4f5U,
  0xbdfd2b423d983859U, 0xbe4122f03d8e49cfU, 0x3e7c642dbee91a04U, 0x3de9f11cbea1e590U,
  0x3d9a5e7cbd288f91U, 0xbd4cae673e57e729U, 0x3e33a3e4be16ce6aU, 0x3ef5e950bc52bc26U,
  0xbe48fe0cbe55fb2dU, 0x3ebf5705bcf7fd74U, 0xbe76bd583d95d241U, 0x3d01aa13be2eae21U,
  0xbe5369e7be148cacU, 0xbe285be43e6fba64U, 0xbcdccfc03f05940cU, 0xbe3601953eba8c4bU,
  0xbe1934ba3df3a64aU, 0xbe80749e3e418b5bU, 0xbf04a4fb3e062065U, 0xbdd74a413d924f81U,
  0x3e72e57a3db2ed14U, 0x3dd7bfebbf0724c4U, 0x3e04b2c33dcdf44fU, 0xbdff8791be213c44U,
  0xbe8a3a8fbb243f7cU, 0x3d8a8a4fbdf1745fU, 0xbe0d234d3eba18bcU, 0x3de47262be11479cU,
  0xbd8d0d7dbe3389e0U, 0xbe0ef9283e30ce10U, 0x3d801726be1cbd3eU, 0x3eb62699bcfc0b52U,
  0xbee6cb10be872bd9U, 0x3e40dcaf3eb16327U, 0x3eb83fca3eabae3bU, 0xbdf6909d3e4e5958U,
  0xbd1b77d73e50a2b0U, 0xbe9fbf0b3e225125U, 0xbe55c45dbd58dc27U, 0x3d2a1e543d741c27U,
  0x3ea1202b3e76b4b0U, 0x3c8a77aa3e93b89cU, 0xbe9394653e8123ceU, 0xbefa32773ec2d3c8U,
  0xbe28b872bec95616U, 0x3e7c158bbe8701c2U, 0x3ebff9033dac4c27U, 0x3dc4cf693edc2c7aU,
  0xbecb8fa4bddc324eU, 0xbe2455d93e13afefU, 0x3e934365be5f113dU, 0xbdbae74fbe3b61fbU,
  0xbdace09cbdec1b32U, 0xbe83eff83e1891b7U, 0x3cea056f3ccd7b7fU, 0xbde1c407bde4213dU,
  0xbe2be67abe391ee3U, 0x3e846c7c3db96fb5U, 0x3c1c3dc9bd34342dU, 0x3cfeb85fbe0d9ae0U,
  0xbedb735d3e67d389U, 0x3d9fc45fbdf3a6a0U, 0x3ec465a43dcd30d1U, 0x3ec0a9273ef07882U,
  0xbe5a7e01be421f8cU, 0xbde69763bdf88faeU, 0xbe15e3663ea144e5U, 0x3e70b209bdc3f106U,
  0x3e289b3a3e71995cU, 0xbe265fc93e32bffcU, 0x3ee5f918bd9de095U, 0xbdfe0979bd2988daU,
  0xbe4081893d8ddedfU, 0xbe66f3ae3cb1d239U, 0xbec3a85a3e678964U, 0xba0af654bf1dd8bcU,
  0xbe4f52f4be19391dU, 0xbeb6b9513cee0e89U, 0xbdf139e1bdfbbdf1U, 0xbe3476a03f01a1e7U,
  0xbf1fbdd8bed0f2bcU, 0xbe9c85a53d40403fU, 0x3f2247123d342cb4U, 0x3d5646263e3d4fc2U,
  0xbe086d1ebe2f72bdU, 0x3e114dc5bd9d4b3eU, 0x3eab0b153e92fea0U, 0x3e4c1c543da71fe4U,
  0x3e11a5ebbea86e10U, 0xbc1f8ce3be261d82U, 0xbd675b4f3ea9df3fU, 0xbec220703e9ae947U,
  0xbe5e2cd63db3bfaaU, 0x3e5eab1a3e8bad46U, 0x3f03f8393e8b7c2fU, 0xbe4749c93ebfc91dU,
  0xbebd63393e1adc9dU, 0x3d89571cbe393310U, 0xbe15120f3c0e2364U, 0xbe7a882cbd2b59bbU,
  0xbe50709ebec46b2dU, 0x3ece2a833dec339bU, 0x3e2ee3723daaf302U, 0xbd1691c3bee6b1a7U,
  0x3e029f48be007a8bU, 0x3dd5e37f3e03fc1bU, 0x3f0f8a9cbe4c220dU, 0xbea849d6bdd3af45U,
  0xbecbaecc3ecc7dfcU, 0xbdfb27503d0e64bcU, 0x3ee399b43f4a17c1U, 0x3dd164f13f246093U,
  0xbe6753efbe5938f4U, 0x3e865b0ebeba5150U, 0xbe2c7b783ee8b23bU, 0xbe459fa33e2a48b9U,
  0xbe0917dcbe1c86d2U, 0x3d8fa53b3c1b89bfU, 0x3e2d011a3e9a3f3dU, 0x3d6217b3bec87e49U,
  0x3ec83a84bb28af9bU, 0xbf11f0e73e85fdd2U, 0x3d26b524be6fbab1U, 0xbdaa359ebeaa1a91U,
  0xbc0f2990be2c5569U, 0x3e50c941be46f92aU, 0x3db435fb3e011518U, 0xbe1e16e4bec66cfbU,
  0xbd9e6b0dbe002706U, 0x3e6b58f7bd26cd10U, 0x3edc73b23e64f96fU, 0x3ed87fc43cea555cU,
  0xbdadec99be2c1dbbU, 0xbf840e473dac15ccU, 0x3e6e2af2bdeac86aU, 0xbe8cbce43e7736acU,
  0xbd7888ac3ebd3dccU, 0xbe479c3ebd8d3129U, 0x3b9b4824bbe95428U, 0xbdcc48443e88b839U,
  0x3d691ef73e99bbd6U, 0x3e4f26e43e00ac7bU, 0x3d58ec73be53291eU, 0xbe92542dbcfb9898U,
  0x3e53fbb83dff1457U, 0x3e0f386f3ceb5142U, 0x3e71383f3dacc66fU, 0x3d8641edbe994e7eU,
  0xbcf432ccbd230921U, 0x3e33c3bbbc2310bbU, 0x3d00b872be5fdf64U, 0x3de1c048bdd48a86U,
  0x3eaafa16be3a0afdU, 0x3d15177bbdda550eU, 0x3c95b757bd41b83fU, 0x3d8570e93e2347f0U,
  0x3e03ed693d8bb356U, 0xbdbc8deb3dfdda0fU, 0xbe0718043ddfa7ccU, 0xbebf6c513e846650U,
  0x3e99a39dbdaa0e9cU, 0xbd8009cb3e64215eU, 0xbe07e7283ee5480fU, 0xbee8ad403d898d8bU,
  0x3e0beb3cbe1539a0U, 0x3deab2cdbd6635fbU, 0x3e5364fd3e4a250bU, 0xbeb66b16bd7d489dU,
  0xbe17c2fcbdb89bd1U, 0x3e2655b6bec1a200U, 0x3dfbf30b3f187f83U, 0xbe4704623ca98770U,
  0xbe31a10dbcae30daU, 0x3e7894e83c19240cU, 0x3ddc30b5be21b237U, 0xbdbfcb58bdb1b9b3U,
  0xbe1339da3e89af00U, 0x3d64b88c3ecf4a8aU, 0x3e26a594be613d2aU, 0xbd8e89463e3d4c32U,
  0x3e0c84343d26e974U, 0xbccf874a3edcd23aU, 0x3eb93566bdbb4d31U, 0xbf1c473dbc35526fU,
  0x3ee279bbbe8a84d0U, 0xbed3726e3dbf278cU, 0xbe145a4e3ec88164U, 0x3eab56a33e0adac1U,
  0x3e38bf58ba6a6602U, 0xbc0738943e771407U, 0x3d83645cbd2f3ad1U, 0x3d2c8d143e4ba3d0U,
  0x3e71e4073eda2aa0U, 0x3efd01ed3ed3950aU, 0x3e9050d7bd3da287U, 0xbdf90b4ebe121fb4U,
  0xbe7604613a6fea01U, 0xbdc5f1223ebe4cfeU, 0xbe80dc913e246965U, 0xbe7bd999be40fdc1U,
  0x3e9644d4be5180f8U, 0x3e1f106b3ccdffdaU, 0x3d39ef653e55f0ecU, 0x3e40c82bbdc4d96aU,
  0xbc2413e03c73622dU, 0x3de7cf4bbddbf030U, 0xbe84f5903e5bfc7fU, 0xbd09bf913d89ca21U,
  0x3e801b50bec38ed1U, 0xbcc588eabdd7838fU, 0xbea85bc93e3ededfU, 0xbd9da8af3e4a083cU,
  0x3e6246d0be836e3eU, 0x3e95b0b4be0fe69dU, 0xbdb8ee1c3dc3d866U, 0xbdaf6d0cbeb56f37U,
  0xbe45ee763d2f624aU, 0x3c61c547be7b9667U, 0x3e7d8fb4bc9eb3b3U, 0x3e81e7d5bda3b1e8U,
  0xbe152b8abdad95faU, 0x3e4e4ce43d1a096dU, 0x3f0488333e01cb28U, 0xbd19e9a33e14e67fU,
  0x3e0328613ed1ed3dU, 0xbe19fb69bdf3b640U, 0xbe2219d8bdefdbe7U, 0xbdd9accabe423e32U,
  0x3e24475b3c15cd3cU, 0xbe484f98be0b08c1U, 0x3db360243e0aba99U, 0xbee132eebc5a834bU,
  0x3e30e2fdbe05a12dU, 0x3ee9fdd33cf83fdfU, 0xbe5016b63e866841U, 0x3d275152bdc4daf9U,
  0xbe4e28153cdefd3dU, 0x3ec5bec93e677cc2U, 0x3e164c1f3d958e87U, 0x3d9ff99abd35e963U,
  0x3d467418bce2c560U, 0x3eaac69d3ebbab64U, 0xbe31e42ebc6eda61U, 0xbd2c2d0ebb914074U,
  0x3d9cfb4bbe9dfb1aU, 0xbe70cf963ede5046U, 0x3d3a0815bddbb894U, 0xbdce1127bde89f66U,
  0x3d61dadfbe8e173bU, 0x3e3b30a83e03ad43U, 0x39815859bd4134f5U, 0x3e045324bda3ec8bU,
  0x3d3ffba03e8f8d2fU, 0xbca9e5313e9eb6b9U, 0x3d80e02ebdf85927U, 0xbd9377d8bee4583dU,
  0x3e8bf0bcbec5a282U, 0xbca2466bbe4c92c4U, 0xbecb90833ebd25c2U, 0xbedcc7243e1ef7c1U,
  0x3e32e32f3d1afc44U, 0xbe4c8cac3e0b07aeU, 0x3deaa73cbe073e34U, 0xbef9df383d678080U,
  0x3db089f53ec06427U, 0xbe4d7f42bee158f8U, 0x3e9962fcbeacf9a9U, 0x3f380a3fbcb3142cU,
  0x3d75426fbe29b477U, 0x3e3ceba9bdf73d4dU, 0xbe129a3ebf27cc0aU, 0xbe325288bf14da71U,
  0xbe7baa9d3ed44252U, 0x3e7f88d83b6ef8cfU, 0x3e31c16bbeda4e71U, 0x3d9c4fbbbf12e02bU,
  0xbedbd20e3ebde17dU, 0xbf0ede243e893959U, 0xbe6903dbbe91ec15U, 0x3f108382bdf647c6U,
  0xbd05a6af3dd64bc4U, 0xbe1d04163eb3abe9U, 0xbe8842f9bebf6fb3U, 0xbea84d9d3dc4335cU,
  0xbe22c4f9be64bf19U, 0xbb142c99beb4feb1U, 0x3c988d87be58447eU, 0x3dce1446be69cdeeU,
  0xbeb870e7bc8eee12U, 0x3db1f3863e6611e1U, 0x3e2b9c29bd0b7c59U, 0xbdf4a08bbe99aa8eU,
  0x3d02028b3eaa6da4U, 0x3e434c8a3d5e0ef6U, 0x3d6cc1fbbed7a042U, 0xbe5175cd3e0ae839U,
  0xbdcd633b3ec87af4U, 0x3e994aaa3e20fbd7U, 0xbead13843e45f041U, 0xbe7775d43dacc325U,
  0xbcad3027bd981076U, 0xbe2791d5bec010f5U, 0x3dc92ab03da582beU, 0x3e19a20e3e3a0743U,
  0xbde5e64a3e565d3aU, 0xbe164b883e81eedcU, 0x3de90fecbe1b8fc1U, 0x3e8c3bc8beb50831U,
  0x3e905f833d7e4492U, 0x3cb506e53e5c5390U, 0x3e3f7f293d719bf4U, 0xbddcf4343ecc6617U,
  0x3e0c07c43ebce3a2U, 0x3e5fb1b13d05fe1bU, 0xbed834b53f31307dU, 0x3e317ea9be3f427bU,
  0x3d183ad7bd6dcf9cU, 0xbe9428df3d8e53bbU, 0x3d08072cbe890a85U, 0x3ccece1fbec9401aU,
  0xbca4bb6bbdd8cc01U, 0x3c3ab0243eb382efU, 0x3cb997e5befe9ae3U, 0x3e7417ab3dfcd966U,
  0x3dccacb3bea37802U, 0x3d94b0063e5a81c3U, 0x3e9c0b5d3e09381cU, 0xbca18af8becc6986U,
  0x3e94d431bef5ef42U, 0x3e7dacbc3dfed6c2U, 0xbe7a2bee3ee07b1cU, 0xbdb0e1813d779e5fU,
  0xbdd1c7bfbddc711dU, 0xbb34d6853e81a200U, 0x3e89d1473df6229eU, 0x3e1bf4423ea7d735U,
  0xbda1ef723da669cdU, 0x3dd226ed3eae3580U, 0xbdf7480fbd2c1a97U, 0xbc1657d1be7069aeU,
  0xbd99fe2abe52b83dU, 0x3e44d9e7bd0734afU, 0xbed69099bcbc1341U, 0xbedb1209bd6873b7U,
  0x3ebf56dcbcfa3776U, 0x3e11cebb3e8712feU, 0x3e24ac5d3cb7f308U, 0xbe9bd11cbe19da19U,
  0xbdea161f3e6ee7a5U, 0x3e1a77babe132219U, 0x3e3b49e63ecf3395U, 0x3e9db63f3d8764e5U,
  0xbd277eefbe3d0192U, 0xbe8af3e6bd004a02U, 0xbee01489be250b2bU, 0x3e4595373d953b03U,
  0x3e278dd5bc2da31eU, 0xbd30e97d3d92d9bfU, 0x3cf9d2d73d266469U, 0xbe805758be99206bU,
  0x3d338c1fbdceed3cU, 0xbed6b8e13e98d05cU, 0xbdd9495bbeaa48f1U, 0x3eaaa254be022716U,
  0x3e5eb251bd9ab26dU, 0x3e907365bb9216daU, 0xbde888e73e004e53U, 0xbd4f4bebbcc293eeU,
  0xbc9e01dbbcc66e1aU, 0xbdbe4b393e690026U, 0x3e88e5fd3de989d0U, 0x3e3a183f3e4f2333U,
  0xbd106a0a3e40527dU, 0x3ef0f894bd057f97U, 0xbe9e172b3e251c43U, 0x3da4c1f53e52b274U,
  0xbd38583bbf06d9f3U, 0x3e8b82b13e01706cU, 0xbe3499683d93a133U, 0xbe107874beba85b1U,
  0x3e99c508bd067fe0U, 0x3ec140d1bf059f5cU, 0x3c99f4363abf2861U, 0x3e38747f3e34723eU,
  0x3e512b373d536703U, 0x3d0be9f5be743317U, 0xbe106c6fbd9144f4U, 0x3dd99da73e746e85U,
  0xbd789321bdc784ecU, 0xbd8492e7bebab0faU, 0xbea3374f3e67ac62U, 0x3e318489be088699U,
  0xbbf844f3be627fadU, 0x3da06fd83cd18f2aU, 0x3e3f08e3be036b8dU, 0xbe982d5bbddbca9dU,
  0x3d878944bc637ebbU, 0xbe6ffa95be671704U, 0x3f12996f3f118135U, 0x3e8a4adbbdf897daU,
  0xbd79b7b2bde8972fU, 0x3ec3c95fbee4b31eU, 0xbdfaa3e93e730b5cU, 0xbdd8ca20bd0e6c57U,
  0xbe00f134be9185e4U, 0x3e521292be09f9feU, 0xbe81bc6e3d91172aU, 0xbe0b935cbea546ceU,
  0xbd27ed20be6e26e2U, 0xbe795e2e3dfefa68U, 0x3ebe019fbdeef0bfU, 0x3b9d1687be0b2b68U,
  0xbb4c4874bcaf0b8eU, 0x3ca758e53e3a3d8eU, 0xbe49ed023deeb3f9U, 0xbdbde449be33a267U,
  0x3cce7155bc01be07U, 0xbd87157a3e85228bU, 0xbe73a2a33d55991cU, 0xbde9fbbfbd910bc9U,
  0x3bc89c4abe6e4026U, 0xbcd572e23dbed145U, 0xbd8c442ebd393771U, 0x3e3caa16bdb2e562U,
  0xbbe75fe9be4b0608U, 0x3e17d8abbb56bcb5U, 0xbe1acaf13e6bc297U, 0x3e74314f3e3592ccU,
  0xbdf66174bde9f610U, 0x3c96b6933d4732e3U, 0x3e5dbe3b3e3fd629U, 0xbcedfdf0be532912U,
  0x3d3dda0f3e69ccbfU, 0x3d239eb53f225358U, 0xbc27a0d7be4fb22fU, 0x3ddfa24bbe8925f2U,
  0xbe2063fdbc3a06bdU, 0x3e9a233d3d0bb2e7U, 0xbe554c813ddbcaddU, 0x3d46add63e51c015U,
  0xbe4d6621be266607U, 0x3e249d8bbd1a5ad6U, 0xbd7901a53eb3335eU, 0xbd8a53473da7ad5fU,
  0xbd8d3b063d958747U, 0xbe0d037bbed27cd3U, 0xbe6f2b513e944694U, 0xbd56863b3dd96f2fU,
  0xbe0522d43e6a8b2bU, 0xbe94357d3ed9a9ccU, 0xbe46cc98be5f4b6fU, 0x3d341e353d27757eU,
  0x3db55dd9be4dcd00U, 0xbe16ed8f3db3af9bU, 0x3e41f68dbeab0541U, 0xbe40dd6cbd4a8f48U,
  0xbdda2a00bda3bc11U, 0x3e04cec6bcd67c19U, 0xbe6fee483edc17feU, 0x3e8e1a1d3df04fb2U,
  0xbd30e6c0be1377c2U, 0x3ccc6c033d919d33U, 0xbdeeb8563cd2864fU, 0xbe5e168e3cd1afd8U,
  0xbd3db653bda2cbaaU, 0xbbc4f2353eaae726U, 0xbd4e61923dc68429U, 0xbd2f949dbf0442d3U,
  0x3daf19513f041ec7U, 0xbe2f69563c4acd1cU, 0xbe3b90e03deab432U, 0x3e24c6d73ead7e3eU,
  0xbd1427683d5cd6eeU, 0x3de1e84fbd774d4fU, 0xbe8e94943ec32965U, 0x3e0821f5bdd6e38bU,
  0xbd7ff2c939c132f5U, 0xbca767cfbd77bf0fU, 0xbe1a7db3be41395fU, 0xbeb3d2623dbeedd5U,
  0xbe91a22d3d914297U, 0xbdcb7be03e665d13U, 0xbdcfc1c2be114d21U, 0xbe55d583be8e5372U,
  0xbe3a5b1f3e2d8f2bU, 0x3e42a5053d83f28bU, 0xbe74ee36bd3cd8c2U, 0xbe0be91e3d7f0115U,
  0xbe10803cbd0e9cffU, 0x3ea716453d25236eU, 0xbde050663ddcd228U, 0xbd9e52a0be23f1f8U,
  0xbde5fa823e42ceddU, 0x3dbb7052be68d641U, 0x3e54fd893e60abc6U, 0x3d0cfe863e0c58c6U,
  0xbc6891623cee21c8U, 0x3db907eebdc8e928U, 0x3d3ff6aa3e6d1d4aU, 0xbe0fd264bd3aff30U,
  0x3c85dca73dd928f0U, 0xbe2a2a8c3dfd3fbeU, 0x3b9e1d97bdff3967U, 0x3ca2f3db3de8a626U,
  0xbdd4e7c63cb8c28cU, 0x3e49dbb4bda99b25U, 0xbcc2a1b73d828d10U, 0x3e3de5cdbe962ea5U,
  0xbe1fd6c1bd436449U, 0xbdbd83673e60fa98U, 0xbcc7ee9a3df2d781U, 0xbe34beac3ec4630bU,
  0xbec2f70b3dabae74U, 0xbe1050223e305c9fU, 0x3e1c3b2fbe287372U, 0xbe25a43f3dd5ccaeU,
  0x3d7471943e2f17ceU, 0x3c4fdbd43daf428dU, 0xbe796250bdfc1bd4U, 0xbc95526d3e27f193U,
  0x3d9708b93ad6291aU, 0xbe6cfd65bd9f945dU, 0xbe5a6d933eafad29U, 0x3c01c4f23ca4fb32U,
  0xbe5cfdf6be47e430U, 0x3e74d34ebcad97a6U, 0x3e56e945bcb4c502U, 0xbd8d0ad23e8a4a09U,
  0xbe1446c6bcdb5e2fU, 0x3e6e87eebea88004U, 0xbdc4b0843d864e08U, 0xbca43c0abdf6ed79U,
  0xbdab49f13dd1a85bU, 0x3ddc4c02bc9c7038U, 0xbe003e57bdd76b57U, 0x3e025c623e15ca50U,
  0x3da886a03e6ad651U, 0xbe78a4cf3d441bd5U, 0x3e56fe573daaf790U, 0xbdb1c08d3dde9c65U,
  0xbd5f15503d0fbafdU, 0xbdeb00a8bdd9c000U, 0x3e1d58e13f17590cU, 0x3e6ace043e112286U,
  0xbdfa331cbde3da09U, 0x3e006bc6be5eeb5dU, 0xbdf2fd763eaee726U, 0xbe11984dbd8659f6U,
  0xbe3370283dad4eb0U, 0xbe0bcc0a3d0799bdU, 0x3daba4d1bea9ba31U, 0xbe2e3df9beb4f4f9U,
  0xbd7e18f93e77ce68U, 0x3c0d431ebdb59b05U, 0x3cd1d1c7be2f0ab9U, 0x3dc1e24a3c9e233eU,
  0x3d2a6e3bbe584d16U, 0x3efc85013e81b814U, 0x3a192d7a3d0656b5U, 0x3e6844a53cc91826U,
  0xbd4caaf23d91ab1fU, 0x3e705538bf0007d1U, 0xbe5b38a43ed19925U, 0x3e63a483be3c693aU,
  0xbd82dbedbeaeb85dU, 0x3ed11f143cdc154aU, 0x3e65f9f13be6e931U, 0x3eb069cabee3bf65U,
  0xbe71281b3cdb5248U, 0xbdf4930c3e434d71U, 0x3eb90892be368dacU, 0xb6c61d213eb5abceU,
  0x3d464efdbe7b8237U, 0xbf10d0393e651849U, 0x3ed68c18bf03c200U, 0x3e41ff3f3e928ae9U,
  0xbe800c83bec03e99U, 0x3ef2b5dbbe1de263U, 0x3e19fe883da67695U, 0xbc104b32beae0d56U,
  0xbe19ea59be8337b6U, 0x3e5434803db33476U, 0xbe23843cbdab1a3bU, 0x3e789561bec02012U,
  0x3d5a56f3beb6f849U, 0xbe4f9ab53e82256eU, 0xbe9ddc853d4b820dU, 0xbe3f418a3ec3b9c3U,
  0xbe355d48bea52c2fU, 0xb9e7542d3d2481c0U, 0x3efb41c5be16ff73U, 0x3de4355f3e8fe423U,
  0xbd82f21e3e3fef5cU, 0x3e60e379be022b9aU, 0xbd74a80b3e81bf28U, 0x3c8132b8bcd60b13U,
  0x3c96d9ad3e53e2e0U, 0x3e6692c93efb80abU, 0xbe33e8dabefd7060U, 0x3e959a0cbd68e6e9U,
  0xbe225846beaa7e10U, 0xbc8458edbe2539e8U, 0xbef57e57be23722bU, 0x3ea3c3d2bd2bda9cU,
  0x3dd25b31be61ee4fU, 0xbe270b013ec5f7c1U, 0x3cb9ac79bea0d931U, 0xbebb0b523e2c6722U,
  0xbd0d48febdfd9d26U, 0x3ed13902bc1c18c2U, 0x3e82b688bd5dcd33U, 0x3eb2aee7beec773bU,
  0xbd935df93ee33027U, 0x3e1161f8be55845cU, 0xbe65b6373eb57c79U, 0xbe2d63cc3cdba2deU,
  0x3d0370a73f177ce2U, 0x3ec234353a9bf442U, 0x3e2022243d106917U, 0xbe1ad4773edbdee1U,
  0xbddb97debeb550ddU, 0xbe66b09b3e911c1aU, 0xbdff74a0bdd48b13U, 0x3d660656be893ba0U,
  0xbe8a07b3be97c623U, 0x3d89e3953e476b62U, 0x3f1af1b13e5127c0U, 0x3e0736843ccd1ec8U,
  0xbe340b043eb5aac0U, 0xbe9ac13bbb624199U, 0xbde389ba3d276128U, 0x3eb3448f3e9f7b83U,
  0x3e1a386e3f15a1cbU, 0x3aea0688bd98b5e7U, 0xbdd420c53d30df31U, 0x3d84f2723ec75365U,
  0xbe709a9dbf2e9a84U, 0xbe555ebc3ea852f0U, 0x3e104cf8be32796cU, 0x3e6340e33e15703bU,
  0xbeb9bc143c0931a0U, 0xbdcd762f3d4e8148U, 0x3e837a54bf13dab9U, 0xbdebc6d3be4ddfb5U,
  0xbda920a03ee8fd2fU, 0xbe119807bec521acU, 0xbefb9976be6bf7b9U, 0x3f16eed23cc5f091U,
  0xbd627157bd44e310U, 0x3c8842d1bef9a8c1U, 0xbe8603813e976163U, 0x3d562d0e3e00337dU,
  0x3cb59858bf0dba89U, 0xbec7425b3ebbe4ddU, 0xbe93e38b3e2c586bU, 0x3e433b01bed99f96U,
  0x3dd34d69bd1c85bcU, 0xbeb683e5be18723fU, 0xbe86d48e3cd389d6U, 0x3e8096cdbe147c0fU,
  0x3dc08709bebd3349U, 0x3e01cb963d5ef1b7U, 0x3e3dd87ebcebe6fcU, 0xbea935a23df21372U,
  0x3e145f64bf0264c1U, 0x3bb3bee9be5a9ae0U, 0xbe431c3bbcccd14eU, 0xbdd207acbedbcef7U,
  0xbca68675be87edc2U, 0xbd64e0143e641229U, 0x3d93d08ebd5767e7U, 0x3e963291beef4d93U,
  0xbe94687e3e8215fcU, 0xbe15ac233e9c2cc6U, 0x3e69fdf23c60bbf3U, 0x3ed3d3633e82f353U,
  0x3d03ff15be21f7dfU, 0x3f2775cdbe2af82bU, 0x3db54c50be199cadU, 0xbeba8f0abdec3d1fU,
  0x3e8066163e801e66U, 0x3e896dd4be5cd5d2U, 0x3e6b1c30bc11472dU, 0x3de464183dbec1eeU,
  0xbda33602bed770bbU, 0x3d0e76d2bd70315eU, 0x3e6a49553ec8bcd3U, 0x3e4a4cce3ca00ce2U,
  0xbdfa95603e009302U, 0x3d6642773ec37e34U, 0x3e40a2d1bd1c7116U, 0xbe2491993e1e7d15U,
  0x3db93250be57ec5bU, 0x3a847af3bda115e4U, 0x3df55afe3dc96593U, 0x3f2dc1dfbe9cd3d0U,
  0x3e9c215e3d580cd5U, 0x3f0eef5f3da50e6eU, 0x3cab7be13e5eb47aU, 0xbbef57aebea299d5U,
  0xbe40904e3d78143aU, 0x3d54b9f2bc925754U, 0x3e163f82be9c6599U, 0x3f073ed33ea5f4e2U,
  0xbec0c8ee3dc8c91dU, 0x3ec90709bd5af0c2U, 0xbdc35e4ebe106333U, 0x3df649ec3e81d181U,
  0xbd9adea33e59a069U, 0x3e917e4cbe6bf057U, 0x3d30e91e3dc0988bU, 0x3d5994383d27cd55U,
  0x3e768f37be763a9cU, 0xbc1f9fbd3e3c0bd7U, 0xbeb90ab9be7a5995U, 0xbe84edef3e442e70U,
  0xbcc2a2cc3d60d7aeU, 0x3d54a51e3deacf3fU, 0x3dd90609bd81ceddU, 0x3ec1fa94bc40015dU,
  0xbdbc33a13eb7f030U, 0x3c9b98443da94e54U, 0xbcc9c551be7ee605U, 0x3b87b2b73ec75448U,
  0xbe38c7663e8c1262U, 0x3eec8d4abd9bdeb9U, 0xbd9d359c3d4ca4b4U, 0x3ef04fae3e4bfb2cU,
  0x3e3bc875bd2b60d5U, 0xbd6402ab3e38434bU, 0xbcf21bffbeb8cf60U, 0xbe2f70693ea1afa9U,
  0xbc40325bbd1cb7daU, 0xbdd1d0ad3d2bbb98U, 0x3d57feccbc14af4eU, 0xbd5795ab3e822546U,
  0x3d5e9b023ea1e9aaU, 0x3dbe71a1bdc17333U, 0x3e2c9e2d3e774ce2U, 0x3dba3a563dcfa8e2U,
  0xbe43ccb63e01f992U, 0x3eacafa83eecc583U, 0xbdc7ca93bd82a71dU, 0x3e0e38593e4a08e7U,
  0x3d5799a6bee89447U, 0xbcc401d6be90e44aU, 0xbeda1b08be8621c4U, 0x3d8d59c2bda78003U,
  0x3e1e1bddbcc473eaU, 0xbe5966c9bdafed0cU, 0x3e72de92bbebfb69U, 0x3eab1bf5be814ca0U,
  0xbd9540b6be839821U, 0x3e44bbc3bd41f5b9U, 0xbda91eff3e28b4a0U, 0x3d78a6a63c0709dcU,
  0x3e4bba4f3dc5890eU, 0x3e0cd3e83daba711U, 0xbe8b8c98bd5faf09U, 0x3db619503df61989U,
  0x3cae6b34bf29446dU, 0x3e6ee9a33e9813aeU, 0x3edb6421be5c6df1U, 0xbde12f673ddfea53U,
  0x3eb6b00ebe6e7639U, 0xbf217655bd57bd88U, 0x3e1e842b3eb72265U, 0x3de44ea3be960cbdU,
  0xbdfd05babe086e1cU, 0xbd217dc1bdccdb4dU, 0x3df98967bb1d792eU, 0x3dade3503eac80ecU,
  0x3e221db73e910867U, 0x3e0b473c3bb01fa7U, 0xbeba123cbe66247fU, 0xbe5011dd3dfc9459U,
  0x3d4a887e3b08531eU, 0x3ec5a67abe239600U, 0x3d7a4f0dbcad4d90U, 0x3ecbd2e1bd0751c8U,
  0x3db510a0bec5ed07U, 0xbe10c5bc3d1ddfc1U, 0x3e50b6eb3d8d191bU, 0x3e8e254d3d31e79dU,
  0x3d6689b8be11c81eU, 0x3e6f5eab3eabfbccU, 0x3c862e5f3d752a76U, 0xbe28c3e73d93839aU,
  0x3e3d8bcb3d98e38fU, 0x3d9e583a3e401d11U, 0xbe95c992bd32f8a0U, 0x3e612c9fbe9a8f36U,
  0x3c257efabe9ee924U, 0x3e11421b3d490395U, 0xbe4f4211bebd3314U, 0x3de6c401be016dc5U,
  0x3ea9a7a43e065c6dU, 0x3d5c1fbb3def1a47U, 0x3e72fda1be1134eeU, 0xbe6607c1be054cb0U,
  0x3e47ee14bde64ddcU, 0x3e11e40a3d78f57cU, 0xbe2b88cc3e246145U, 0x3d92ce643dee78c1U,
  0x3dd9a4eb3f01f031U, 0xbe6394c73d81ff56U, 0x3c132b04be3059d0U, 0xbe84604b3e8530dcU,
  0x3d483fccbefbd4f1U, 0x3e27893d3d651cf6U, 0xbdbda0cc3e98d69dU, 0xbda8b0053d4f9b70U,
  0x3de99591bd2970b3U, 0x3e8afca03d968381U, 0xbdc362d93e6bd0b6U, 0xbd261f1b3dfdd8e5U,
  0xbe5ab6a1bcb1df7fU, 0x3cba82e13ed1ab2eU, 0xbead0c163d648119U, 0x3da3eeb33e6b2707U,
  0x3d21676a3ea0dfe0U, 0xbe0780fbbe3f4c67U, 0x3ecb53893daef16dU, 0x3dfb70903c7704a2U,
  0x3ddb91dcbda735a8U, 0xbdd6e4d8be221412U, 0xbeae408d3e00068bU, 0xbe6af69abd60a4f4U,
  0x3e334e4dbed7039bU, 0x3ec77567bdf92c4fU, 0x3e57668cbe971491U, 0xbcd4a25bbed7d535U,
  0xbca44f91be914063U, 0x3e25b9283e4cc76dU, 0xbe8210953dbf4eefU, 0xbd029d813ce9dd10U,
  0x3e5dec903d026e77U, 0x3e470839be87e55eU, 0xbe9d015a3e32b62aU, 0x3ec2cf49be393271U,
  0x3d30cba73ec46fb6U, 0x3d78da56bc75166dU, 0xbea159cfbe5d4ad9U, 0xbe34b8703ec45b4eU,
  0x3c241066bd01a41dU, 0x3e7cb14d3ed88d42U, 0x3dcd58723e9d58d4U, 0x3e30e143bea49ddfU,
  0xbb9c9a72bda7ee1eU, 0xbe5069363e042798U, 0x3d7e448c3e8e615bU, 0xbd416e63bdd9303dU,
  0xbd95b52cbdf0ee6fU, 0xbe502b023ec102f1U, 0x3e1810d2bde4c7ceU, 0x3e5b9d3abd96d884U,
  0x3e538bfcbd502a5dU, 0xbdf4bedcbd232784U, 0xbe1d3d7fbdd354e4U, 0x3eb5e931be8deb28U,
  0xbc9bcb7bbc0e98c9U, 0xbd1dc1c63dd006cdU, 0x3ed21f453ec99c43U, 0xbe325cdbbe043701U,
  0x3d0cc2ffbe27213aU, 0xbe0a77623e1b4c1cU, 0xbe3b8b95bd0fff75U, 0xbdcf048ebe147958U,
  0xbded00503e26c0b3U, 0x3eacbe653d5aca6cU, 0xbdfcd4cb3e237bc5U, 0xbdf5a39f3b707886U,
  0x3bab35f2be0bea79U, 0x3e769176be6faa92U, 0xbcbd02143ec73b6dU, 0x3e0adac2be2f2129U,
  0x3daabcefbe1efb5eU, 0xbdfa4b0cbe98e45eU, 0x3e2ff3e53e94a6a0U, 0xbe556908bdd6c68fU,
  0x3e36e5763e0b694aU, 0x3d9c9ef03e06936bU, 0xbf098a5fbd728e82U, 0xbe3e8c83b9995dbbU,
  0xbd21021b3d5a02c5U, 0xbda95a80be385b29U, 0x3c29a20cbe9888d5U, 0x3e5b0e173e2677c7U,
  0xbe96280c3ce991a0U, 0x3e7252bcbe364a74U, 0x3e20144a3e80fd44U, 0x3e01b6c83e1d2ad5U,
  0xbe0436f7bdc6fd49U, 0xbe5af6683e097b74U, 0x3d2df1463cfad816U, 0xbe731350be6a0275U,
