/**
  ******************************************************************************
  * @file    network_data_params.c
  * @author  AST Embedded Analytics Research Platform
  * @date    2025-04-12T21:57:47+0800
  * @brief   AI Tool Automatic Code Generator for Embedded NN computing
  ******************************************************************************
  * Copyright (c) 2025 STMicroelectronics.
  * All rights reserved.
  *
  * This software is licensed under terms that can be found in the LICENSE file
  * in the root directory of this software component.
  * If no LICENSE file comes with this software, it is provided AS-IS.
  ******************************************************************************
  */

#include "network_data_params.h"


/**  Activations Section  ****************************************************/
ai_handle g_network_activations_table[1 + 2] = {
  AI_HANDLE_PTR(AI_MAGIC_MARKER),
  AI_HANDLE_PTR(NULL),
  AI_HANDLE_PTR(AI_MAGIC_MARKER),
};




/**  Weights Section  ********************************************************/
AI_ALIGNED(32)
const ai_u64 s_network_weights_array_u64[4933] = {
  0xbfb470d63f153018U, 0xbfa0a186bd326071U, 0x4003a00b40ad9a1eU, 0xbf1a89c4406dcb6bU,
  0xbed788683ecceedeU, 0x3f38fc703ef10323U, 0x3e160fd93fa39eb4U, 0xbf8ad8f9be96c7a8U,
  0xbe50a8653f58c325U, 0xbea357b73ee6d1dbU, 0xbf6db607bf40c51cU, 0x3fd9fe6ebf3b75cdU,
  0x3eb70cef3f9a28d3U, 0x3d29e6713fd15089U, 0x3e8bc5a63e474407U, 0x3f7f14cebd09cf6bU,
  0x3f846430bdfb3b33U, 0xc031b5ae4034a64cU, 0x3f0fef33400e5defU, 0xbd8cbe853de3f497U,
  0x3eb5ca8d3eb11b08U, 0xbf43dbaabf78d39cU, 0xbfce59ab4028c5a9U, 0x3ed8f7fcbe50df8eU,
  0xbe8e38d53cb240b2U, 0xbf9eb1b53def8788U, 0x3fa2f9df3f8cd328U, 0xbfc4aa5d3fabec6bU,
  0xbd6bb1e53ecac352U, 0xbef42fe13ebf69dcU, 0xbdd6ca773f1c531aU, 0xbe1a8ef0bf0fbea7U,
  0x3f4c21f3be32e397U, 0xbe1ac6b2c00e1419U, 0x3e2a6fef3ea14ad2U, 0x3ccca48cbea0f7acU,
  0x3f11b01dc01de474U, 0x3fbd99863f29bbc5U, 0xbe1ea61d403b5ab4U, 0xbca495293ea6f258U,
  0x3db916273e1de709U, 0x3fc04b59bec8a107U, 0xbfc058c0bf43fdffU, 0x3ea3f8dc3e5b18c2U,
  0x3ed1049fbe310d77U, 0xbf14327dbdb38e14U, 0x3f83b03c3e01de00U, 0xbf9c4620c00e5c88U,
  0x3e9a18c3bff97433U, 0x3f1f0071bdf27a88U, 0xbe02008bbd124825U, 0xbf6c2392c00d786eU,
  0xbfb6f544bfdcaff5U, 0xbf55ff64bf7e81ecU, 0x3f1a21963e2623a6U, 0x3e5ce3b5bd7678b6U,
  0x3edbb0b23ec88787U, 0x3f175e143ea52a2cU, 0x3e1300d640dcb5acU, 0x3ea01cbfbe9da251U,
  0xbfe5f02abe5d06b3U, 0xbebc3fd43fa08261U, 0xbf9c6c0fbe24f67bU, 0xbe0992923e7888e3U,
  0x3eba8e52bf676795U, 0x3e22e2333ebe9d9cU, 0x3f0924253eed4559U, 0x406c3647c00dc454U,
  0xbf763dc5bee0bd80U, 0xbd4f8c583ef26c7dU, 0xbf90667a3e8e3c04U, 0x3ee17d05bd54e042U,
  0xc06eeca8c03ca35cU, 0xbed9598dbf9c215aU, 0xbf37c16d3e8150ccU, 0x3f502964bd404577U,
  0x3e7f37203f81a771U, 0x403b82833e9899aaU, 0x3f0302f6bda4be58U, 0x3eaaf659be9bb427U,
  0x3f038805bea5fc08U, 0xbf03df2fbd97f4a2U, 0xbe6245cb3fe79a02U, 0xbe8f79b04086e705U,
  0xbe2dcab53e94659eU, 0xbeafe8e6be02cc20U, 0xbffd5e97bee520bcU, 0xc02733823f4dc5b6U,
  0xbee84764bf9cbf5aU, 0xbf59a4723f59ca12U, 0xbecb3de7bf06acb7U, 0x3ecd9fccbf80adb1U,
  0xc005382fbeb239e7U, 0x3ee2f0f14052f150U, 0x3ca6d2053cadac92U, 0xbf30c625bf0db77dU,
  0xbfab47443ef5cfb1U, 0xbe1683e4c0870283U, 0xbd054533bf89d5e7U, 0x3e4bd2cbbe91ddceU,
  0x3e9f5193bcc2b057U, 0x3fa791763f9b6a16U, 0xbeff3df83f58b307U, 0xbe901c24bfa98faaU,
  0x3e1dacda3ef996dbU, 0xbea3b47abf47dc15U, 0xbe1dac553fc00fb6U, 0x4009a6fbbf68b8b8U,
  0xbf187cd3bf8a513fU, 0xbf0ccb263f3993e5U, 0x3f4774b9bc9b77f9U, 0xbf467c943fc666f8U,
  0x4008070f407655b3U, 0xbdada73cc018f820U, 0xbc7c44163dbd2877U, 0xbf2b0eee3f1a382fU,
  0x3f7dbfd7befb09cbU, 0x3f40a992c02d7b8cU, 0xbeeb1a9740549892U, 0xbe11f70c3dbcd265U,
  0x3f64e1e3be881764U, 0xbff1a9b33d1ca094U, 0x3f6e5decbf0ee774U, 0xbea3b6464003d3ecU,
  0xbe1a06253e775743U, 0x3f569c6e3ea6bbc9U, 0x3f4e750c3c0364abU, 0x3fedc2f0c00083adU,
  0x3d57e3c54076494fU, 0x3e93fbc53e7fd30cU, 0xbf77e9b0bf07752aU, 0x3f329b79bfdb792aU,
  0xbfc0e5e1408595eeU, 0x3e928c883ffcec91U, 0xbda8aea03dcc1fefU, 0xc006315b3f302a25U,
  0xc00b93d63f94e66aU, 0x3f26c7f23f1698a7U, 0x3d7f93743e81d1d2U, 0x3ca8421bbdbd2928U,
  0x3dfd6f0abfa2230eU, 0x3e7c770cc00ec32cU, 0xbe207ef9bfc0f926U, 0x3eb9f3c9bf335d0eU,
  0x3ed54b31bef24f4eU, 0xbf257d1abe6167f6U, 0xbea752cb3ec8d2e2U, 0xbf1ced204046dc7aU,
  0xbe54ea174029391aU, 0xbdcaeb0d3e3da817U, 0xbea5e37cbdc5b0ceU, 0x3f440b503d4dab8eU,
  0x3f5a4c3640446b2bU, 0x3d353ed3c0306463U, 0xbefc3ffb3e153bf9U, 0x3f2e572dbf330976U,
  0xbeecf607c0420743U, 0xbfd0f6f8bf893522U, 0xbd023117bf4950f4U, 0xbda2010dbcb61bbbU,
  0xbfbcbd4e3eecd794U, 0xbf8256eebf8b0682U, 0xc0122175bf8cf500U, 0xbef201adc00974d0U,
  0x3df808223e968713U, 0xbf9055dcbeb4ce04U, 0x3e6080c73fc9be38U, 0xbf8bf743407d1eb2U,
  0x3e873b18be5f6000U, 0xbe7df1df3e05018bU, 0x3f218b113d99ee68U, 0x3f2bead8bfcae825U,
  0x3fd78e303ea88317U, 0xbdad84013f87a794U, 0x3d55bb8f3dff0a4bU, 0xbf6fdc153c065a1eU,
  0x3f706172bfbad5bbU, 0xbf75b6e7c021ab6eU, 0xbf148673bf550f5dU, 0xbe8c3eb53e81b321U,
  0xbe721511bf8653b0U, 0xbf5e1913bf0d25b1U, 0x3ec495c13e3a6185U, 0x3e41311cc01df9b3U,
  0x3da9baf2bec99380U, 0xbf1a17df3eb4c26dU, 0xbea5d78e3f72e1bbU, 0x40394d6240f6bc82U,
  0x3f1f3ba53fb3b2c9U, 0xbecdf4e73e8a2916U, 0x3f345e0dbebd77a5U, 0xbf1562ecbf9a98d8U,
  0xc063e76f3f5caae9U, 0x3eae53a73f7a372eU, 0x3f118f9dbf07e39dU, 0x3ef753203ec538ffU,
  0xbeaf591cbdc231f8U, 0xc03c68353e80d187U, 0x3ee6ab1e400e6371U, 0x3d0db5d9be267ad2U,
  0x3f993e18beffb3a2U, 0x3d2810da3e41cabfU, 0xbf4dd131403423c8U, 0x3ebbc7da3f5f43aeU,
  0xbe4bda39bdeae20fU, 0xbf877026bee14983U, 0x3de13b18bf9b12b9U, 0xbfa0ec863f8258d4U,
  0x3f44547b4063adc9U, 0x3f5e740bbf2c2e9bU, 0x3f26537b3e5db164U, 0x3f98ad6bbff9c2e9U,
  0x402c3dc0bf4b7d56U, 0xbdf8e424c05c65d1U, 0x3e945444bd36b2a0U, 0xbd591fe73e660d55U,
  0xbf9f91893f9f7e70U, 0xbf664f03403e404eU, 0xbdc1dfb6401bfa87U, 0x3f39bd3bbe4fe087U,
  0x3e1d17ed3e52abc5U, 0xbd0ec466bf1ddcf3U, 0xc03d84e43f21ee0aU, 0x3e61bd6b3fbd4184U,
  0xbcb977cd3eef8c86U, 0xbe02aa6ebf80a42eU, 0x3f955ef9bf9a041cU, 0xc028ed3640568873U,
  0x3f1b09384011f0f4U, 0x3f1c3d03bf38aecfU, 0x3ebd448bbddec085U, 0x3f6c6498bd986069U,
  0x3f4560d5c0540a3eU, 0xbf2058a3c07a8148U, 0xbe817fcf3eee7024U, 0xbfb41b95bd72514dU,
  0xc01cefcdbe5683ddU, 0x3fa77fd8400d8ff0U, 0x3efa72593fc787caU, 0xbb965e84bf33d7d6U,
  0xbe9a5980be1f58a2U, 0xbe0f1bd5bf501af9U, 0x3fdc4775bfb7c792U, 0xbe3b30e5bf46dfcaU,
  0x3ec333e4be014dc4U, 0x401426dabdbee302U, 0x3e96076f3f097613U, 0x3f977897bfda966eU,
  0xbe27bd86bfba80b8U, 0xbc04a6b93e6cb901U, 0xbf57635d3e8d93beU, 0xbdb2101cbfcc344cU,
  0xc0a9f6f2bfa3bf52U, 0xbe91d7453f9a8be2U, 0xbed42e89bee56861U, 0xbf441d96bf3f6bbcU,
  0xbecf60343f45d02bU, 0xbfd3b3ab400787b0U, 0xbe2706dd3fbf6759U, 0xbd4412c4bca0b3a9U,
  0x3f317039bec80846U, 0x3f9481723ee2e8c9U, 0x3ff1358b405eeb67U, 0x3f3a55ef40771e69U,
  0x3f7183d7bf6dccbcU, 0x3efd8e64bc1f657bU, 0x3f955997bfda7c6eU, 0xbe88a211c0223da1U,
  0xbeb213443e1aa906U, 0xbd1fd2aa3de03b06U, 0x3f6b10b43e31296aU, 0xbf2f871d3f93accbU,
  0x3f214b9440735997U, 0x3d1940db3fcad824U, 0x3e2e94b53dcba717U, 0xbefbed4d3e1465dcU,
  0xbdd872d2be56bb64U, 0xc069fea8c0131a58U, 0x3d8c71c0bfacad8cU, 0x3e8dcb0e3ed49f41U,
  0x3dabec7e3e753e7cU, 0x3fa7cada3d3703a0U, 0x3f81bc89bf3e1546U, 0xbe833e263fd7346aU,
  0xbf142be43efff36aU, 0xbb5114a93efdb6a4U, 0x3f10c08e3ecaba3eU, 0x404dbdc4bf893960U,
  0x3e37b6a1406bba1dU, 0x3f02b136bf0e339aU, 0x3f18824abf47425aU, 0x3f604d19bf02011cU,
  0x3e9de06bc001e397U, 0xbe96673e3f8bab90U, 0xbeab8c093ed709ecU, 0x3f4ace903e415326U,
  0x3cb0fe37bfbcb229U, 0x3f0a08713f185285U, 0x3ebe63a24025b67eU, 0x3d60972bbd86f2ddU,
  0x3f106e243ec50bf9U, 0xbef9f1513f965966U, 0xbda3d26d3f3e0cd8U, 0xbf1e1ebec0008ca5U,
  0xbf63a4e7be1013cbU, 0xbed90d91bf975885U, 0xbeefc5c33ed762d2U, 0xbf9f261bbf0eed90U,
  0xbdeda733c00cf87eU, 0xbdfd20ff3e45427cU, 0xbe184fbfbebfdcc0U, 0x3f95ef0e3d833c4bU,
  0x4009250d3fd32087U, 0xbf3b546dc0323bc1U, 0xbf090ed53ea8be4cU, 0x3d54e2c43da9dbecU,
  0xbfe463cf3f9f92e9U, 0x3ffa9e693f012e16U, 0x3d75af62c01cca8bU, 0x3d5b6e7c3e6464cdU,
  0x401b50893e09fcd1U, 0xbe3b07f7bf2cf74cU, 0x400fc5263f7661cbU, 0x3df3b120bebf21d3U,
  0xbececedf3ecd1c51U, 0xbfd6886fbeb90301U, 0xbf828c363e839363U, 0xbd4b9f9e3ffc9153U,
  0xbe373458bd9c608cU, 0xbef943dd3dc87e32U, 0xbdb3d977bd955dedU, 0xbf367ccd3f284557U,
  0x3f0dc76c3fe3ac8dU, 0xbe52f12ec0016e37U, 0xbf1ab0503d84d3b5U, 0x3fd2233bbe541fe6U,
  0xbeae6482bf501e7cU, 0xc022cd503fbc1483U, 0x3efd1970bfe681d1U, 0xbf0509e13d89884eU,
  0xc009e6033e4a8c86U, 0x3f8978d13ed9da4eU, 0x3f07a962c088f9bdU, 0xbdfc680d3fb8f76aU,
  0x3e98506abf0cc115U, 0xbff0e7e33e339a48U, 0xbf19b7e03fbc450aU, 0x406d97c1bf2737c0U,
  0xbc34eb5bbdbe93bcU, 0x3f015201bf827ed7U, 0xbcaf03bd3f11a42aU, 0x3f07998f3edafa64U,
  0x4040705ebf44857aU, 0xbe25c54a3f9bc6a3U, 0xbe6d9b5a3e934426U, 0xbed70ae7be66fedcU,
  0x3fb2e03cc0127d24U, 0x3f789785c01446fdU, 0x3e97c72cbfa68377U, 0x3e08fc543eef8496U,
  0xbf2cd1bd3f055812U, 0x3f9f8964bd576103U, 0x4006ee62400abd37U, 0xbec44817c0289d0eU,
  0xbf1cb84d3f0a49f6U, 0xbb5cc5f53e8e99bdU, 0xbf4e0324beea67e1U, 0xbcc820a1404c2e26U,
  0xbf111f4a3f0bc3bcU, 0xbedfc4bf3f03ad2cU, 0xbf81bf63be250195U, 0xbf3a837f3fba42deU,
  0xc0896b34bf90fc1fU, 0xbeb47bee3d8cb768U, 0xbf19e6813f80f7e1U, 0x3feb85aebe94a184U,
  0xbe15ac473f81c769U, 0x3fd33f18bf300f74U, 0xbec5e55cbf1664c2U, 0xbf0bde4e3f05b227U,
  0x3f9472663dee1010U, 0x3e4eabd33edf0198U, 0x3fdc79a5bf52b639U, 0xbc388e4abfe19827U,
  0xbeb60be7be9e7cc0U, 0xbf8a6cbe3e86bbd4U, 0xbfa7cbc9c0081263U, 0xbffc69f23f646040U,
  0xbf1568e23fd59589U, 0xbf0200e03f3df3fdU, 0x3ff397f1bf232c02U, 0x3ed431b7bed5723dU,
  0x3f1a2680c092e87aU, 0xbe9fe5c0bf2fac37U, 0xbe5da8fb3eb12d6bU, 0x3fb2abfabf781486U,
  0xbebf54853fc27dd3U, 0xbfd6a416bfd3c900U, 0xbeba13073fbceffaU, 0xbe5ff5b33e894e9cU,
  0x3f09f81cbe91852aU, 0xbfd43a9c3f24d2c3U, 0x3efe49febfa621f0U, 0x3dc7730fbfea7b01U,
  0xbe1997193c9424dcU, 0xbea8ed67be7ddc84U, 0xbf74fd51be932ad4U, 0xbe97f2f93fb2b91dU,
  0xbdb28e7140a16f6eU, 0xbc85f3a8bc92ce23U, 0x3f430283be3b92f7U, 0x3d00f6be401131a4U,
  0x3f97c43ebee43c2eU, 0x3daf2401bf5de1caU, 0xbd1ff44a3e82134cU, 0x3eecd0d73cdd42e8U,
  0x3db1a0083f78e75eU, 0x3eec8d79bf9b3713U, 0x3de0ec4cc009b112U, 0xbe8f3064beb29f48U,
  0x3eebc6983e25f5baU, 0x3f38f09bbf906c63U, 0xc00b0e3e3f68a77eU, 0x3e8993af402366daU,
  0xbf3c778a3eaafd34U, 0xbf0701103df7937eU, 0xbf8a575b3dae189eU, 0x3f08f3623fa8a32aU,
  0x3d92bc8cbebcce1eU, 0x3d0541e13ef79ec0U, 0xbf000b8abf31b4d3U, 0xbff786b9bdbdacabU,
  0x3f27b73abfec425bU, 0xbf1cf64abefbc131U, 0xbf1aabbf3f26125bU, 0x3f19778abdad0913U,
  0x3ea2c70c3f497e5fU, 0x4017e0984023adcaU, 0x3f36ecb63f26c395U, 0x3eaa2435bf268ddbU,
  0x3e5889d5be9fb074U, 0x3f42a9d23ffaacd4U, 0x4002dc7fc08fe5adU, 0xbf0e65ecbfd23236U,
  0xbeed1e2e3ec43c32U, 0xbf2a9740bf1e2ee9U, 0x3dfcc90c3f0f5b9aU, 0xc0368c7ebe4c1cdeU,
  0xbea9d11b3e65a665U, 0xbe41e9603ea3150aU, 0x3fa9f1cbbe05fa89U, 0x3fae45303d8a673fU,
  0x3d5016aebfaf75abU, 0xbe346ab5c00bf810U, 0x3e4ed0c53ecd0f25U, 0x3ebf35ef3f42ac56U,
  0xbe9cf8afbf17a5efU, 0x40180113bf7c2078U, 0x3c79504bbff0094dU, 0x3edc2b523eba275fU,
  0x3f4d3b5abd420017U, 0x3fc30a59bf131a50U, 0xbf2d2f56bf8b71a6U, 0xbead44a23ee4bf4fU,
  0xbea99e323eb8b1e9U, 0xbd43b7703f17de79U, 0x3f4cdf0c3eb2c3b5U, 0x3f7ee3313f527b44U,
  0x3e0e5024c083348fU, 0x3e83b5d6be74c89fU, 0xbfae43edbe58d818U, 0xbd9283d83f08e056U,
  0xbfe45210407ae02dU, 0xbd400c24c053a037U, 0xbd6f8bdbbe5b86d6U, 0x3fc7d8ffbe76acc7U,
  0x3f3745063e6a0987U, 0xc00248a9bffee51fU, 0xbd72714bc042482bU, 0xbf4fe3efbe1eeab4U,
  0x3f3d803dbe4e70fcU, 0x3cbcfde1bfb43953U, 0x3f79d959c002bbb4U, 0x3d2de17d3f9d0311U,
  0xbe198c7dbec08208U, 0x3e9dcdf33ef34afcU, 0x3e8b81123ee75efaU, 0xc031dc643fdc9e9aU,
  0x3f19104d3f004ef6U, 0xbebe5af03e5b4a03U, 0x3ea0ecc63ee30a6aU, 0x3e4670ec3f0f8886U,
  0x3ebf9eca40c234b0U, 0x3f8509e1406bc8c5U, 0xbe185ed03c50f592U, 0xbe40e51bbcc660c2U,
  0xbf298efe3eaa37f4U, 0x3fcbb283c04f7c5aU, 0xbe20f41bc0909ac1U, 0xbe8668253ea89687U,
  0x3e996d8d3f40b9c0U, 0x3f43abbebfccf016U, 0x405307463ddeacefU, 0xbf1913f1bfe48e19U,
  0xbe692e763f060747U, 0xbf1e56eabe35a39fU, 0xbfb2e5c2bfd49e1dU, 0x3fb87407bec6bc7bU,
  0xbe860de4bfce9faeU, 0xbf10e85d3f351ddbU, 0xbf1a806f3f296ba2U, 0x3ef8b0123f2a43b1U,
  0xbf739d983fe36f5eU, 0x3eb7c8f0bf61652fU, 0xbc5bb1f03da66d98U, 0xbf7311093d4995a7U,
  0xbf7d4bc73f688157U, 0xbf9debc3c061a6fdU, 0xbe76b7473d9e8fb1U, 0xbe68ef40bf64fee3U,
  0xbd3ec8d3bec2e4e0U, 0xbfbc8ab2bdb6b4fcU, 0xc06b6237bebb9e12U, 0xbe6e6d05c0610746U,
  0xbe20b3eebf252836U, 0xbf06e8103e38a555U, 0xbf5502dabf04ce46U, 0x400aea3a4005be6bU,
  0x3d3e53234060712fU, 0x3cb9a1863e853145U, 0xbf29047c3ecd88f4U, 0xbdf33126c0010471U,
  0x3e8b38823fb0b62aU, 0xbed1dc04bf381151U, 0xbf0ebfd33e64ee0cU, 0x3fcb70c2be124540U,
  0xc007cfd73fa8ea53U, 0xbfbcd2cdc02b6c0dU, 0xbf2323a1bf99f8f6U, 0xbfb9c7783f73ac34U,
  0xbed2fd0abe06f508U, 0xbfed1320bebcd9d9U, 0xbf57e5a4bf4fd5afU, 0xbe5eef96c0629a68U,
  0x3e38c62ebf15804bU, 0xbebb47b0bef6efaeU, 0xbe561065bec05d3eU, 0x401672af3fcc826cU,
  0xbf1fb2a8407adff4U, 0xbc14f8de3c0376b4U, 0xbf76fcfc3e7209c2U, 0x3f9d83ed3f572d3aU,
  0x401879273f860546U, 0xbefc77ec3e01f609U, 0xbec881a53f08d995U, 0xbc748316bffd56ecU,
  0xbeb63bb43f346b06U, 0x4004b5c84038d29bU, 0xbefc59b0bfddfbf9U, 0xbef724e63f0abef0U,
  0xbe89c0883e8abc85U, 0x3f1a4f17bee509a9U, 0x401c1fb440763147U, 0xbee17dd7bf7cdde7U,
  0xbf39034c3ec335a3U, 0x3f48f6e73f3fe3feU, 0xbfc3a4ef3f1104e6U, 0xc0333708bf6a6814U,
  0x3db4ec88bf1fc8ecU, 0xbeeb64573e8ddcbfU, 0xbf51c000bd3ebe73U, 0x3e11e3b13e61182cU,
  0x3fe968abc0b2d6cbU, 0xbf06a68e402d4aa9U, 0xbe24bab83ec3091cU, 0x3f9f0bc83eb4600bU,
  0x3f39ec3d3fe13954U, 0x3edb6e18c056e89aU, 0xbeee0a7f3f166da4U, 0xbe958b8cbe20356dU,
  0x3ff799febe4c7bf5U, 0x3f8fb09cbed6109bU, 0x3f30d2ce3f8816e3U, 0x3f3e0c84bf1a8457U,
  0x3d1f8d15beb1f5a3U, 0x3f00b898be617768U, 0x3eab1ecb3fa34884U, 0xbfc2f8a73fa7a1c6U,
  0xbe3486c2bf18fb22U, 0xbe1cc3e8bd72819aU, 0xbfdcae233eca51e1U, 0xbfb4ee3bbf8a1665U,
  0xc08f1635bdac7475U, 0xbede6d7c3e7caf96U, 0x3f14b7873eb0817dU, 0xc00cbbccbf4fd610U,
  0xbf4bc5bb3e149c28U, 0x3fe907b7bf8665e5U, 0x3e8ea7aabfc74f62U, 0x3ecefb22be798807U,
  0xbf1ba3cebf079058U, 0x3e4bafcdbfdb4210U, 0x406e37fdbfb4b0daU, 0x3d53cee9be4082caU,
  0xbcfcf974bc8d4819U, 0xc0053adabeacca07U, 0x3f2f81233f5adbb4U, 0x3f8586eabf9188d6U,
  0xbecdeb083e18150aU, 0xbde8d20d3ece4167U, 0x3ebe18aabe86ce40U, 0x3dc7141a3e0604bbU,
  0xbca0a04240b82469U, 0x3f0985784098ff80U, 0xbf030ec83ea245a6U, 0xbf60a8a83cc096d8U,
  0x3e2cf6663d834900U, 0xbfa64cfec0e735bbU, 0xbfc0970a3fe52947U, 0xbf817f8c3e26fd1aU,
  0xc00a6a04bf66e222U, 0x3f92c03e3f002986U, 0x403af84abe00037eU, 0x3e5c2bdf3f1d21f7U,
  0x3e75c6b0bdd12010U, 0xbf5718853e39a1cbU, 0x3f83be45beb63ff9U, 0x3f1b8c463f9f6a62U,
  0x3e21ed0bbec3fe94U, 0xbedb7eb1beac9425U, 0xbf6ef4ad3e39d28dU, 0xbd8dc887bf47c4e2U,
  0xbe037bccc0808f01U, 0x3ee3e6d5c0201c7cU, 0xbd74e7d4bed5893cU, 0xc017a5d33e7d4b66U,
  0xbf9ae988bdfa5750U, 0x3fd2e1773fa26e46U, 0x3d8692663fc966acU, 0x3e2ea8383e53d348U,
  0xbc39b8c2bec71174U, 0x3d7cc1953ed08283U, 0xbe8a35e1bd8c6e89U, 0xbe04abc33cbc0f05U,
  0x3e974fed3d7747dcU, 0x3cca7b453e837aeaU, 0xbe8d8fbf3ed1e105U, 0x3df34694bddeb358U,
  0x3eed36cc3e8b91d3U, 0x3f1b5f783f1c3071U, 0xbe7f904b3df3039dU, 0xbef614333b898e6eU,
  0xbe1c138d3e911857U, 0xbe71abda3f1dad82U, 0x3eba3a2f3f3a3309U, 0x3dd80fcf3dc2ff70U,
  0x3eb72589be066a70U, 0x3e86d968bc47277dU, 0xbe89b4b13f4947e4U, 0xbdaa34733ecffce1U,
  0x3d92088e3f17e71eU, 0xbd51e6123a9c56f2U, 0x3ce273bb3d36e3f2U, 0x3dde1fdd3e61e522U,
  0x3e1d5c563e8593d0U, 0x3ee26926be079258U, 0x3e121c543e80b88bU, 0x3e545cc3bd5f6786U,
  0xbd74f1aebc338666U, 0x3c80aebebe67ac32U, 0x3a8121e9bd4a3b70U, 0xbeb1276b3e1e3dfbU,
  0x3eea6e40be129cbeU, 0x3e5159593ee09831U, 0xbcf76e63be028233U, 0x3e8557483ba50bddU,
  0x3e7422bebf05de65U, 0x3e46dfe63e654c30U, 0xbeb59f273d8d953fU, 0x3e8f2ddd3e965020U,
  0x3eafa3133ebaa99fU, 0xbd02fc703e2777e0U, 0x3e479941bb92776eU, 0x3e4adebe3f2f5111U,
  0x3ee1d1f3be2b5eafU, 0x3e8f7ada3d6570e2U, 0xbe32b342bdf94a53U, 0x3ec16ea23d7bcd9bU,
  0xbebc00a23e6c36f5U, 0xbcf71af0bdacc06cU, 0x3eb257c53c3bd46fU, 0x3e19019bbe2293afU,
  0xbf04b20a3f353a61U, 0x3ee97f10bba0493aU, 0x3f3d82883e9f6aabU, 0x3f4c98e1bec68324U,
  0xbdbf290dbbc4a57dU, 0xbebfad843d368617U, 0x3ede41763eb6b11bU, 0xbe1fa741be9e6095U,
  0x3f1f7f703ee4e2c4U, 0xbd0005583e846ee9U, 0x3d31ac72be4d21e2U, 0xbeb21442bc896900U,
  0x3cd0a0023d155657U, 0x3e67f4fd3ebab26bU, 0x3ed0fef73f0939d0U, 0x3e7ff65d3d76641cU,
  0xbf3925073eaeaaeaU, 0xbe5496393d9723cdU, 0xbffadac5be46ad60U, 0x3f0b34313cf81433U,
  0xbc47db8e3e6c4903U, 0x3f54cb643e5fa3cdU, 0x3fdeafe33e3b6000U, 0x3f9c4696bfaa0e6bU,
  0xbd521a88bea46290U, 0xbd827d5d3f2d63adU, 0x3e767c54be696efcU, 0x3dec21cb3e93b0acU,
  0x3cbd955d3d335051U, 0x3f19d2c43efd19caU, 0xbf073dd73cd84ff0U, 0x3eeb2decbebcb117U,
  0xbcff5fd7be963956U, 0xbf1b3b773f376c29U, 0xbec53d6f3e370becU, 0xbf817685bfc6b1beU,
  0xbf09a7823c33ecedU, 0x3f4b725c3f8cef99U, 0x3f2abb36be8b901fU, 0x3dcd2e0fbfb91e2eU,
  0xbdb6d5ee3d88e8eeU, 0xbef9a110beb34420U, 0xbf7726b1bf167a65U, 0x3f5ef154be1b0426U,
  0xbda488e93eb4dc9cU, 0x3decaa323ea9e2baU, 0xbec24635bd43c69eU, 0x3eba673f3ef03befU,
  0x3ea23da43f945504U, 0x3f9b8b143dec8b6cU, 0x3e8b59f33e567947U, 0xbf03b9f0bf990632U,
  0x3f3145ef3ea0d897U, 0x3ec067c6becf7ec8U, 0xbc0f220d3f013ffbU, 0x3c8a33513f349d2eU,
  0xbf04710b3f98f86dU, 0x3f09952ebe9389ddU, 0x3eca5f22bf4e4805U, 0xbe87db263e3c33d9U,
  0x3e7e69d73e3eef14U, 0xbf8816ce3ef7c60eU, 0x3f464b043e5c2ebfU, 0xbd89ffc93df686f5U,
  0x3f2b5d723eaa7917U, 0xbeaeae7f3f3c91a3U, 0x3ee9d66cbefe6af4U, 0x3ee80abfbea214e2U,
  0xbbc7ade33f4ae14dU, 0xbf3fe7693f950d2bU, 0xbf80cb733e95addfU, 0x3f1852f63f0be285U,
  0x3e354d863dcdeb06U, 0x3f392fd13f30326eU, 0x3f63718d3ea301d0U, 0x3e23d2783ec5f026U,
  0x3e8924263ec5eaafU, 0xbf5ef252bedf7e5dU, 0xbf49f7743f1132feU, 0x3da5d04ebe463ff9U,
  0xbe53e630bf85f2aeU, 0xbee991ff3e9a37bfU, 0x3f3e719c3e260864U, 0xbea3b480bf55fe89U,
  0x3e0d44d33f6b9d76U, 0x3f15d235bf8e7943U, 0x3f4d3f9b3db5979fU, 0x3f3926cebd5f6efaU,
  0x3dd950343f488b64U, 0x3edc654f3dd9d84bU, 0x3ec73be93c3a083fU, 0x3ee3139abfd32411U,
  0x3e0094c13e70b896U, 0x3e57bacd3f36e412U, 0xbf0617dd3e3fa14eU, 0xbf1e8941bef8fe0cU,
  0x3f09c19d3f384221U, 0x3f1985183e9fdbbeU, 0xbf36ead3bf5725dfU, 0x3e9646bebf95490cU,
  0x3ea1427dbf489f4dU, 0x3f5c83713e34459fU, 0x3ee723f53d1f16b1U, 0xbd1bd2b03f0f8270U,
  0x3f4c70213ef6a7d7U, 0xbee96271bedf2474U, 0x3db099e3bc90ccf6U, 0x3cc84a5abf3464a3U,
  0xbf001b553e72f5f7U, 0xbf495b2a3d578e38U, 0xbf001f9dbf615c32U, 0xbe5a82d73e83ebe9U,
  0x3eaa28463e8baea2U, 0x3e8604f93e033e15U, 0xbf98249d3ed514c6U, 0x3f8657d53db9bedbU,
  0x3c8961cbbf5be624U, 0xbea50cd83f1e4816U, 0x3e6dcabcbe175fb7U, 0xbe451f853f1703d4U,
  0x3ef557c1bf91cd7bU, 0x3e80feac3ea11bdbU, 0xbd3c85763ea350f0U, 0xbe2abbec3ecbf562U,
  0xbed418593e83ddfbU, 0xbdf8542fbecc6e8dU, 0xbe6498ca3f9e31b2U, 0xbf37a6cebec4895eU,
  0x3eed7f21bf1529feU, 0xbe59d9e3be8d8b3fU, 0x3f21e0b5be01a826U, 0xbe0fa0af3e34c968U,
  0x3e26b69d3f21a514U, 0x3f1a9cb2bf8eb2adU, 0x3f23f33c3dc15154U, 0xbf93cd893f394294U,
  0xbdbed640bf561939U, 0x3d77cf3d3e811239U, 0x3f3f283ebf51a440U, 0xbec3847dbfbb39e4U,
  0xbea20ff5bfce133cU, 0x3d969145bdaa1f70U, 0xbeadfab43e961841U, 0xbe5449bb3e6cdb42U,
  0x3f13317d3e5dca6cU, 0x3eea4ca3be9229aeU, 0x3f933e0dbed1d168U, 0xbe9f5be5bee984b2U,
  0xbf554b143e89cdffU, 0x3ef387443e2923bfU, 0x3ea757d23f372d8bU, 0xbf36f0c43f19feb1U,
  0xbe4e873fc00889b8U, 0xbecbf1b83ee474d1U, 0xbf040179bd493702U, 0x3d9ca75f3ee56085U,
  0xbf055846be7228beU, 0xbbf2ff573d144073U, 0xbfc34d3cbe181deaU, 0x3ddf65393f1693a8U,
  0xbe4ddd063ec66779U, 0xbf30ba083ec5b780U, 0x3e40bb473eac5c30U, 0xbf843ea73eb2223bU,
  0x3e8328eb3e8dda64U, 0xbf88ea473edb6164U, 0x3f20b8433e1b0e59U, 0x3e807926bd6a1eafU,
  0xbfe669283d992140U, 0x3e99e4c63efdfb0aU, 0x3f2df526bf19c689U, 0xbe59d57b3e39216cU,
  0xbedf87783f24cfbdU, 0x3f3a9ecd3e583ecfU, 0xbec6a8fd3ecd944cU, 0xbd0d2229be8617adU,
  0xbec05c0dbf3b053dU, 0x3f4afa9bbd7e1bafU, 0xbcaab0eb3f05bcbfU, 0xbea8d6653f30f0acU,
  0xbeec8018bf23b122U, 0x3e551501bda93ae8U, 0xbe8597053ed8ec95U, 0xbd738d343f34c5e9U,
  0x3eb93228be7af0d1U, 0xbeaab8d63ed1ede5U, 0x3e8433bf3ea4b39cU, 0x3e9e01703f8b089eU,
  0x3e1e38453e8bf3a6U, 0x3ec57bd4bf0c0f62U, 0xbf80659c3ed55117U, 0xbdfd48b9bf137f85U,
  0xbf2c3bfcbf15d584U, 0xbc14add4be8011bdU, 0x3f6ac9463e6cb591U, 0xbe14a1513dc5debeU,
  0xbf672987be7649bfU, 0x3f5bb3f63f6060d1U, 0x3eb02ea43f24f379U, 0xbc9c831c3ef20fb5U,
  0xbc9e3a283ed2aba1U, 0xbee01280be2dfee3U, 0xbe9f7c513f055b6eU, 0x3eb5ad673f39eda2U,
  0x3e7f857cbfe5030cU, 0x3f07da95be5588e3U, 0xbf4db7173eb0bbb4U, 0xbee8cc61bce438e3U,
  0xbf9014753e870e07U, 0x3db1dd87be1457ddU, 0x3de7d6babf2ee073U, 0x3f014f4bbe572514U,
  0xbeac4fdd3d73b513U, 0x3e0a4ac73eb82bfbU, 0x3f1ab1c4bf5843abU, 0xbea8f427bdc5b083U,
  0x3eaf906b3e92d899U, 0xbf4db2c6bb3a62dbU, 0x3ef0b0bb3f1aee31U, 0x3ecb7b173e0a0fbcU,
  0xbde0187abe80a8f9U, 0x3ea9596b3e91bd99U, 0xbf86dabb3f4b0b00U, 0xbb9b78c63edd2e19U,
  0x3e27933d3e1ceb0cU, 0xbfc7893a3e98ae56U, 0xbf12fc563ee3b98bU, 0xbe2a2663bfcaf9ccU,
  0x3f2a611a3dbfbbcbU, 0x3e5d63d83fc90126U, 0xbe6315dc3ef96dcdU, 0x3e18c64cbf9f4894U,
  0x3e0f66543ee7887eU, 0xbdb813583e68860cU, 0x3f376b1f3d82558cU, 0x3d80089abea7e954U,
  0xbebf5ff93ee48a0cU, 0x3f3c29d13ef9a00aU, 0xbe32701fbdd186ecU, 0x3f0be6d23d307083U,
  0x3d7d9beb3d1e5b03U, 0xbf092d62bea8ddb6U, 0xbf6350f53f3b6d52U, 0x3f1069713ee261ccU,
  0xbf0265023e63a29eU, 0x3e802991bcf75515U, 0xbe8511033f431974U, 0x3f06362a3ea832d8U,
  0x3fa17c16bf18c3b4U, 0xbd4e9a74bede2b91U, 0x3f10308bbebd9e01U, 0xbd891690bf7c645cU,
  0xbe02efa53e9a2661U, 0xbf87e6eb3e8040d7U, 0x3e47a12b3dfcdbadU, 0xbe7f40553bbdc21aU,
  0x3e6618d63ebf59e6U, 0x3eef833c3ed14cceU, 0x3ee4f794bd5b6278U, 0x3f2324b3bf28d964U,
  0xbd8d4d18bf53cdc2U, 0x3e59e6c53e9bccf8U, 0xbda65a06beb55c43U, 0x3edb2b873f04aaa9U,
  0x3d37cbcebea803a3U, 0x3f8530063eafc9d7U, 0x3e98b72f3b6303dfU, 0xbf3dec613f464b9bU,
  0x3e7efd7abedbc41cU, 0x3f18121bbe278a59U, 0x3f67c5f2bef9fca6U, 0x3ed08ac63ef4b99aU,
  0x3d242474be46a507U, 0x3fa54c9dbe03702dU, 0x3f40263e3ef75115U, 0x3f43a0dcbe9719b0U,
  0xbd5c839d3e85bbe4U, 0xbf375f683de8752aU, 0xbf0d13cc3f865828U, 0x3ed7108a3efbf294U,
  0x3f5e22ac3e5496ddU, 0xbf185b54be6ac4cfU, 0x3ef1c25bbe3e8c13U, 0x3ebdf1c7bf1196c7U,
  0xbd1543f03e0611faU, 0x3c726d44bd61af79U, 0x3f62e5d2bf3f8f38U, 0xbe0370a03e634b2dU,
  0x3f186ed83f02b65fU, 0xbe69b5debf09a6c6U, 0x3e7f95ec3ee25952U, 0x3da12be2becc8955U,
  0xbed719e2be656f80U, 0xbfe2135abf0481c3U, 0xbf0884c63f8c8136U, 0x3c76217f3f8ddcbbU,
  0x3f0b6b00be2a8ea0U, 0x3e482025be611e09U, 0x3f91caf4bd9c78e7U, 0xbf9c66b4bf5198eaU,
  0xbf63dd86bed658c7U, 0xbe1a5a76bec37466U, 0xbf17c58c3cde00b8U, 0x3e7ae98a3ea8235eU,
  0x3e9096d3bf10da45U, 0x3e842ae2be71bc3bU, 0xbea87812bf36620bU, 0x3f3f73bbbe844731U,
  0xbe5902b8be99feaaU, 0xbed2071a3dc765b7U, 0xbdf45d443e3fc46fU, 0x3d984b4cbf95a645U,
  0xbe4ff63ebf796e2dU, 0xbea56fb13ed7c06eU, 0xbfa89b253e98411cU, 0xbf2376c3bf3fc449U,
  0xbec936c3be59e352U, 0xbe5514e53f6c36c1U, 0xbe2da0053ed21998U, 0xbbe932dd3ea907a3U,
  0x3f29ad043d881cefU, 0x3d501f52be3339fdU, 0x3eac0698bddfdbeaU, 0xbec80dff3f3c23a0U,
  0xbe44e7443ead35c0U, 0x3e4fd9cbbe3def26U, 0xbcec5f2cbf0d5ef9U, 0xbe0361853f66263fU,
  0xbe9914dcbdd8f21fU, 0x3f8206c93f86143dU, 0xbea88896bf182d9bU, 0x3fddc3eb3f84b56fU,
  0x3ea0926d3e7c08acU, 0x3e9bf6f8bd3b980dU, 0x3e5af3cb3db21c7aU, 0x3ed053413d182087U,
  0xbe2694973cf53733U, 0x3f94d5c1bea36911U, 0x3c204f283f1b14fbU, 0xbeede3453e9b84e7U,
  0xbeb445893f1711bcU, 0x3df28fda3ead9174U, 0x3d44171d3e733930U, 0x3f21deedbe9699a5U,
  0x3fbe6ccabf74df49U, 0x3ef649ac3e5a468dU, 0x3c07fb6e3f100c7aU, 0xbf176ab7be19a210U,
  0xbe378e243f402940U, 0x3cfae02d3edb7b8cU, 0xbf4af31f3de1001eU, 0x3f75d837be8de815U,
  0x3e304a1b3ecb8bc6U, 0xbefd5c6fbf665d5cU, 0x3ebfeb5a3f64f7c3U, 0x3f80a9be3e064facU,
  0x3f2ade82bc0251f9U, 0xbf764ea73f47aaf7U, 0x3ebd21f93f116797U, 0x3f4a68cd3ec1f69dU,
  0x3fb3af4d3ddaedb8U, 0x3d95141abd0f1029U, 0x3e8bff72bde38b53U, 0x3f21f814be98bc00U,
  0xbe91df5abf041c13U, 0xbef55fa4bfd0757bU, 0xbf730c743b686f79U, 0xbe454b5abd4a389bU,
  0xbf83977cbf8ac026U, 0x3ef5041dbf0aed37U, 0xbe5c3bc63dabee3aU, 0xbeb07646bea3fb4bU,
  0xbfa676c5bf22dbddU, 0xc0095b0bbe949aa1U, 0x3f14b6143e904c63U, 0xbefb5c1ebd77d090U,
  0x3d48ddde3e3e1744U, 0x3bbbb3cabbc9d940U, 0xbfc4f2c63f1bd0f2U, 0x3e8646da3e1e40b2U,
  0xbf341087be9bc44dU, 0x3f0b6e163e1acfa8U, 0xbee6556b3b83734eU, 0x3ca954fdbee4f45aU,
  0x3d07bf783f423197U, 0x3f58d499be8d6077U, 0xbe8a166fbea9ebdbU, 0x3e87997abf0d8ce4U,
  0x3f8528f4bf68cb74U, 0x3ee82281be732c86U, 0xbef3d5ad3ee610dfU, 0x3f9aa7db3e8ebf3fU,
  0x3d1b400f3e98f91dU, 0x3e829ab13e4898cdU, 0x3e44b47a3ea70e92U, 0xbeedb5b03f064356U,
  0x3ea559d8bea62ce2U, 0x3e846ca1be3b3471U, 0x3d525e043faec640U, 0x3cf520e23e9ce0faU,
  0xbcf34b2cbf0522e5U, 0x3cb759babf5d2737U, 0xbed64512bf8a4e68U, 0xbbb7f879c0328d66U,
  0x3ee8f04fbfd9f215U, 0xbf2f44dc3ea21512U, 0xbf598c36be0618c2U, 0xbf13ca713edacd24U,
  0x3ea981adbe77c897U, 0x3e77d566baf55ab9U, 0x3f74497bbf213a88U, 0x3eb1350a3ec2788cU,
  0x3e9deee3bf6f0a98U, 0xbf63dd803d9be53dU, 0x3ea12e57bed65e64U, 0x3e6a004e3d643e33U,
  0xbc3c74b53e9c3994U, 0xbe214551bf0ccbaeU, 0xbea4cf0a3d1d9174U, 0x3f6e21cbbfa7677aU,
  0x3d0b9d1cbeb1b67bU, 0xbd482ce03f1b7980U, 0xbff41667bebdcfa6U, 0xbed9d1623f21cb35U,
  0x3e53a01e3e0a22c7U, 0x3ecf48d8bf3638b0U, 0xbf29f5b7be29b9baU, 0x3ecf8d9abf192f4dU,
  0x3f40502e3e512d51U, 0x3f841e003ee6755bU, 0xbdae8e7ebef4c32aU, 0xbf27ae7a3d99c0a3U,
  0xbd29c28cbe8e60b8U, 0xbefa501ebf17da6eU, 0x3fd226e5beb83adeU, 0xbdf73f52bf0e6a72U,
  0xbddbe9a4bda9a158U, 0xbed797bf3f007588U, 0x3ebc19b53f14cc3bU, 0x3eedf037bf6f98ceU,
  0xbe9252d33ed7669eU, 0xbed3dc30bf87ca09U, 0x3ca90e063dfd301eU, 0x3e847e533de03915U,
  0x3ee7ae55bf93e5fbU, 0xbfb96dab3f939aecU, 0xbed032823e479225U, 0xbe9e32453ee4decaU,
  0xbfdd4c733f3c89e3U, 0xbe5c2711be8b46dbU, 0xbf8fae95bec6ff2aU, 0xbf9267c4bed98d8aU,
  0x3e67180c3e4b1b2dU, 0x3e188d23be94aed2U, 0x3f0757a33d407055U, 0xbf42dadd3f22c53fU,
  0xbd55e69cbf71aae5U, 0x3f1c131e3f51ebe0U, 0x3ede172b3deb8aa1U, 0xbfbf827fbdb0b46eU,
  0x3e9ccc2e3f815afaU, 0x3dfab5bbbd22ec44U, 0x3e61d47bbef7bd03U, 0xbe1355dd3e33bc74U,
  0x3e3c77e0bf307273U, 0xbfc819303f186b12U, 0x3f1db11bbe35fd92U, 0x3e0685ad3e829918U,
  0xbeeb9e14bf4d7ddeU, 0xbf09715cbea5d000U, 0xbf241e943f805584U, 0xbf1ee8aabe66ab35U,
  0x3f2b5f4e3e66dee5U, 0x3f4a1bc6bef04452U, 0x3e2734cabeaed10bU, 0xbd6e5bb63e7d23e7U,
  0xbe5a001f3e8e1150U, 0xbe8bb6f63e3fd271U, 0xbe96b685bf62a094U, 0x3d3dc764bf9745fbU,
  0xbe89d08c3e784836U, 0x3f6ed93e3dd9d643U, 0xbdb821273ea1b34fU, 0xbe3ed68d3f26f9b1U,
  0x3f0288e83e9bc54eU, 0xbeaca305bf8f7550U, 0xbd4d2cc3bf8fac77U, 0x3e2e81eabe85ef44U,
  0x3ded4cb63ecc4afdU, 0xbcf19ee3bd145046U, 0xbddb8c0dbc0ac8c4U, 0x3edc8729be02c598U,
  0xbf4d2fffbe9d627cU, 0xbf05c8ec3eeb54feU, 0x3e871c993e1d5e23U, 0xbfb0f4e93e8ff37bU,
  0x3ee463a53f9af35fU, 0x3f092cc23e0302fcU, 0xbea9e5023ed8221dU, 0xbe4fce733f1b7db5U,
  0xbee4ec673d7767eeU, 0x3eaac8c83eeffac9U, 0x3e9597bebfc6cc4cU, 0x3b862fea3f08d8c4U,
  0xbe87d291bf98943eU, 0x3e6c67c43fcd67f2U, 0x3ef441843e9feaccU, 0xc0063c9bbdfda460U,
  0x3da623debf283c6eU, 0x3f01b03cbf48fd98U, 0x3f099d6a3dc05d63U, 0xbf5f1ec83ebb6a31U,
  0x3f3ecfcfbf912524U, 0x3e1fd4d93d2cc719U, 0xbf502dddbb257102U, 0xbf97fac53e63ee33U,
  0x3efcb7f9be17cbd1U, 0x3ec9cfeebfad9b24U, 0x3f05253abf412632U, 0xbdfbad2dbe9f7e67U,
  0x3f120ff33c996eaeU, 0xc015351fbf2fd264U, 0xbfe297dbbf413640U, 0x3dfc989bbf292bb0U,
  0x3e0f145e3f23b7cdU, 0x3d5abee53f54a4ceU, 0xbfe4c5303f51f21fU, 0x3f238c7a3ec2489eU,
  0xbe8e0fbdbd47b774U, 0xbece7ae4bdd32e8aU, 0xbe59760ebe0c9402U, 0xbfc4fe80be47277eU,
  0x3f1bae49be947d2dU, 0x3e18ec57bee10d07U, 0x3ecf3aa9bf52d7afU, 0xbf0f9b3dbefc7e1fU,
  0x3e395bbdbe8c7d2bU, 0x3e165c1dbee84fa4U, 0xbf13be2bbf0c3e3dU, 0x3ef0626c3e15b02fU,
  0xbf44c8a03f0553a6U, 0x3e9c901e3f01c33fU, 0xbbe851ebbf21a4baU, 0x3eac45edbf24e22bU,
  0xbf1bbc773e91b72dU, 0x3deaf2443e6b6397U, 0x3d0ef64e3ebd31f3U, 0x3ed71960bf6ea2d9U,
  0x3eb1c9893ee87888U, 0xbe1b694abf5bf541U, 0x3e84e6afbe2beb3eU, 0x3f0675423e06cac7U,
  0xbebb2238be1ff771U, 0x3d81e49dbf6a8997U, 0x3eb0bc54bf7b5b62U, 0x3d05c836bf3a0f19U,
  0xbe69b1e03e12c699U, 0x3f0c6707be77158cU, 0xbe66b6f0bf1d1229U, 0x3f36dc83beacdb0fU,
  0x3eb18429bf33299aU, 0x3e58fa163f3010daU, 0xbd5dd761bd42d7b6U, 0xbef2aa6abec232f4U,
  0xbe418c443f38c2ebU, 0xbc7689cfbf1982ecU, 0x3e3c775bbd7e54fdU, 0xbf429138bf2f5194U,
  0x3ee195ad3f58e934U, 0x3ea47298bf939b28U, 0xbd879e4cbecab2ecU, 0x3e586a8d3fcfa45cU,
  0xbf66e4153e13f748U, 0x3f89cba83de43e81U, 0x3e42c8173e8911dcU, 0x3d447b5cbe27cd0fU,
  0xbef247d7bf848f3cU, 0xbf587ad83f2a94fcU, 0xbf25d4a9bf556749U, 0x3f96fafdbf90d6dfU,
  0x3eec66983e81806cU, 0xbf57c9e93f613390U, 0xbf5468423e579b83U, 0xbeb979a9be9db80dU,
  0xbee9a4f23cc3a3c3U, 0xbf02fbfb3e326b30U, 0x3ebee5463f251a0bU, 0x3e91262d3fbbc65fU,
  0x3ec4f11f3fa38c21U, 0xbf0c23a2bf156db7U, 0x3e9c9286c00d1f0eU, 0x3cfea3e83db989eeU,
  0x3caba2c1be60e1f4U, 0x3f8b256c3f5d75adU, 0x3ea2c1dbbe227083U, 0x3e9425fa3f1e0c38U,
  0x3f1602e43ec9d805U, 0x3e135118be868229U, 0x3eb5bc6f3bdd17f2U, 0x3eea5b613e905841U,
  0x3e5caa213ea8b314U, 0x3ea568c8bf272524U, 0x3dee3b3fbedfa1d4U, 0xbfc42b4bbeb22d33U,
  0xbf071fb53ea1b329U, 0xbe4b3f49bf081826U, 0x3f0bf3f8beada5aeU, 0xbf6ee884bf94fe23U,
  0xbf9bcc23be6a457eU, 0x3f04b85b3d6ccc5cU, 0xbdfe31f0bf35623eU, 0x3e0c968f3ec49195U,
  0x3f2e2bdebe95a07bU, 0xbf631650bf52ef9dU, 0xbf1618193f1302a7U, 0x3e3d14313e44c9caU,
  0x3e39ebba3dd14fa9U, 0xbc7e0e273e907623U, 0x3da32879bf84b312U, 0xbe22731cbd64511eU,
  0xbfa6ca823f4bbd7aU, 0x3e09e5003c9c2932U, 0xbe19c88fbcd2c2ecU, 0x3e8c709f3e7ffa25U,
  0x3e21fe02bca10515U, 0x3ebaec5e3f84d228U, 0xbd4cf44b3f05bf9dU, 0x3f783ce63f116141U,
  0xbe9aed50bed6e047U, 0x3e51e8fd3eb55991U, 0x3e56953bbf31f7d7U, 0x3b871aea3edcdf37U,
  0xbdd03e1a3e9db123U, 0xbc95cb813e72836aU, 0xbdb935753ee627f8U, 0xbecf85d03ee8a23cU,
  0xbf341ddbbe13863fU, 0x3f8da737beb248a7U, 0xbc10ae03bdb2d047U, 0x3ec86d053d822737U,
  0x3ead0684be4549e3U, 0x3f4b5368bf4b62c8U, 0x3dabc7fd3f116f57U, 0x3ec7bee93ec64610U,
  0x3de1e3553ea5a8c2U, 0x3ed3aaa93f91ede0U, 0x3ec0f4d4bd5109a5U, 0xbf980e163f3a99f5U,
  0x3e6d1ed23e22e167U, 0x3e1fb5d2be7e4a7bU, 0xbe8e72d5bed58877U, 0x3dbbd147bfa71f89U,
  0xbe0373363f0039f6U, 0xbeec83b2bf04cfcdU, 0x3f8930d4bf46dcefU, 0x3ed61c923da34a84U,
  0xbe96303dbedc25dbU, 0xbe3aaedebf8a7241U, 0xbe11dab03f33d867U, 0x3f75b08abf1aedafU,
  0xbc4fe513bfc08bf2U, 0x3e818bccbe7a730dU, 0xbeb73ea83ddc2418U, 0xbe79f9d13e924993U,
  0xbf2c79d2be52a817U, 0x3f12675bbad72680U, 0x3f7137863e114ce9U, 0xbf796ee1be883877U,
  0xbc2939debe51c648U, 0xbfc0ab363d45fff7U, 0x3ea5b89dbf048222U, 0xbfae0d55bf106ea2U,
  0x3e3bb500bf521fc2U, 0x3f187b3bbdf9e00aU, 0x3e100b6ebfd3fdfdU, 0x3ee3c48fbf07b416U,
  0xbd458a30bf9e1b05U, 0x3ede85de3e70dff5U, 0xbe0f2a0ebcd83f3aU, 0xbef1e48dbe34c37eU,
  0xbec780bcbf399707U, 0xbf26b08d3e42e441U, 0xbe37f5523ee8ce8eU, 0x3f470335be7338feU,
  0x3f0ed57c3b46b823U, 0xbf13e6a43dfdd6d7U, 0x3f860b88bf0bc18aU, 0xbfa134a0bc715974U,
  0xbe70818bbed7800fU, 0xbcedacc83ef5f024U, 0xbe3a75453e770820U, 0x3f7adfb63e1de0a9U,
  0x3f37516dbb03d6fcU, 0x3eba0e943ef00273U, 0xbce662bc3ef3dba3U, 0x3da3d04d3e0cc41dU,
  0x3f1c856a3e911d27U, 0xbe7cc039bd1f4f5dU, 0x3e1c86bcbe2802c5U, 0xbe94f6a53e430339U,
  0xbf6b0ac53d34d7beU, 0xbf7b015ebf7db9c6U, 0xbefacf4ebe436b10U, 0x3e95acc9bedc8e08U,
  0x3f23efde3e76c474U, 0xbc1144c8bedd7e99U, 0xbe13d1783ebc5b54U, 0xbf037a3d3f0e7be0U,
  0xbe670a80bee06bd7U, 0xbd59642fbd028639U, 0x3ed91283bdd1f829U, 0x3e93925d3a86d63eU,
  0x3f0a8a81bf246ee5U, 0x3ea7b1eabdf2e313U, 0xbf60a09d3ccab547U, 0x3d08b54cc00736baU,
  0x3eb7342c3f082498U, 0x3ea13fe13ec0632cU, 0x3e9798df3e82c940U, 0x3e84c385be19346fU,
  0x3e3720b43e3ebc33U, 0x3e8a0acabe44c3d7U, 0xbdb2a6b2bda94991U, 0xbe6eaefbbd9a3cddU,
  0x3e95f6083eba8c4eU, 0x3e9a33c93ea5e291U, 0x3eff1a09be9be23aU, 0x3e42b035be85aec9U,
  0x3f18ca913e43307bU, 0x3c48edf03d111c11U, 0x3ecca9853d871817U, 0xbc2ee832be3ef870U,
  0x3f2dc4b3be93c8d2U, 0xbe99983cbaca1e40U, 0x3e9104673dc501d1U, 0x3e9c5388bdb4fcdfU,
  0xbf0543bf3ebfd36cU, 0x3d604ca63d9a4abeU, 0x3e23c74e3e6dfd4cU, 0xbd093800be563dc6U,
  0x3ee15f91be254ed2U, 0x3f44d61ebf14a161U, 0x3e7d4d8fbec08ec5U, 0xbc7cf46e3e5e6a2dU,
  0xbd6339fd3d9c3fd9U, 0xbd24ebd5bd72fd3bU, 0xbeb6cfb93deb2641U, 0x3f816e0cba24d43cU,
  0x3eedddfa3f03dccfU, 0x3e84d51a3e75c9e6U, 0xbe30e1963e0f514fU, 0xbe11b9733ea89ba0U,
  0xbccd38533f41edf2U, 0x3f50908b3f2fb7c4U, 0x3d08c3483e414e41U, 0xbf0343cebdd1faacU,
  0xbde703793dd4422eU, 0xbe3b95853f2a4928U, 0x3e84773d3c84694cU, 0x3df20b9e3ec33a4dU,
  0xbd21f1013f5eea8fU, 0x3d47c1573e4c0dccU, 0xbe19f6053daa3292U, 0x3eccbee8becf2d6cU,
  0x3f8e00e73eb0f06fU, 0xbe3109d03ef6572aU, 0x3e617eaa3e085cf7U, 0x3c515fb13ee670c4U,
  0x3f274afa3cede20aU, 0x3efca20e3e0cf0c2U, 0xbe353a85bef01377U, 0x3ea74f293de6430eU,
  0x3e7fd981bc8091f6U, 0xbc8eabd13f717859U, 0x3e6b3e3f3e925afbU, 0x3dff3242bd2d3985U,
  0x3e010f16bf0a7026U, 0xbe93d02e3ef9f5f0U, 0xbed25d4cbf0d9c67U, 0xbeaddd51bf407a5bU,
  0x3ddf2efc3cb4c4b9U, 0xbde7ee52bec216a0U, 0xbf3772f23f9745d6U, 0xbf4e28a83e416406U,
  0xbe3d92a0c00f9ffdU, 0x3f2394be3f02ba1aU, 0xbe975dfb3e0c13b8U, 0xbec3bc603df8c53aU,
  0x3f2bdad33e55cdfdU, 0x3f1a2f8a3e59a488U, 0xbefbb37abf51050fU, 0x3d5d92623ecca929U,
  0xbf0b2ba23e157ae2U, 0x3f1809953dc24474U, 0xbe80866b3f106ed3U, 0x3f32252ebe58b87dU,
  0xbea651c83f01a079U, 0xbdec2412bf06abb9U, 0x3ead32483f208a5cU, 0x3ecd29ec3ceed3e8U,
  0x3dd2060c3ee7c7f7U, 0x3e63d7a7be81faa0U, 0x3ec11ca03de6b273U, 0x3efc1947bf30f83aU,
  0x3cfba6513e051a14U, 0x3f38d84abb9e1184U, 0x3f183653ba3756abU, 0x3e75d6aabd050265U,
  0xbc8a480dbf6f5395U, 0x3e34bd2c3c88cfd2U, 0xbe9595193ead0705U, 0xbe89395bbe93cca8U,
  0xbd877a0b3e82d338U, 0x3f40fd8c3ea98332U, 0x3e4b9abebe0d666dU, 0x3d1ed669be4e8edaU,
  0x3ee605f3bfb089daU, 0x3de35ab23f0131d4U, 0x3e806b3b3eb17135U, 0xbe2b56703c3df038U,
  0x3e390db93f0c33d7U, 0x3ba7e516bf5fe85dU, 0x3d068b36be2fa210U, 0xbf27a7763e42e574U,
  0x3f1bca77bec3cdaeU, 0x3eca5a45be48e17bU, 0x3e2e8c04bd8b1ba3U, 0x3d21d4a53d73a8ebU,
  0x3c3d65e93f0ef167U, 0xbfae3a3a3efc5a4cU, 0x3f218377be0c5e60U, 0x3e3d5d983bd2916aU,
  0xbf10fc1b3f1685e4U, 0xbb8c07513e385bb4U, 0x3ee21c143f04c9a9U, 0xbe312a0fbfaafeaaU,
  0x3f1572723dc8f96bU, 0x3e372a1a3e5e72d4U, 0xbe47a9c5bf12dcffU, 0xbe645cadbe656717U,
  0xbe8e8c1b3ee664d2U, 0x3f72447bbe1ebfdaU, 0xbe8f40c63f77733bU, 0xbe8a22da3f27ceb8U,
  0x3e4d9e51bee5077dU, 0xbea8c6723cb94912U, 0x3ee55d613e05202bU, 0x3ec7966abf157619U,
  0x3d86c2e3bbc29f54U, 0x3f6ccfce3f77a292U, 0x3ef148123e2138b7U, 0x3d60449e3ed75530U,
  0xbf81f7f3bf113ac0U, 0xbda6b3e33dbc593cU, 0xbe47075e3ef3078aU, 0x3ddd86323e206810U,
  0x3f96e5c4bf6e94c1U, 0x3e4206603ebf556eU, 0xbe41754e3eada27aU, 0xbe65be9abe5e0c9fU,
  0xbf3cfe753edb6bcdU, 0x3ebf1b513d64754aU, 0x3edbe07dbf0fcb2eU, 0x3f0a4a75bec3deebU,
  0x3e1ca6eebec04d31U, 0x3f9c69213ea010c6U, 0x3edc6487bb4b4819U, 0x3d6b41483dc67e21U,
  0xbf7ce7043e99ad5fU, 0x3fb90b233fb4ae9eU, 0x3e8bc32d3f057991U, 0xbf5acf12bcded280U,
  0x3fb70e043cd8ce10U, 0xbea35e77be162f38U, 0xbe2d72683f313068U, 0x3f34be36bdac44ebU,
  0x3db8bd56bfa40a7dU, 0xbf838f19bee3d86aU, 0x3f09ad003de2d656U, 0x3ea8620a3f6b6dd3U,
  0xbeed9b04bef0995eU, 0xbf434c20beb6a011U, 0xbf0e6daabdd5fc10U, 0xbe0b824bbf2fcabbU,
  0xbf36fd5ebf22cfcaU, 0xbf61f2bb3d01fdafU, 0xbe8eaaf03f0ff64bU, 0x3ec127003f1340d0U,
  0xbeb411a53e1007f7U, 0xbda11fa4bd80160cU, 0xbeb51eaa3e91da39U, 0xbf0f8b00bf04fceeU,
  0xbf4b7b733e1950bbU, 0x3f23d7093f0f6edbU, 0xbf4df668be615b4bU, 0x3f6e4b773e950c6dU,
  0x3e585fee3f33420dU, 0x3f3b35223f5d9644U, 0xbf71b0c0be624ea4U, 0xbef5ad11bf0a0bebU,
  0xbf979497bdd4debbU, 0xbd9988543f08a147U, 0xbf49af51bdcd6e91U, 0x3f0fcf4a3e29c010U,
  0x3e80a000bf0a74c9U, 0xbedc89a7bde9892fU, 0x3f0c34913e34e57cU, 0xbf24c2763e4280cdU,
  0xbf65b142be36ca33U, 0xbebd99c33ec7187eU, 0xbeba52153f17bb1dU, 0x3e089b553d87f6cdU,
  0xbfb4b963beb0bb93U, 0x3f15dcda3eaab2b3U, 0xbf93f645be959cd7U, 0x3eda6f793ece858eU,
  0x3db9166e3e8a9c90U, 0x3dbedb243efebf27U, 0x3ef8c3f53d3ae229U, 0x3ee133ce3f2cfd43U,
  0xbd6526f4bebef771U, 0x3e9e26c23e7baf8bU, 0x3d99aa343b963b54U, 0xbdb905353f375d39U,
  0x3e0bcd0e3e6ca25aU, 0xbe0c7ba0beb64556U, 0x3ed393473ec6d0b0U, 0xbe375a9b3e93cbe2U,
  0xbe114d753f429495U, 0xbd3d8956beb60061U, 0x3fa5de26be8cf09eU, 0x3e2b0e89c01f05adU,
  0xbec6d3fabe31d4a0U, 0x3d56b698bf4d71e9U, 0x3e779de13f3cc6e5U, 0xbeb6a1413e1a3cd2U,
  0x3e8ee4cdbf054baaU, 0xbf1dafdabe9a625aU, 0x3da7b0e03f3029bbU, 0x3f0154dcbd2fbbb6U,
  0x3de4bc8cbf768548U, 0x3db51ffd3f000504U, 0x3f1a89b53e64fc20U, 0xbca4da19bd243575U,
  0x3d0f22643fa12f12U, 0xbe8ba1fcbee30058U, 0xbe2e5686bc10909eU, 0xbef349c7bf948e42U,
  0x3d815a30bba3f5b9U, 0x3daf97dcbf1ed4cbU, 0x3cdfeefd3e3b7097U, 0x3f401b9a3d506a9cU,
  0xbf2b4bc0beb05dedU, 0xbecc83733f769ccfU, 0x3d844167be073972U, 0xbe96d5b03e47a57fU,
  0xbe888f363e87f82cU, 0xbf6d114e3f8c3b93U, 0x3f0a6b82bf0c1805U, 0x3de2da9dbf0d7ff3U,
  0xbf4e00c93e517521U, 0xbd945d2dbdee8796U, 0x3efe7a093ef256a2U, 0x3f10b4c53dcc08ffU,
  0x3e7421423f0c36beU, 0xbf909c953ec6b495U, 0x3d21beb9bcc0df3eU, 0x3de2b17ebea36a39U,
  0xbe460af83e8763c2U, 0x3f1100fa3f01dca8U, 0x3e41864cbcfa3653U, 0x3e26525f3e8170d9U,
  0x3e5da48dc01b97f0U, 0x3cb682f3bed1eadfU, 0xbf6484e4beab2867U, 0x3e2886a8be4a9effU,
  0xbecbcda53e521485U, 0xbeca773dbfa7ac35U, 0xbe0d9364bf8a5692U, 0x3ec9f1fd3dc9247fU,
  0xc01c9b3c3e8851e9U, 0x3f5e5a623e9e6b78U, 0x3dc1fdc4bf69a653U, 0x3f3653f33c10d748U,
  0xbf191b5a3e809d69U, 0xbe76c2f53f0d43fdU, 0x3eee3ed23ec397d5U, 0x3e85b47f3d7e3563U,
  0xbecc6816bfd4039cU, 0xbe8d1a603c206ca4U, 0xbe06bc28bf331e98U, 0x3e5f3ff6beba823dU,
  0x3e33a64fbf7c8e44U, 0xbf8c19a73e88b16bU, 0xbdde370bbeb5f38fU, 0xbe9f26b63e3f89a6U,
  0xbe4b19673e81dfd3U, 0x3f0748783f16bbd6U, 0x3caddbd0bd8e835fU, 0xbdda274c3e076993U,
  0x3f0f32ef3eb50ffaU, 0x3d0a9587beab98dcU, 0xbf4d121b3f7b9506U, 0xbea5f1ebbf30022eU,
  0xbebcf99a3ea65b4cU, 0x3cc515a8be86a074U, 0x3f5e582f3f9aaa05U, 0xbee283d83ec57c3dU,
  0xbe775fa8be7572bdU, 0xbf316fb4be64f09eU, 0xbf77bc763f5a310dU, 0xbcbcbe093e04d5caU,
  0x3f150224c00033d9U, 0x3ef719923ede513bU, 0xbe9947ab3e1f80d3U, 0x3e910dafbfb93f28U,
  0xbe3ecf6fbfd02e50U, 0x3d84b264bf4e804cU, 0xbec77595be157ea4U, 0xbeb5f8d9bf7901a2U,
  0x3fbba7d53e710953U, 0xbf6acd84bc0a29c8U, 0xbdbf911c3d81d025U, 0x3f3df9113eb5b61bU,
  0xbeed3d54bf4cfb2bU, 0xbda7c21d3d882d8fU, 0x3f2c1057c05fa3f8U, 0xbe043e403eb7a711U,
  0xbe12c0063ee5f0afU, 0x3e3d2de2bf8871baU, 0x3e8f77423e4a76a3U, 0xbec7413f3f2f42b1U,
  0xbf1088043f426f04U, 0x3ff729003e4b3fc1U, 0x3f98caeebe2d8788U, 0xbf9e6e1b3de0b63dU,
  0x3d3b16513e525230U, 0x3e750abd3d15486aU, 0x3eb12165bfaca2d4U, 0x3db5863fbdd13825U,
  0xbbeb330a3e327615U, 0x3f1be4343fb76cc7U, 0x3eb16c63be5780ebU, 0xbf145a92bf169ba3U,
  0x3ec5cab1be395831U, 0x3e12de73bea781ecU, 0x3f0a3cfb3ef03276U, 0x3de82a48bcac32feU,
  0xbeda9c1abd3838a6U, 0x3f2eb527bd8532ceU, 0xbe7bbf073dbb9e29U, 0x3e508a75bfac067fU,
  0xbcae11e13f62f708U, 0x3e86a6cabef30ecbU, 0x3e75e9fdbef60560U, 0xbf1466f73f3828bfU,
  0xbe228c83bec46308U, 0x3d97516dbf1c13a6U, 0x3ecec6543ec1c7b9U, 0xbc9300633e1da1aaU,
  0x3e2f8bd53dcb611bU, 0xbf9611683e88a3c2U, 0x3f81ee273e428208U, 0x3f25c195be1b8b3dU,
  0xbde0ff4e3dc6e671U, 0xbf057a223dcfa914U, 0x3f9e7be2be97ed22U, 0x3f79bac7bee733e5U,
  0xbebd5a15bfa3864dU, 0xbef222ad3d964b47U, 0xbed2ce513e924228U, 0x3f8dd2053e8176f0U,
  0x3ec658cdbeba8094U, 0xbdaf34343f596d68U, 0xbd0884c9bf36f6b1U, 0x3e73f513bf16f586U,
  0xbeb745c53ed0a283U, 0x3de6a4d2be59dc3dU, 0x3cfa46123ebeb0eaU, 0xbf0f10a03f17b8fcU,
  0x3ea8a13e3f047f52U, 0x3e1b1df03d340a1dU, 0xbf5fbc1f3f041f92U, 0xbf099625c0536bb1U,
  0xbf06a399bf394929U, 0x3ece5d96bef349c4U, 0x3e8cbd7dbf01446bU, 0x3eea6246bf82d485U,
  0x3e0cd7ef3ed3ca71U, 0x3ef247ffbfdc44e7U, 0x3dd7d9683f4afe71U, 0xbeebc6ec3ed148b1U,
  0x3e758fef3f106040U, 0xbe577c1e3f987d19U, 0xbe176c71befab35fU, 0xbec072ad3e5ba8ecU,
  0xbde6f6843f0b42d6U, 0x3f8d65403d3f82caU, 0xbdfdd0d73e759c30U, 0xbf4d8ea53f2be5c3U,
  0x3e416ed0bf2bed13U, 0xbf3058893f0b07f4U, 0xbeabc57abe02a407U, 0xbf36fabe3ea2a8caU,
  0x3ee5179fbf0eb6cbU, 0xbfed748c3cd878ecU, 0xbc86c66a3dcd7ca0U, 0xbf2af029bf61b2caU,
  0x3f8a452a3dfd7b48U, 0xbeba41eebe35fd42U, 0x3edf5398bd3b26b0U, 0x3ca398d63e832014U,
  0xbf6b78973ebc1b55U, 0x3e5a282bbf8ec409U, 0x3da3c9a23ed2eb65U, 0x3fcc35743ecbfa6dU,
  0x3db635f13e8b1569U, 0x3f4d00a9bea32c65U, 0x3f843a0fbf30055cU, 0xbdf38aa53ed3ce9bU,
  0xbf592faebcb4068aU, 0xbf2b16803f1af7bcU, 0xbf82b808bf1a5233U, 0x3e80bc6abd7e606fU,
  0x3ba3c20c3d827820U, 0xbf842e9cbf4ef364U, 0xbf3631abc011ca09U, 0x3ca5e231bee788a6U,
  0xbfb4b7ad3e84e127U, 0xbd0bbbd23d196a5aU, 0x3f5abd29bf0353a0U, 0xbfa0f3823f62dbcfU,
  0xbf3b0ce0bd1271f3U, 0x3f61991a3d1d04aaU, 0xbe65329d3f098a2fU, 0xbe797ceabea68a8eU,
  0x3e2c63823eec5dd0U, 0x3edb16b83f55be59U, 0x3f561ef5befa424bU, 0x3f9b0e793ea0903cU,
  0x3fc9091b3e8c0bd9U, 0xbc7e07b13dcc806cU, 0x3e7388bebde2b8d9U, 0xbea21bf3be0a515bU,
  0x3e80876b3f1f4a15U, 0xbd618530bdc3a8b7U, 0x3ece9186bf9e846eU, 0xbd9621acbefb01e9U,
  0x3f3230c73f7cabbcU, 0xbeade57fbf09ab0aU, 0xbf7057983f33863dU, 0x3f5b32cc3e81cce8U,
  0xbfceb7fbbf4e8c04U, 0xbf405edf3e87044fU, 0x3f1853eabe2126eaU, 0xbdfd1339beb14cb3U,
  0x3dd94e913e2fa37fU, 0xbdb86dcd3f87f03cU, 0x3e548527be823ae3U, 0xbdd123aabf667232U,
  0xbe818fbdbf9a3bfeU, 0x3fb64312bf17d646U, 0x3f00115dbe272b73U, 0xbf91c6af3e2f829dU,
  0x3e97c374bd29cae4U, 0xbe58d473be7f9dfdU, 0xc00ab1763eba9165U, 0xbe2bef053e4673abU,
  0x3d905848be94c13eU, 0xbe87838d3e22826eU, 0x3f4386523db3a42cU, 0x3f1fdfdb3e695d15U,
  0xbf22b41dbf092b46U, 0x3d432c5fbf7c999cU, 0x3e9a217abf12ee5dU, 0x3f1ed3c33e71489aU,
  0x3f2a1b68bde45782U, 0xbe176d98bfd7409cU, 0xbf17f5883eedb4b4U, 0xbf0aef09bae12bb6U,
  0xbfa3d63f3e0e1550U, 0x3dc64b86befc810bU, 0xbf50db113f5c95d8U, 0xbea824923e240763U,
  0xbf870be53f2678d8U, 0xbe215f1abeab1115U, 0x3e294e803f0bdd4bU, 0xbf8fd4b13dbe36dbU,
  0x3f144b003db3766bU, 0xbd9c302abe5f4575U, 0x3e14ae7bbf8120a5U, 0x3f524e95bf86dd15U,
  0x3f36e8b0be1c0142U, 0xbf5e2c283b5e8aafU, 0xbd4516133f72e440U, 0x3f5030cf3efdf9c3U,
  0xbeaf807abf461355U, 0x3efa9ada3de494e2U, 0xbe5fd128be1d0d8cU, 0xbd2ac48a3e7358d4U,
  0xbf402468bf01d41cU, 0x3dc2a9f3bf734188U, 0xbe47974dbd88ece4U, 0xbf1f2c013eb0915dU,
  0xbf418d36bf41dbddU, 0xbd5e32ac3eb2bb45U, 0x3e83326cbec116feU, 0xbec6c5cdbf20b44dU,
  0xbe1b18c43f7885f1U, 0x3e10db44bda2c033U, 0x3eb7d39b3f06d17bU, 0x3f5c0e07be7db5a3U,
  0xbd81be3ebf4a3c79U, 0x3f9dfee1bf26d9faU, 0xbf2a64b9beaf81a9U, 0x3e63c1d53e251939U,
  0x73e283ec219fcU, 0xbf63c110beefeaf3U, 0xbf958c42bf4f07dcU, 0x3f702730bf8422f2U,
  0xbe04ed53bf4476b2U, 0x3e1ad4f6bdce313dU, 0x3e23bed43f5d65f2U, 0xbea1e259bfba31c4U,
  0xbec65525beb004f7U, 0x3ed0d187bf09f460U, 0xbe80d1533d91c97dU, 0xbe0b085dbebd05c9U,
  0x3e974f083ed65e10U, 0x3ea31def3f0f10a1U, 0xbe8e5eb53e5f5903U, 0x3e5039903e9a6b5aU,
  0x3e844cc4be58e03dU, 0x3e5d7281bdc78ea3U, 0x3e32d20f3e127b3dU, 0xbe9b23dabfbe7e01U,
  0xbc0649ca3c1ae6a0U, 0xbf4041ac3e9a1585U, 0x3e0e00d83e77a9abU, 0xc000c6793eaaee0dU,
  0xb9af63d1bf01aac9U, 0xbe111777bdc21bc1U, 0xbf27aad83da10e9eU, 0x3f5d23233ecb7e33U,
  0x3f4cc902be9dd61cU, 0x3f04bae6bf1168e3U, 0x3f1ffce73eb6c558U, 0x3bb488883e98fe87U,
  0xbf9d5bde3f1b876cU, 0xbf39e15fbdc8cac0U, 0x3ef7c38e3dfb1d65U, 0xbf8a4c22bdf0513fU,
  0xbe51f97ebe11dce5U, 0x3ede331fbd0300bfU, 0xbe907c863e904d66U, 0xbd79c3603eb35c13U,
  0xbed6a552bc56b57eU, 0x3dd982bfbf518063U, 0xbe34e8b93c12bba7U, 0xbfa40bc13eabf3bdU,
  0xbe72c65a3d933dffU, 0x3ed8da443e93d825U, 0x3ecf4946bf887369U, 0x3e5e1c113f0ae97fU,
  0xbe713d373ee841a3U, 0x3e6d55763f11cce7U, 0xbea91b0fbab72c5bU, 0xbecd29cdbf3e66ecU,
  0xbf55993a3f04a5b0U, 0x3dbb0c9cbe669df2U, 0x3e88da5abe26890bU, 0x3e3ec0abbf353333U,
  0xbcf04616bf44670fU, 0x3ebb09763f0c49d6U, 0x3e83031fbdf6c46fU, 0x3ed38a38be80e630U,
  0x3f460ea63d396c80U, 0x3ed47cb63f1b526cU, 0xbf1b96453ef0a81bU, 0xbe8509eb3ef8c13bU,
  0xbf7fb7b2bf1220f0U, 0xbf0163a93ebfd811U, 0x3bd8a46ebfb27a62U, 0x3eb061e5bf4a5d17U,
  0x3e3ad196be87c54dU, 0x3ddc26f7be56560bU, 0x3ea7837e3e7639dcU, 0xbeaa2991c0084b88U,
  0x3d1f2bedbf869d9dU, 0xc01ff8ef3e8f4832U, 0xbd3fb2333c89d622U, 0xbe15531ebf07a069U,
  0xbd061fcb3f252135U, 0xbef4ebd33dca0e1fU, 0xbf0a4f0d3f4c4ca9U, 0x3e277bb6beac1d5dU,
  0x3d0900c3bb3256d0U, 0xbeb173583f86a461U, 0x3e04d5f03f4fea75U, 0xbe383331be46523cU,
  0xbfaa52ba3edcd985U, 0xbe68bce2bddd9829U, 0xbe047c943f440b6bU, 0x3f8891503eb1d727U,
  0x3e3deec33f517e8eU, 0xbecb7ed03d31ad86U, 0x3e56c0dcbda20789U, 0x3e73426ebe8367bbU,
  0xbfb25c7a3d05b564U, 0x3ed6b0d2be2f1a8aU, 0xbdab55053f22fbe4U, 0x3f0bce363e1255a2U,
  0xbccef125bce6ab80U, 0x3e893cee3def52ecU, 0x3eee5188bf634a2bU, 0xbfe95f1d3f11e6b0U,
  0x3f88ce613e46c768U, 0xbf958aa63fdd871aU, 0x3e8769b63f01aed3U, 0xbf166c7b3ed33abfU,
  0x3c45d889be934676U, 0x3ed616b4bdbd617eU, 0xbfa6cfc63f8af6c7U, 0x3e852df53f512dc2U,
  0xbf4d4e273e4f3b1fU, 0xbe89e625bf1c7c6bU, 0xbf3958f8becccaa0U, 0x3d1049813e906182U,
  0x3ed3d43ebedce9faU, 0xbed10980bfc11e58U, 0xbe237c303ed96096U, 0x3e51e5f83e50ba96U,
  0xbf8a421cbffff3a6U, 0x3e500f04bf0d6840U, 0xbe9b6436bd0abea7U, 0xbe2a4657bf280c9eU,
  0xbe9743b13f1a6045U, 0xbe693e053e81e07eU, 0xbe8d15a13eaad096U, 0xbe3b9bd43ee3afafU,
  0xbe831abc3eebe84aU, 0x3def033dbe2f3de7U, 0xbeebfbf33c526cd0U, 0x3f5bc3afbe5bd272U,
  0x3e3f0e9e3f287bf9U, 0x3efc17403ea4714bU, 0xbf09eff23ee8f566U, 0x3e728cd6bf8b4ad5U,
  0x3c446304bee39bdbU, 0xbedb6948be5913a8U, 0xbea388c63ebb64e6U, 0xbe0b7fa9beca8b6dU,
  0x3ece2ebcbed9eaadU, 0x3ee76b45beceaf24U, 0xbdcc6ae53e745b88U, 0x3de66c45bd841ee3U,
  0xbf07a0a43f3dd680U, 0x3f0adbbc3e5a95c0U, 0x3f0473fe3e50d7bdU, 0x3eb844df3e3dbad4U,
  0xbf680ef8bd294aabU, 0x3e26ec4bbe8dd3d5U, 0xbf9024c2bec37922U, 0xbe917346bf4b08d4U,
  0x3ea02d71be1de1abU, 0x3ef889e03c13cc37U, 0xbe16bd8b3fcda937U, 0x3f020787bf22c1c9U,
  0xbe5c19a13f421dc6U, 0x3d650ce23f34d224U, 0x3f34e998bee8256cU, 0x3e6228edbda86f45U,
  0x3ee64b993edb5192U, 0x3e0d04ea3c8c1795U, 0x3e42e5e8bdadfc7bU, 0x3f2eff5bbed8e4dfU,
  0x3f6f1e8f3ede6fb0U, 0x3e34a80bbf0413ebU, 0xbeec19a63f161748U, 0x3ea89400bf2a3f70U,
  0x3d9cf75cbe9a7fdbU, 0x3e04a4213e9d42b1U, 0x3f3ac7823ae05e41U, 0x3e1a8384be5f195dU,
  0x3ee0619b3db0b2fcU, 0x3f08124a3d2eb6f9U, 0xbfc96ecc3f68abb2U, 0x3e8f43393e778cf9U,
  0x3edbdc563f8b6c4cU, 0x3f31b9ffbeefec27U, 0xbff846c2bf2ec516U, 0x3e47e0643bf6972fU,
  0x3ec20c803ee07cbbU, 0x3f2ca7b53fa33d00U, 0x3f7d17af3efea0c7U, 0x3f754d90be1ad4ddU,
  0x3d8b606dbfc75d28U, 0x3ed766b2bf22a6acU, 0x3e292d133f4bf0aeU, 0x3e0b88e1bef00fc6U,
  0x3b8c24293e7ae327U, 0x3eb8a7d93f9ae8e3U, 0xbe4fb907bbeeb328U, 0xbc06f9a93f8defb3U,
  0x3ee3b8a4bf148970U, 0xbf9add943debcb11U, 0x3e9735223ea56fc6U, 0x3ed7a91dbee3ad40U,
  0xbf4473aabf16f82cU, 0x3e87cdb93ca57eabU, 0xbddaadedbe64ecc3U, 0xbc96aa90be1d5165U,
  0x3e7e047b3e23350eU, 0x3c1a21a83e0377baU, 0x3d4060873ea5353cU, 0xbda3b2eebf23aab2U,
  0xbe8035d93e468cafU, 0xbe21d3283ed41792U, 0x3f4ccaa4bf065b3cU, 0xbf8aad7cbfd44d79U,
  0x3db0a7243f703855U, 0x3e7def8e3e4258f7U, 0x3fbab3ab3f0c20ddU, 0x3f1f4c6d3da921efU,
  0x3eb6d5893e6eb13bU, 0xbf61cf08bf1407daU, 0xbefbd979bebfc810U, 0xbf9303c9be6310f1U,
  0x3e56244d3b5ab80aU, 0xbf3bb41c3eaaa37bU, 0x3e24d87e3f8855f2U, 0xbf8943f5be642d73U,
  0xbfcc20b33d2ae3acU, 0x3f0b7ed13ec6fc8aU, 0x3dc559d6bd950450U, 0x3f02faaa3edbd3b6U,
  0x3f24e44c3e4e61d6U, 0x3e6246ff3e9f2e13U, 0x3eca5002bed59508U, 0x3eb047eabec12953U,
  0xbf2d261e3e1b0179U, 0x3e6859fd3ee26a8cU, 0xbfe3aa4f3f0bf506U, 0x3f4dfacf3f16fabaU,
  0xbeb06ba0bd3307f9U, 0x3f573d0bbf8b87acU, 0x39f3917fc029f587U, 0x3c60d2623f0b2f7fU,
  0xbf4ad3d73a973eaaU, 0x3d835af7bf262dc3U, 0x3ea969bfc0113d55U, 0xbf99dbb6be7fedcdU,
  0xbda913003eaae999U, 0xbe2f77103d163212U, 0xbf5c28b7befd05c4U, 0x3e85ee0dbf8f47c9U,
  0x3f260bd73f0f2bc7U, 0xbf78cc243f2550beU, 0x3d5efbfebf1b3334U, 0x3ee7e6183e66311dU,
  0x3f593fa13ef9ed23U, 0x3d82a2cebdf8e8c2U, 0x3ea8fe1cbd8c4604U, 0x3e83e3b73f96c5ffU,
  0xbfc86e64bfc8c937U, 0x3e547a193f523d3dU, 0xbe17649c3ec8e164U, 0xbd18ccf4bead7486U,
  0x3f359a79be78b76bU, 0x3ed5c79d3f124312U, 0x3bfa8a2a3ead2365U, 0xbf3417d83f57b0aeU,
  0xbdbf541ebf6fa3fbU, 0xbed64b463ed6512cU, 0x3f272bd8bfbbe101U, 0x3f373bd4be82b237U,
  0x3e89d4ef3f464bf6U, 0xbea331ec3e21e13eU, 0x3e6c62be3f11eb9aU, 0xbef96df9bf271edcU,
  0xbe442aedbcd5c2faU, 0xbf815f233f1959e5U, 0x3e7b51c4bf17e41aU, 0x3f449bc9bd2713b6U,
  0x3db9c60b3f5cad64U, 0x3ccca3f63eab8c44U, 0xbec7fd8c3ee51488U, 0x3ec891913ec32069U,
  0x3ed9432c3ec5275eU, 0x3e45ac2f3e0cf363U, 0x3e81f2a93d7b73e5U, 0xbf0be0b83e401345U,
  0x3e05c0363f331835U, 0xbea385893e36d6ccU, 0x3e5db9803ef165b1U, 0xbe6be954be826647U,
  0xbd49508dbe75f60aU, 0xbf2128b73d88c492U, 0xbea472adbe0501c6U, 0xbeb8b03f3e4b37caU,
  0xbdba477c3e1bd2dfU, 0x3f0cfc773de57bc3U, 0xbf5d03a4bf7bb507U, 0x3dfbc670bedef2d9U,
  0xbe2326b03e0c1633U, 0xbe84ced23e935f5bU, 0x3f14dfef3e50d8c4U, 0xbea967213f01acb9U,
  0x3ebe66903e7936c8U, 0x3db3c87bbed9f572U, 0x3e3844ea3dbc19a9U, 0x3ed9336d3d658429U,
  0xbf50bfca3d5326dfU, 0xbe2b77db3ea14974U, 0xbe1351db3db87298U, 0xbdc76f713e404fc5U,
  0xbe6998e73e9553ddU, 0x3e33726fbe4dd70bU, 0xbebb9bf73e07f6f2U, 0x3d8a7e0dbeac6758U,
  0xbe6ff1473da7d2a3U, 0x3f45a8813f5ae846U, 0x3d811b63bd33192bU, 0x3d4af05c3ecb5607U,
  0xbd3d2e583e31c36eU, 0xbea98c223ebdcce9U, 0x3ea4ff72be11124bU, 0xbea2e0a1bddced79U,
  0xbe2bc6aa3f41735bU, 0x3e8b61ca3ed86bcaU, 0xbca1b2433f6704edU, 0x3f16405d3ece6443U,
  0xbec3827a3efbf49eU, 0x3fa14025bf3d1a11U, 0x3e26f6dc3ea3f3e1U, 0xbd0247363e5deae4U,
  0x3ef22c8bbedbce65U, 0x3ef0fdf63e88191bU, 0xbe4ee112bcd60392U, 0x3ed0868c3e7d2d02U,
  0xbd82e636bd6ec80bU, 0xbe8ff8fd3f34569aU, 0xbd3372683e5aba55U, 0xbe678a973f2af439U,
  0x3ebc0c31be97e690U, 0xbf60e3a5bdb297baU, 0xbe7eaf333ce67407U, 0x3ef6db9b3f029ecfU,
  0x3e0264ff3f336ae0U, 0xbf43a07c3f6b5de0U, 0x3effb5d23dd1b852U, 0x3ef2ae733f0cc260U,
  0xbdac0a963df36a9eU, 0x3e1cd5e93e508d12U, 0xbfa423f53f3e2296U, 0xbf6d1e89bfdfb163U,
  0x3ea18da33f25e509U, 0xbf00b8853a9c990fU, 0x3e2a0110bec333eeU, 0xbf41cce23e340c92U,
  0x3df85042bd7f307cU, 0x3e20cd553f00d65bU, 0x3eeca3e4bf48a40aU, 0xbe494e02bd2561a8U,
  0xbf1d6eaf3f80f679U, 0xbf11a5ba3da9019eU, 0x3f05b386beeff678U, 0x3e0fb3393f2a54e0U,
  0x3f1baefe3ed5846dU, 0x3e9ab26ebf549983U, 0x3e0910673e087d51U, 0x3f1a89883eae8530U,
  0x3f03f11f3e06cb29U, 0x3eb5e337bedf458aU, 0xbf99e05e3f6b4711U, 0x3f202e5c3ea1e6ebU,
  0x3f159f1abd90e93dU, 0x3e454dadbf9f30f9U, 0x3e42138fbebd8ef2U, 0xbf06067abb67df12U,
  0xbe6454903e5ad3ffU, 0xbea913ed3d9f1277U, 0x3e733a1c3f4c5fcbU, 0xbf87f89ebdba2f73U,
  0x3f1b79de3ef4df78U, 0x3ead9843be8855c7U, 0xbe301681bf1d95a3U, 0x3f83ac90bef23e2eU,
  0x3f1def623e829371U, 0x3d019feebfcf7e63U, 0x3f0a2e17bfa071ecU, 0xbe074910bf1e5f04U,
  0xbeacb0783e92b484U, 0x3e3f705ebdae073cU, 0x3e2bcb1fbeb2aa5aU, 0x3eaee1903f0aedf6U,
  0xbe5d6f5bbf6acafaU, 0x3f31c4dfbbac9fb9U, 0xbe32549bbe16c256U, 0xbe97f33d3e933bd1U,
  0xbe18bf57beb6f53dU, 0xbf6627693edfca4aU, 0x3ef4e61c3e37df89U, 0x3ed3a1ef3f444fe9U,
  0x3e3839303fb3797fU, 0x3dd1fb3dbf4e4570U, 0xbef506f1bd7b027dU, 0xbd6f09b4bfbf544fU,
  0x3ce520eabe130d63U, 0xbfad15fb3e5f3b4dU, 0x3f3e145fbf6cc22eU, 0xbf16fe32bedb2d2eU,
  0x3d1347ccbfe3cdffU, 0x3ed05d01bed9cda9U, 0x3dd6bd2d3dd69241U, 0xbef7dffdbf197a87U,
  0x3ed7765e3f4ee455U, 0x3ebb99143e576bdbU, 0x3e0ed448be2d1b65U, 0x3e93a6423dc41ac7U,
  0x3e94bb89bf5f2afdU, 0x3f035eb63ec07f4eU, 0x3e90542fbf8bedd2U, 0xbe171b24bf25183dU,
  0x3f32aa0dbf016c83U, 0xbe6623123df7cb55U, 0xbf65b23cbf0b1917U, 0x3d0293bcbe0dc9a5U,
  0xbe6bdf6c3e8fe9e2U, 0x3f0e268e3da9f284U, 0xbfb7d95d3f08638aU, 0x3d5920e6be009af2U,
  0x3d75f3973de5546dU, 0xc02d4ad03eacf7f0U, 0xbec5817b3e9cb240U, 0x3d29a2bebf214a87U,
  0x3e160c5cbe81cc0eU, 0x3f7faa793ef969ecU, 0x3c9a6fbdbfbafd4cU, 0x3f08615fbf7dda29U,
  0xbf882f4a3e7eb2deU, 0xbd7b019e3ef67583U, 0xbe645e1fbd7d5b63U, 0x3fb33550bfc3e758U,
  0x3ebfdb533e40d3daU, 0x3f172f6b3da89776U, 0xbe7002493f9000a1U, 0xbeea6b8c3e7ad152U,
  0xbefd72aa3c19b5feU, 0x3f81647b3ea4d9dbU, 0x3e985f523f172dbfU, 0xbed4310b380885f4U,
  0xbf1db3d03ebaafadU, 0xbccc300b3f1c4378U, 0xbe879be73f0bfb41U, 0x3c641c5c3ee2b272U,
  0xbe35a49b3f7878a0U, 0xbe9a0c3bbed24d8aU, 0xbe16895dbd67bd28U, 0x3f4282bdbf725e02U,
  0x3f2fde8cbf06d8e5U, 0xbfcf7fe0be93d84fU, 0x3e62c8f83e1c950bU, 0xbf48ed96be252d26U,
  0xbedce42c3f826c79U, 0x3e94ee233e2e0054U, 0xbec1d6aebd2f88c0U, 0xbee43f3abe9ed3a6U,
  0xbd863b25be03c535U, 0x3e893be53e413863U, 0xbe2ff82d3eef9e04U, 0x3f1dd55c3f336695U,
  0x3e15edf0bfba6846U, 0x3fe42ad5bf278e20U, 0xbeb2ce1dbf86ae0dU, 0xbe9cc93f3c16478eU,
  0xbcc1e2313ed87d1cU, 0xbe94c9eb3f3d4b5bU, 0x3cb449e2bf1e45e9U, 0x3ef31e573e53f8f7U,
  0x3dd1c211bec0bf88U, 0x3e9b76943ee2649bU, 0x3ea18cfe3f713f32U, 0xbed320083f482e30U,
  0xbe5b877e3fa252fcU, 0x3de03030be63bbcdU, 0x3e955915bf09a8adU, 0xbefb49e0bdc25cedU,
  0x3ef84d773e9896fbU, 0x3e16906b3f84d136U, 0x3eb61e233f1c6a3aU, 0xbf587cfc3e9cb81cU,
  0x3e8438f03f293ed4U, 0x3e1dc1f13d13ed0cU, 0x3d4cdbaebf2a7bccU, 0xbdf078bcbeeb8db7U,
  0x3d8870643d85b89aU, 0xbea4196a3ddbb1e4U, 0x3f65dc1abea1b90fU, 0xbe6a8d0bbe971c50U,
  0xbc9a97a8bdd942ddU, 0xbd18ff2cbfd81cc4U, 0xbf038446be082b53U, 0x3efdcbce3e0f51a2U,
  0xbd2437f3bd79ff04U, 0xbe18cdc0bee9eac7U, 0x3e6a7283bddb879fU, 0xbeda4f4dbfa5aa37U,
  0xbe99ec6abeae3792U, 0xbf282986be176344U, 0x3e9219d73d650c31U, 0x3ea0c02b3f017806U,
  0xbe7932983e805866U, 0x3f357ef43f02a54cU, 0xbfa8d34e3e097a53U, 0x3f70d0f53f4d138cU,
  0xbf457c5c3eeb7cb5U, 0x3e9ee79a3f20bf93U, 0xbd82d01abf6165d7U, 0x3da2d336be913123U,
  0x3f67311f3ec0d99dU, 0x3ef94799be9ee8f8U, 0x3ec427203bc8a0eaU, 0xbfab117c3f4a68abU,
  0xbdeade1abfb3a0f9U, 0x3ea33b36bc547e1dU, 0x3db112793f1b2ad7U, 0x3e8232713dbab0b9U,
  0x3fe14017bf9b5107U, 0x3d7edd413eccf153U, 0x3e7562ee3d81aec0U, 0x3ebe1dc13e618992U,
  0x3cf44d76be0da6e5U, 0xbe81b60cbe82b09eU, 0x3db81933bfeff62cU, 0x3e966a283f441f9cU,
  0x3f0dffcfbf760a58U, 0xbf9062e4be567bd5U, 0xbec24c6dbf433d22U, 0x3f827a8f3e31b1feU,
  0xbe822c8e3ee3fe31U, 0xbe25f4233e91d8b5U, 0x3e1158aa3e5db2a0U, 0xbda6e39d3eb16307U,
  0xbed6bd6dbf347a6bU, 0xbdc4a61c3daafa8eU, 0x3f310ec33ed4cb46U, 0x3f308c13bee0a407U,
  0x3f02a8dc3ee07279U, 0x3d84c25fbebe7944U, 0xbfec7e07be76a789U, 0xbf0638983f82d570U,
  0xbe2220323f528c4aU, 0xbd6025e73e14431cU, 0x3dd7eaee3e8f5b1eU, 0x3f392ad93ece288fU,
  0xbbb10d033ec26c7eU, 0xbe7cd874be0e789eU, 0xbe8e51fb3e014b00U, 0xbed70d2b3ee1fe08U,
  0x3f387d653f43f277U, 0x3f558736bf374cb8U, 0xbf2ea03abe7d2dd9U, 0x3f6800bd3e7bc99cU,
  0x3ecc978dbb99b2e7U, 0xbdac2eb1be8661cbU, 0xbf70d579bdd6e1b9U, 0xbdd695913f3639c3U,
  0xbdb0cb0bbf1aaf70U, 0x3f06abe7bf8a887fU, 0x3f31b4d73f0a08f1U, 0x3eac7cd8bf2e6f9bU,
  0x3ed35e32bf5d435fU, 0x3f0672373e4c0088U, 0x3ec4d4593d34e65bU, 0x3e26a076bf063d66U,
  0x3f03f18f3f50310dU, 0x3df7ad6bbd1cb273U, 0x3f3e2e98bed001c1U, 0x3f64eadcbeaa17d0U,
  0x3f6229bf3edb79a6U, 0x3c38035f3f282c23U, 0x3d08f1d1bf9a7fddU, 0x3ed5146b3dacf530U,
  0xbf5cc8bdbe97a8bcU, 0x3e32fe33bf4ef062U, 0x3e97a9ccbed393dbU, 0x3f1380c5be924c16U,
  0x3dca3e15beaf7a13U, 0x3ecb76d6bf99e702U, 0x3e1ef3aabeb8b06fU, 0xbf0b99cf3cabb728U,
  0x3ec64b633f185985U, 0x3fa74634bdba091aU, 0x3f04ad9c3f0eb8a1U, 0x3e62517cbf2221feU,
  0xbe0401433ecc4e6fU, 0x3e0e7eb6bf474a8bU, 0x3e8b416cbf248908U, 0x3daa0e523e913ce5U,
  0xbdfd4b003e8fc8c4U, 0x3f26858cbe6b7fffU, 0x3db46a833c79d7d9U, 0x3eae1fcc3ec58f10U,
  0x3e37b6f13ce8ebd7U, 0xbf4f5d5bbe2d4056U, 0xbe52f847be315a6dU, 0x3f08e8f6bc5b3c57U,
  0xbe2ade1fbed67277U, 0xbdc9dabb3c840496U, 0xbf808b7f3de36089U, 0x3eff02123e7731e5U,
  0x3dec274dbf1b100bU, 0x3e8f15e5bf4111e1U, 0x3f83571d3e1cdd09U, 0x3daaa0fa3f48ac8fU,
  0x3eb4b15e3caf6b48U, 0x3ee0c475bd3dbc87U, 0xbd06a90f3e937182U, 0x3e1fe260be85d5feU,
  0x3ec4aa85be0f15fcU, 0x3ddac0d3bec9f094U, 0x3f5ba5983e6b4250U, 0x3bc3d812bdc2f893U,
  0x3f07e1143d205716U, 0x3f373b6abf4b03eeU, 0x3d4c7dfcbf25c664U, 0x3e4f08ecbf7fc2c2U,
  0x3c883369bdaf89c6U, 0xbd732475bf2f566aU, 0xbd5b0a42bedecfc6U, 0x3c1fc8793e4c43abU,
  0x3efe6e3cbe550440U, 0xbf0403b33e7783feU, 0x3deddf6a3f17c3ebU, 0x3e76dce43ea63610U,
  0x3ec306e93b5471e8U, 0xbf161a333e4533f2U, 0x3efe96b63f21f7bdU, 0x3e70b5123eb78e09U,
  0x3e19943bbec018ecU, 0x3f935479bd16cafdU, 0x3e890381bef4fe1eU, 0x3fa5c3ef3f39011bU,
  0x3f5652013d951a85U, 0x3ea3abb63f1d02bbU, 0x3e407246bfb3410eU, 0xbe20ee933f1dfff4U,
  0x3f072013be00b87eU, 0x3c9ae86a3e659c3bU, 0x3d60ed42bf580987U, 0x3eabd3783cf7711cU,
  0xbe1a61b63ed8a0e2U, 0xbf4e409c3e9d1427U, 0x3e8a0942be3b0ca7U, 0x3f178c363e1768aaU,
  0xbf0aa0483e6ddcd6U, 0xbe41626a3c9d6932U, 0x3f236e443ddb28f8U, 0xbdfb4b92be4de206U,
  0x3e10f0ab3dd753cbU, 0xbec053843ef1d497U, 0x3dd0e6d8be37aebeU, 0xbd20747cbecb1e53U,
  0x3e9ddbcdbe590ea3U, 0x3fae6d7abe1577ecU, 0x3e9e72bdbec68d85U, 0x3ee71a44bd1c71c4U,
  0x3e4968a03f86b948U, 0x3e1513563ec04cf0U, 0x3f8193b9bf50cdd7U, 0xbcc91905bc8ebae1U,
  0xbf6b54383f93e8cfU, 0x3f248a6fbe1e532dU, 0xbeaf1cbc3eefe957U, 0xbfd4f8c03e8a1abaU,
  0x3f07932fbed1a09bU, 0x3e875092bf033145U, 0xbdfd8ed73ea76426U, 0xbf5e7af3bed646f8U,
  0xbf617231bc3273d8U, 0x3f116e643ec8a9e4U, 0xbe11302f3e1edddcU, 0xbdd24195bd229e80U,
  0x3f64e24b3eae4393U, 0xbe81e149be0ebf26U, 0xbea67d8d3c0c252dU, 0x3f01eae2be1715e9U,
  0xbf10d2e23e919b83U, 0x3f45edfe3f0a813dU, 0xbee81d4b3f0ef4a0U, 0xbdde6b0b3e9d3b59U,
  0x3f2c5d0abdc6163fU, 0x3f235f83bf911e98U, 0x3ec7deaac00d33e4U, 0x3f0b5bbebc19732bU,
  0xbf8da4e0bea745f9U, 0xbf17ad30bf04f993U, 0xbdba7b98bee98350U, 0x3efe0e9abe17c1e5U,
  0x3d16b2c33ebb38c3U, 0x3dcc27713e11d160U, 0x3e0af482be84029cU, 0xbe01c590bf141da7U,
  0xbcb0f04a3cd96b2bU, 0x3f902ed83f3f1248U, 0xbf3c921abecf7b51U, 0x3eece19b3f314645U,
  0xbf68def7be7697e9U, 0x3f0781843e58692dU, 0x3e7d6253bf3af241U, 0xbf5d01813e81ef3fU,
  0x3e7556da3f03ed86U, 0x3eb6d6113f905830U, 0xbe866b52be926623U, 0x3f41ef193f664f65U,
  0x3f85bf07be68362bU, 0x3f19bb72beafaa0dU, 0x3d2d1ffb3cf82e50U, 0x3e9d41ae3dc45eafU,
  0x3e05068cbeab88bfU, 0x3f2e68123d0bbedeU, 0xbe9b137abdc457a4U, 0x3fa48fc0bf103bcbU,
  0x3ec0db3abf2d72a0U, 0x3ea1fc793f7a9b6bU, 0x3d83b9a7beea6542U, 0xbdbdf60b3e8cb658U,
  0x3dabf63abeb77acfU, 0xbe9941afbc56001aU, 0xbf3a60433e6cfb1cU, 0x3f353308be24c230U,
  0x3e0ead2d3ef09bddU, 0xbe4b51ddbd22ed1dU, 0x3f6e65723f3f6e89U, 0xbebd1122bef38c1dU,
  0xbee4c2b0bee7d69dU, 0x3f8767e6bf6a2e0eU, 0xbf0bb33ebee85ba8U, 0x3ed4380f3d0a0befU,
  0x3e206545be8f4688U, 0x3e0b2facbeeb6627U, 0x3f759132bf862241U, 0xbf1f8e2b3f07adb8U,
  0x3e6240173e98ec19U, 0x3f01fc633ec1d384U, 0x3f047f86bd0295f9U, 0xbc8653edbe6949bbU,
  0x3ed5f8fbbea0ae13U, 0xbf821be6becece2eU, 0x3f4825ae3f46e65dU, 0x3befcbba3d8b8513U,
  0xbf0365ff3de5b3dbU, 0xbe564a38bfeece9eU, 0xbdcb1a45bdae1cc4U, 0xbd51bc01bfdedcf2U,
  0xbe4657e2be527468U, 0xbecaa8853f41a9b5U, 0xbec1afee3e77a69fU, 0xbee081be3edfaecfU,
  0x3f12ddbfbe823dd0U, 0xbd5ba929be94fe80U, 0x3f6a1f46beaa5e9aU, 0x3f747d3bbf4400b5U,
  0x3f48c65c3f93d9b1U, 0x3d030ee33e949aceU, 0xbd05622ebe10d445U, 0xbfabc8ba3ea6425fU,
  0x3f02ec273f211775U, 0x3f362881be42db23U, 0xbe05ec86bde51b41U, 0xbea642a2bc927da9U,
  0xbb50366d3d1cc097U, 0xbd9962403d84c7a0U, 0x3d92fcfc3e8de01dU, 0x3f19e17c3e8821c7U,
  0x3e5a7b293e6d4678U, 0xbeb44e21bf86ffd9U, 0xbe6b9420bf82b38aU, 0xbf3adf82bf1055daU,
  0x3f5c75cb3ef16391U, 0xbf2b99ca3f8b888eU, 0x3df44aa3bef900d5U, 0x3e538df53e582ccfU,
  0xbd2bbafa3edc0fccU, 0x3f874e233df61422U, 0xbd22274abd4b8b5dU, 0x3f907cbdbdddeacaU,
  0x3f1a1651bc9fb501U, 0xbf012678bebe8726U, 0x3e4ab7b7bb8961d6U, 0x3ed30587becbddecU,
  0x3d41a97b3c32df2cU, 0xbf1092383f939724U, 0x3dbbc8573ec354ebU, 0xbe466f84bf2602a8U,
  0x3eb3c2593f18ceffU, 0xbf1d220b3ec40216U, 0x3ee18f7abebdc88eU, 0x3ebc37d7bd8abfe7U,
  0x3e3aa301bf264cf8U, 0x3e82230b3dbd2621U, 0x3f4a8f1c3d2137d5U, 0x3f06ff49bdb6103aU,
  0xbcf854cc3e67ad0fU, 0x3d7fb9903e9ceb13U, 0xbf8a86913d9d3b99U, 0xbef83ffd3ee14dc1U,
  0xbec3d4223f4c6817U, 0x3f46ae813edd6949U, 0xbe8283833e493869U, 0xbdfc7758be248dd7U,
  0xbeaeaa1d3f1685a9U, 0xbe5372d4bf3e8e8fU, 0xbe9c7c7fbe835253U, 0xbe72ded9befdc630U,
  0x3edf5bc6bf61281cU, 0x3ec7bd8fc01f4af8U, 0xbe6c1a903d0218a5U, 0x3dd112133e823d63U,
  0x3e5c5d49bd9f6792U, 0xbf940b1c3e9a1d3aU, 0xbfa73ef03f4ee177U, 0x3ebb4ef0bef7c25dU,
  0x3f369da23e21ba8bU, 0xbf6a5def3f758a55U, 0x3f7bd16e3f5c1aa2U, 0xbe9a398dbe87292aU,
  0x3eda0928bec4b311U, 0xbf65f15a3f2aa4cfU, 0x3f28b70f3f56197cU, 0x3e347824be9778b8U,
  0x3ec1f7763de15c8fU, 0xbe890e603c8db22cU, 0x3ed6ddf63efbc8fcU, 0xbf1d88473f1f9892U,
  0xbdc696c93d1bac0eU, 0x3f5990cc3f01e98aU, 0x3e4522fbbf3fde54U, 0x3e2cd7c6bf089097U,
  0x3e80b35bbf8c39bbU, 0x3db40c71be0b5c00U, 0x3f39d8943f20d772U, 0xbf48af58be8ce52eU,
  0x3dd9ed5ebf02f467U, 0xbd12d213bf82d373U, 0x3e3f8e12bf16c8dbU, 0x3e3036e33eb5b5a9U,
  0x3ed974a1bec008ddU, 0x3e773e10be61143cU, 0x3d84d0ac3e5cdac8U, 0xbf5cb86a3e21954cU,
  0x3edeb3eabf48453fU, 0x3e9a3db2bf1a8ddcU, 0xbca8dd6a3eb2980dU, 0x3ed705303e5ecf62U,
  0x3e9be3043f68c43eU, 0x3f191de7bd27a390U, 0x3eb60bb43e863224U, 0x3e2434b13d44cac1U,
  0xbd97ab7a3d83c40eU, 0x3dfb8f5bbf2dc2aaU, 0xbfac259d3f20f428U, 0xbfa08d373f312bbbU,
  0x3d813a17be67afa3U, 0xbdaa68273f1f2011U, 0x3f16e9143eda5d8aU, 0xbf270c37be843534U,
  0xbe1eb0a3beb7ff48U, 0xbf928f0abd7d78b6U, 0x2a10d270bd87105eU, 0x3f12d7573eb8b46fU,
  0x3d965c34bf15b485U, 0x3c99ef8a3c3bf743U, 0x3f4486cebeed1db2U, 0x3e2079583e6575bdU,
  0xbf78c2743ee7d0bbU, 0x3e8d90583e2a649bU, 0xbed4aceabe383b17U, 0x3ec0b1b63e850d7fU,
  0x3d75ecd3bf2bff4eU, 0x3ecbe7103e93d60cU, 0x3e66a9053ef1c51bU, 0x3edf53123eabed48U,
  0xbed23ebf3e7bec2fU, 0xbe72075c3f3221c9U, 0xbd10d5643ee329bbU, 0x3eae41e8bc59f0deU,
  0x3f0390383dddbcf1U, 0x3ebb3df33d134d75U, 0xbe27e4a73e5f2527U, 0xbf4e7d1dbe727c54U,
  0xbf6acc303e92b342U, 0x3eea6947be91e7bdU, 0xbd81e2fe3ed68248U, 0xbdba08a03d8ae05eU,
  0x3ed409d3bf353cedU, 0xbf3ac0adbfe48773U, 0x3e64fb3d3f1a0f05U, 0x3e1a72ed3efc3bb6U,
  0x3e1ffddfbd94452cU, 0x3da4c7b4bfaea856U, 0x3d57105dbe34824eU, 0xbe67f43cbdd24a97U,
  0xbf33731f3e3e0b30U, 0x3e8898033e158058U, 0x3e9168c5bdd3f397U, 0xbccd07183eaea969U,
  0xbf47f674bda09b14U, 0x3e571129bebbf7b9U, 0xbe848ac63e80f172U, 0xbdeec01cbf1d0b41U,
  0xbd5e268fbd800876U, 0xbf912e0d3daa3814U, 0xbd20105b3f6ad4cdU, 0xbea2ad67bfc26ffeU,
  0xbdb4709f3dbd59e5U, 0x3f5308b5bf1b5bc5U, 0xbea89c95bf00c72eU, 0x3e4e6f19bf14a038U,
  0xbecb4d62bed318fbU, 0xbe2158ebbeed3de7U, 0x3f0d44aabf0201d7U, 0xbef104d1bf802353U,
  0xbd4cdcf5bd73d9a8U, 0x3d44f1d4bf5c82cdU, 0xbe7d0bf93e0aa878U, 0x3e7e140bbd349fd6U,
  0xbf42d6ff3e6398edU, 0x3f17029f3e81a87eU, 0x3f92b1c73ec28a7bU, 0xbf3fd75f3f505aa0U,
  0xbefb3287be19516aU, 0xbe83856d3d716ca1U, 0xbf57b242bfa165b5U, 0x3f8c1cb73f2937b5U,
  0x3ec09390bdeb8dc9U, 0x3e7b8786be48dea6U, 0x3f2ed48d3eeafce8U, 0x3ea3de823e1c45b8U,
  0xbda4f8003ee092c4U, 0x3e76ee783eb6412fU, 0xbfe9b22b3f2256ecU, 0x3f83a620bee3d665U,
  0x3ce2332dbefb6dcaU, 0xbec23918bf59536aU, 0xbefd8be13f1b6071U, 0x3caccf0e3e5c70b3U,
  0x3d8f50e03e80c456U, 0xbf36e94a3f8065f0U, 0xbde467c43f1ab08eU, 0x3f03d5bebe13b00bU,
  0x3f8c3e1f3dae650dU, 0x3e5cdb62be797b09U, 0x3ed78769be72efd0U, 0xbe490d11be11a0a9U,
  0xbe9a397cbf2a15e8U, 0xbecc771bbc03faebU, 0xbcf4d3d33f42a064U, 0xbf49662dbdda1c5dU,
  0x3e3adcaebe1a3b00U, 0x3e517253bfc9a870U, 0xbf05e270bf4adbaaU, 0xc0126bb3be2cdc25U,
  0xbfe15a9e3f2bbd15U, 0x3dcb47c13db2bb73U, 0x3f00f5e83f1fe508U, 0xbe430c5c3f7c024eU,
  0xbfb2a52a3d634acbU, 0xbf077ac9beaec919U, 0xbf939803be2728d2U, 0x3e1babb03f21e6acU,
  0xbe00f2c1bf15113fU, 0x3f16dc1d3f894736U, 0x3d7a8c69bed67c21U, 0x3f37a833bf031928U,
  0xbe809a3c3ee31954U, 0x3f6b31c8be21d134U, 0xbd767f343f05e71fU, 0x3e8036903f0d807aU,
  0x3ea245e3beb03ae2U, 0xbe1686c0bf10aed0U, 0xbee5d08bbea09ba7U, 0x3ec4b8a43f837e86U,
  0x3ed6be7c3de8cd08U, 0xbdf6100cbec500daU, 0x3ef6d8693e8b6ae9U, 0xbf2163e53f97512cU,
  0x3e54baf93eb530c3U, 0x3e7c7e613f5112aaU, 0xbe78a7283ea09300U, 0x3e344ae9bd26bad2U,
  0xbec979393ef9ebecU, 0xbe2a58c23e4ad6c1U, 0x3f0a3343be8471a7U, 0xbd67f336bf11ed16U,
  0x3e3452403dfaba3dU, 0xbf0ab328bf3653e0U, 0x3f48052dbf384cbdU, 0x3f551601bca1f3e0U,
  0x3f1d3a7c3e14e234U, 0xbfa1bb8ebdca9b84U, 0x3e4dce13be7e85faU, 0x3a1bfa1dbe2fedd6U,
  0xbefc2ee7be90358fU, 0x3c5f5293be47f720U, 0xbf07f9ec3ec13a8eU, 0x3db360823ee4be39U,
  0x3f104543bea40e44U, 0x3e88ad2a3d71e4e5U, 0xbe3ba0ac3cdd406dU, 0x3cdb507a3ee73226U,
  0xbe4576943e34da9aU, 0xbee24bbb3ebdbe57U, 0x3e598f893e17998eU, 0x3f09f3353dc27f84U,
  0xbfbe5567bf0c4ba0U, 0x3ec400f83ef2cfbfU, 0x3feee1e63e4beda1U, 0xbe8a40dbbf3a2c10U,
  0x3e0154993f071c41U, 0x3f073bf1bde4ec2cU, 0xbfdb9bde3e0bbb4cU, 0x3fa87d3a3e722c14U,
  0xbf090cc4bfe7089fU, 0x3f01ab413e03ffa3U, 0x3f98b211be099d37U, 0xbec272d53ed9808dU,
  0xbe0942b13cb6d1b5U, 0x3ce4faa2bda3a55cU, 0x3ec200bfbc729ed7U, 0x3e3cc1e63ecee545U,
  0x3e2000ef3ea6656eU, 0x3ee376d2bbceb6abU, 0x3f029fb93e8c48d7U, 0x3d860503bf1b1168U,
  0xbf948fdb3dda3a1dU, 0x3fc2cb46bf2c0da7U, 0x3e5753ea3f014931U, 0x3e67191abf23942bU,
  0x3f9d40233e8bcc31U, 0xbd30e3a03f0a1214U, 0xbdb2e8ae3e335c74U, 0x3f5128f7be52b7e9U,
  0x3d33ea7cbe893284U, 0xbfd615a63e8edaddU, 0xbee2ce60bd894a59U, 0x3ef19f153ee4e6fcU,
  0x3dc4fff33d12b191U, 0x3f0efc983ed733d4U, 0xbc8d4e02be935b65U, 0xbf7a0d54bf970bbdU,
  0x3deb74863f178694U, 0xbe80033bbfc76cceU, 0x3fd69c8dbeea7f52U, 0xbdbdaf403e9056f2U,
  0x3e9cecf93d3155f2U, 0xbfeea0d83f362464U, 0xbe1aac98bf3c5714U, 0x3f023d423f871544U,
  0xbe923727bfccf1cdU, 0xbfcadc4abfbd2ecaU, 0xbe285db6be88b1d4U, 0x3e98f1fcbeb065c8U,
  0x3eea14123d189226U, 0x3f48ce353f997aa2U, 0xbe662491bf51d3ccU, 0xbf7b040c3d88c382U,
  0xbf8739d0bd934329U, 0x3c184f9cbb69a3b8U, 0x3c6ae5dbbfbd3402U, 0xbd9e6307bfb9f538U,
  0x3eda2d1cc002cc23U, 0x3f285ce33e96f966U, 0xbf9a40cbbbddb650U, 0xbeee7e2c3f4713d5U,
  0x3e4709f63e84f650U, 0x3e675eaebf08a382U, 0x3b174e2dbee3e1ddU, 0xbe0f37a4bebdda84U,
  0x3ec9da7d3e01d5bcU, 0x3dedfe0b3f18225aU, 0xbf0262c1bf54ae67U, 0x3f3ebc5cbf3afadbU,
  0xbf0804fc3f038b96U, 0xbf77ce85be4879efU, 0xbe190d743e4498f6U, 0x3ef0c8dd3ed6cf72U,
  0x3e7f17c83f01b4d4U, 0x3f04c278be388619U, 0x3f00201a3ec78de9U, 0x3eddfc4d3f25a5c8U,
  0x3f804336bf58b3b8U, 0x3e4e47ed3f428686U, 0xbe0e38f3bebc547dU, 0xbf6a124a3edd3769U,
  0x3d7b14c0bf4b157dU, 0x3e9181843f6d3894U, 0x3e7ed9433ef111c5U, 0xbf13074f3f82f739U,
  0x3e06e77f3c9c2e80U, 0xbf175244bd94f861U, 0x3e8e508f3b3412eeU, 0xbfb05e2d3e920a27U,
  0x3ea9887dbd8a6b6bU, 0x3d5c6a1b3e5020ffU, 0xbe82354c3e8afe18U, 0xbf98c6763f1219d7U,
  0x3d2033543eeebf3cU, 0x3e6e1e38c0242856U, 0x3b09e94a3cbeb127U, 0x3f86808d3fc35ca2U,
  0x3f2764443f75e070U, 0xbec07858c00740e7U, 0x3e35b802bdce570dU, 0x3ebcc45cbfa8284bU,
  0x3ef4af773d4a4a00U, 0x3f24536a3f38291dU, 0xbfdd7e8c3f86d3abU, 0xbee6a3f4bdc8fe4dU,
  0xbefdc09a3cd52474U, 0xbde469f9bede69eaU, 0xbf11d73bbeab9799U, 0xbeeb8eafbf90134eU,
  0x3ee31a4f3ed02507U, 0x3ebb5db73d196625U, 0x3ea68d88bf9380f1U, 0x3b60c6303eee30c4U,
  0x3f85df5d3e9887a6U, 0x3e67f6883eab2250U, 0x3e5225273ebb2f27U, 0xbf2f1225bf669422U,
  0x3eedc3afbf370c6cU, 0xbf2a2d2ebf2da1d5U, 0xbf4e33e63ee6cd29U, 0x3ec29e5c3d3cf849U,
  0xbe82566f3f2715c5U, 0x3d618d2ebfdeabe2U, 0x3e5977143f0e8ed6U, 0x3ed202f1bf8b4cb7U,
  0x3f07ab62beef32fdU, 0x3f70179cbef6fc8aU, 0xbf30db5f3dbad500U, 0x3e8df06d3f111526U,
  0xbed330623eefdddbU, 0xbd8a370f3c8a81aaU, 0xbf771f2abe3fd18eU, 0x3f33e3fdbd0c48dcU,
  0x3ed02d5f3e817782U, 0x3d32b5133ee059dcU, 0xbf15ab16bea014d8U, 0xbd2a2caa3ecbc632U,
  0xbed671533e5afe96U, 0x3f37d8593d7e9d9bU, 0xbee568d2bc03c6b7U, 0xbf1e857abf5364adU,
  0xbe9f2c4d3e1e3aadU, 0xbe3db802bc82328aU, 0x3ee4a4ee3e22d206U, 0x3edd1fffbd7edb08U,
  0x3f222733bf4897d3U, 0xbe85eb46bed9d636U, 0xbf378336be5b8152U, 0x3eb293643ee4c47eU,
  0x3f643815bf68172cU, 0xbe3b68a53ebdaa85U, 0xbd8f4950bf34495dU, 0xbdfe2c4bbeb5ee80U,
  0xbf666efd3d8e44f4U, 0x3f0dddcebf39558bU, 0xbf361809bed40364U, 0x3ea7a320bf638ae6U,
  0x3f76d62fbf820d7fU, 0x3df74cbabf075b9bU, 0x3e8b76133f33b5f4U, 0x3e26cd393f3a3880U,
  0xbed9c803bf546cc2U, 0xbf8a5d093eadb6eaU, 0xbeadb73cbf25a145U, 0xbeca2c17bfb5650dU,
  0x3e83b97d3b13fca9U, 0x3e98efd43f77e8ffU, 0xbef4b89c3e939698U, 0xbc1573c7bc717b1eU,
  0x3e828cd0be315869U, 0x3e621a373e178f62U, 0x3ed0dd1d3eb3eaaeU, 0xbf0a06c7befbfd75U,
  0x3dc157193dfc5c65U, 0x3eacc6ca3d9296a0U, 0xbde901f53d5a727aU, 0xc01a13763eb339afU,
  0xbd8dbc9bbf433d1aU, 0xbe570eaabefb846eU, 0xbeb66ed73f34f664U, 0x3dc64c0b3eb163c0U,
  0x3f37fa2a3e50ddb6U, 0x3f388978bef68d39U, 0x3f3a83723e95e507U, 0xbc5ecfa03eea97f6U,
  0xbfa1cba23f41a16eU, 0xbf4c817f3e14cd9bU, 0x3e5df30f3ddf29a2U, 0xbe7ff7f03e136860U,
  0x3e9f0d40be2c31c0U, 0x3ee6fdfb3f3e0244U, 0xbea052a9bd244d1cU, 0x3e15e7dd3eb6df1aU,
  0xbf0f315bbdd747ddU, 0x3cd3fad0bec15b23U, 0x3e083780bdc1b152U, 0xbf1e8f1e3f460b20U,
  0xbde09c293e92de7eU, 0x3f24017b3e8b7506U, 0x3dfbc60abf14f2feU, 0x3f4feefd3e67fec7U,
  0xbeb71e32bd292dd3U, 0x3ef0be5a3f61100eU, 0xbf2afc803dc5cf04U, 0xbf3e4688bf0e9164U,
  0xbf7ee9c63d3ea824U, 0x3c4937d63dd57461U, 0x3e2d64d3bec65eedU, 0x3e46fc6cbf3ec6f9U,
  0x3f1046db3e998bceU, 0x3df589093f52d6b1U, 0x3e3dd3c7bd8364daU, 0x3f52087f3f090af8U,
  0x3f3b046cbeecb73bU, 0x3f3be4913eab83eeU, 0xbed1fdf63d5d0369U, 0xbd042ef33efb1b84U,
  0xbeb1125abce2a90aU, 0xbeba64a7bdce1eb9U, 0xbf2dae84be3d856fU, 0xbe6e18babf5a0661U,
  0x3e8d977cbdef2c3cU, 0x3e81b3803fad3d19U, 0x3f04fd0f3f032220U, 0xbf08dee7be6265e5U,
  0xbdea1607bf731ee9U, 0xbf1628293ed922c0U, 0x3d015f0a3f3805d1U, 0xbe7eae4e3f350b99U,
  0xbeb895b8bfb8f321U, 0x3ed33df3bd292180U, 0x3ea0cb383f024cd5U, 0xbe14a3563dd4cc84U,
  0xbf3954cdbde54cdfU, 0x3f9186833eb4a47fU, 0x3f613c4a3ec13b91U, 0x3f0715bbbf00521bU,
  0x3de484aa3ea9b75aU, 0xbecf6817bf1ec975U, 0xbeb4deb4bd14a372U, 0x3ecd9ed73fc6198cU,
  0xbf5528493ee26604U, 0xbf611bf7be2d79dfU, 0xbf657582bead4c70U, 0x3e2c02a83f94f9aaU,
  0x3e9b17a63e064144U, 0xbc831160be6be51cU, 0xbf44bd233edd3291U, 0xbdbb00cb3ed1b9ecU,
  0x3f42343bbd36efe9U, 0x3e96f76c3e5988aaU, 0x3f296949be192005U, 0x3fbaad6cbe8b107dU,
  0xbf2e742d3e40f132U, 0x3df63dacbf1e0963U, 0x3f0351423f9f790eU, 0x3d7b5794be038397U,
  0xbf81997d3e90187fU, 0xbf562873bf670418U, 0xbddbe3c43f2a3a3eU, 0xbec5b1fabdc49792U,
  0x3df6b3ef3f008ab4U, 0x3f9bd1843ee7d00fU, 0x3da1d37c3b7b24fbU, 0xbe5bb1f0bee0886cU,
  0x3e7d70733f231f2aU, 0xbf859645bfcc8eb7U, 0xbe1c92a43f3269cdU, 0xbfcb50c9bf8847d6U,
  0xbd3d7ca63e60b542U, 0x3f51b5723ebb6b93U, 0xbe6cfab83e875701U, 0x3f9231adbe33f583U,
  0x3f20a60a3e506992U, 0x3e0eb130bf146cf6U, 0x3dfd8803be9ad32aU, 0x3f24111fbfa8b10cU,
  0x3e51c3d63e1c7dccU, 0xbd7f317c3f261d7cU, 0xbf3b43d03ee14b69U, 0x3e492589bf41bc39U,
  0x3d8614473ead2a0eU, 0xbfa5f7f8be313b5eU, 0x3eb3457b3f0e2bedU, 0xbeb4fccfbf0a1f82U,
  0x3a29915f3dfe0117U, 0x3dd799b13ea542eeU, 0x3f1277d53f05a3d1U, 0x3d7428babf5aefecU,
  0xbebcc4e83e2bc1b6U, 0xbd99c2123e6fa5f5U, 0x3f6869ab3d38697fU, 0xbef6b418bb2ac183U,
  0x3ec0fa17bf25433aU, 0xbe7323a4bf7abee3U, 0x3fa577523e9a4640U, 0x3eab83cfbd44f708U,
  0xbd5e62513d358e3fU, 0xbf8862283e3a707aU, 0x3eae786cbe7235e8U, 0x3dfcb7c13e137781U,
  0x3e0ca429bec0d10cU, 0xbe421b51bfab2dbdU, 0xbf0b59543f79cd00U, 0x3db082b93ef66fdeU,
  0x3ec48ba63ea7cc7cU, 0xbdcd6b2dbef79ffcU, 0x3e822c8e3d44618aU, 0xbf1d9e343ec19e15U,
  0x3e867df1bedd7dc4U, 0xbe8bfa863ddefeacU, 0xbffd3a163d07c302U, 0x3e8fe0a5be234780U,
  0x3e22b8513dcd80c6U, 0x3ebea2ccbf5a6a0fU, 0xbf126a11beafbe79U, 0xbdb53c153a47441bU,
  0x3e12dffcbe039a8aU, 0x3ea1faa1bfcd1312U, 0xbdb8dc6abf422145U, 0xbf1b68663e944492U,
  0x3e50f3623bde995bU, 0xbdc71a403efb6ea8U, 0xbeade099be765f47U, 0x3e5ad0fabe886e36U,
  0x3e1fefebbe2e2797U, 0x3e996cb53ecd3c89U, 0x3e02ea603f013749U, 0xbef5a0023d4ae37dU,
  0xbd96fd7c3f0240f5U, 0xbc94d99ebf4d1ba7U, 0x3e298f483f68cbf8U, 0xbd7c8ad53eb0a448U,
  0xbce0b3c6bfc4928bU, 0x3efc106f3f2aaf03U, 0x3eaca0a6bf663c7bU, 0x3e270beabe864fb5U,
  0x3f857f26bf678ff7U, 0x3e042705bf16a09cU, 0x3ed1aaf0bebe70acU, 0x3d9604ac4029b865U,
  0xbf2fdd94bf8a9ed7U, 0xc00c4a41bedf4c4fU, 0xbf1b5631be6c158cU, 0x3d93339c3f0e1588U,
  0x3d81f016bd4498c6U, 0x3f3b3d74bd845075U, 0xbf6123f03f06d5eaU, 0xbe9afe8e3f1ab28fU,
  0x3e13fb60bdd2a45fU, 0xbebb77dec00eef79U, 0x3ea59b03bde4be32U, 0x3f456ca6bf19bb80U,
  0x3eed038e3f043438U, 0x3e9f6c45bf33313eU, 0xbe4cf3a33f8cd882U, 0x3c86c74fbf6b060cU,
  0x3d0ca8483f2d6aeeU, 0xbaa278fc3e2ab7e3U, 0x3fad40c73f75263eU, 0xbddaec9e3de6d911U,
  0x3d840dd5be1f2b42U, 0xbe53a9dfbd5b21a3U, 0xbd8799dcbe500547U, 0x3f75adccbfb7ff1dU,
  0xbf0db30bbf20ffa3U, 0x3eb00ee1bfbfb0e3U, 0xbd5314253ed705f0U, 0x3f2b76b13c55ced4U,
  0x3e42e2bc3e52128aU, 0x3e81bf95bef7bc6aU, 0x3e9204b3bf142913U, 0xbf325f6fbe08bc45U,
  0x3f88baa9bfb5b911U, 0xbf9eff5c3a042058U, 0x3f81b89fbe6a27c7U, 0xbe205c1b3e7dfddaU,
  0x3f39a35b3b6a2cbcU, 0x3f127d1d3ceb7077U, 0xbdb1709abe940d99U, 0x3f1b47f43e9d5745U,
  0xbdc29938be435f81U, 0xbf3a5eb8bf92fc3aU, 0xbf2d5b8c3ea81151U, 0xbfec54ec3f139da6U,
  0x3c087afbbde36f69U, 0xbe0d92acbead97e5U, 0x3edf397bbee84819U, 0xbf400ab13c3a7da8U,
  0x3f0944643eeeaa99U, 0xc00da0ac3d906a05U, 0xbea47f4dbf366454U, 0x3eec6cdf3e8ceecfU,
  0x3f1129e73eee3618U, 0xbfb958ffbe8887e2U, 0x3f830c4f3e926471U, 0x3eb3a194bd8a4f65U,
  0x3f5963ffbfa44d91U, 0x3e5439e73e230681U, 0x3e4f5d23be1fe6adU, 0x3f15230bbfb3c836U,
  0x3f1674d4bd294d54U, 0x3d242dfe3ea927a6U, 0x3ecfee09be6b2691U, 0xbf356f713f834342U,
  0xbd655a3b3eea0d1cU, 0xbf8a77443ea29533U, 0x3e4eaa3c3d5f27acU, 0x3f556e503d429ad5U,
  0xbf8107733fa67f17U, 0xbf515138bd8e12eeU, 0x3f40fb673e2cd311U, 0x3c6a19063ea6d427U,
  0x3b6454053f66b7e0U, 0x3ee212ffbfa5ad54U, 0x3e30f5653d9ed904U, 0xbebce18fbd4e66b0U,
  0x3e8124f63f9489e1U, 0x3f79fbd63f706e61U, 0xbf28e28d3e4f73a9U, 0x3f9451f0bfcd0909U,
  0x3e8ffeafbee30accU, 0x3e04c22dbf27b93fU, 0x3fb5b51ebea8517dU, 0x3ec232603ec3e6faU,
  0x3e62c04a3edd79e2U, 0xbffeaac43edc03ddU, 0x3f3f974f3f2b78d1U, 0xbc24bd4c3ee8b233U,
  0xbd9ed88bc005fa48U, 0x3f8164e1c030f629U, 0xbddc1a383f3c85e4U, 0x3e9420fcbdd08f53U,
  0xbf19bbc03ea4df03U, 0x3c88a298bf96f9feU, 0x3e89b4e6bfac9935U, 0xbf4ccc85bd82b6e1U,
  0xbe9ebeefbe19c6f5U, 0x3f1642dd3e5cdd84U, 0xbee593a0bfd978abU, 0xbea4581abf873eb6U,
  0x3e0217c3bf77bdd7U, 0x3e4781ae3f0afe63U, 0xbdffb9febd21f9ceU, 0xbf139a693f4a99b5U,
  0xbda1f5073f19bdebU, 0xbd857031bfdc6484U, 0x3e3e32f8be901830U, 0x3f5019013e184de4U,
  0xbefb3ce0bf32d185U, 0x3db03ce33d857081U, 0x3e5c2d96bf2ac125U, 0x3fabbab63e9db764U,
  0xbfadfb0d3f1775b5U, 0xbd58abbf3d98650eU, 0xbf1c254ebf182590U, 0xbde1ff3fbe8cf773U,
  0xbf252fbb3f32abfaU, 0x3e2143c73e10d640U, 0xbf707ec93d30f024U, 0x3f69b74f3f731913U,
  0xbfdef15cbd3eb858U, 0x3e6f95cd3cbe8632U, 0xbe3639ddbe22998eU, 0xbf13f0493e3ec347U,
  0x3ea99336bcecd542U, 0x3f6832c63f4d3416U, 0xbe27fc9abed5d248U, 0x3c4e887d3fc64023U,
  0xbe2213a23c0c1027U, 0x3e8978f4bf380546U, 0xbea1474b3f20dd8aU, 0x3e91cfcc3ecab6ceU,
  0xb3e4afd5bf969a39U, 0xbf71ae733e8188bbU, 0x3e9d3d15be3c003aU, 0xbf870aaf3dc1f7c0U,
  0x3e87aff4bf12d881U, 0x3ef0c667bf6d4e85U, 0xbe8b2f813e68401dU, 0x3dbf28efbef35a9aU,
  0x3e27cd17bf1eb0ecU, 0xbf9c74d7bf9da883U, 0xbe41bbcdbf4fafaaU, 0x40188406bf6c03f5U,
  0x3eaf32adbf9742bfU, 0x3f26efc4be91658bU, 0xbf8bc61a3f73a7efU, 0xbe036a7c3e99ed3cU,
  0x3f22ba20bead88beU, 0xbe809833bfcc6dd3U, 0x3d81480d3d3e84cbU, 0x3e7d8b06bf69c096U,
  0xbe4ed528bfe70a79U, 0xbde9f541beb12535U, 0x3d7583233bcca47aU, 0x3fa2ed5fbdc8ee2bU,
  0x3eaaac92bf19a14dU, 0x3ec780c2bff3fbf1U, 0x3deff91a3e4f1f88U, 0xbde86d8cbe49a5d9U,
  0xbf327f863ed8bd40U, 0x3e4f12eb3ef317eaU, 0xbee560893ee39948U, 0xbf2a43d2bf0e287cU,
  0x3e3d53303edc3e6eU, 0xbf951628beb85365U, 0x3d5fdce5bd9ff30fU, 0xbf0806003ec34846U,
  0x3e7c48e13e508b45U, 0x3e94c5083fe10ce9U, 0xbfeffe2fbf0f4aaaU, 0x3f3f80b63d4001a9U,
  0x3f2bbf6d3d9c2c5dU, 0xbe64d96e3ed5ee8dU, 0x3ee6dd5abef6124fU, 0xbfafb5273f48e87dU,
  0x3d5ed0143efd692dU, 0x3e163ec03aec2541U, 0x3d8f2b073f6ae81eU, 0xc035a50c3e9e0a91U,
  0xbf1cf251be77e088U, 0xbf27a479bf17d77bU, 0xbeb1053c3b1ed83fU, 0xbec8455bbf5f2627U,
  0xbdd4fca4bf4945ccU, 0xbe2339d63bc336c3U, 0x3e02a4f83e87a688U, 0xbe68e405bef57a8eU,
  0xbd8d07dbbf76c5b2U, 0xbe53b1afbefc13f6U, 0x3e9aae30bf9a8c83U, 0x3fa7e5bb3cceab0eU,
  0x3dadd05c3f0d7178U, 0xbf61bc8bbe5a00d4U, 0xbfe6846e3e0d632aU, 0x3fc295de3f28a82fU,
  0x3be0c8063e96f5dbU, 0xbfabc3403ea0990bU, 0xc0039dc7bfb8482bU, 0x3dc63bbcbfa90578U,
  0x3db6b9a7be90fe2dU, 0x3e969fb63f41b51cU, 0x3ebee1993c528131U, 0x3cc15651be631d05U,
  0xbe6c51e1be502218U, 0x3fd1ad17bead5defU, 0xbd1b47583d816fabU, 0xbeff25623fb6ac09U,
  0x3d988d843f510d4dU, 0x3c3d08b13e4d31b0U, 0x3f07d9c5beb39087U, 0x3ef0fb2d3e91dea0U,
  0x3d7861073e812c75U, 0x3edcd8453e5da5f9U, 0x3e2749f33d9e13aaU, 0xbf00f457bcd7633aU,
  0x3dcba1343f1d8ac3U, 0xbdabaa28bd617f0eU, 0x3eb23b803e20349eU, 0xbf24049cbebd382bU,
  0xbd5543ffbd52be7bU, 0xbe260e183deb7e5dU, 0xbd21ad20be19915fU, 0xbe2d6f0a3d8ad507U,
  0x3e2f5f013e301246U, 0x3e8b70823e0011a6U, 0xbf307296bead420eU, 0xbce0ddb4be39dd2dU,
  0xbe662ba63df754cdU, 0x3f2470383e77aafdU, 0x3d01e47c3e304dc8U, 0xbda2a3133eb624a7U,
  0x3d4a1f573e74ad35U, 0x3ed351cdbe6ef9d0U, 0x3d3d8a08bed15486U, 0x3e965cc6be9cbd0fU,
  0xbed753bd3d682587U, 0x3e00adbd3e98f1fbU, 0x3e5511b3bdc3f8ccU, 0x3f02f1a7bdb3b8baU,
  0xbdca1408be4f07d1U, 0xbde6f7c73e2c6cf6U, 0xbd2c5b5abe255e33U, 0x3dde52fabe3b3f2bU,
  0x3d2ad43c3df70b19U, 0x3f531d263ef06507U, 0xbe5e65c0bf03faabU, 0x3e2385163e9df19bU,
  0xbf1033bbbc9197feU, 0xbda0cde33e3b3ea9U, 0x3e38fbefbe8703e4U, 0xbe9913a53e57b4f8U,
  0xbe39ee163ef1e5ccU, 0x3e56be483f1d8becU, 0x3e02d2353f3e4fe7U, 0x3e2018163ea3d441U,
  0xbdb178863e2f6a34U, 0x3f6e8722bf35ac27U, 0x3e515f8e3d96d13eU, 0xbf0689433e9817ecU,
  0x3f5a0085beb0537fU, 0x3e8bd4c73e40904bU, 0xbda2e9553e12408aU, 0x3ed712813e4b549aU,
  0x3db28f7abdbb4d67U, 0xbdcb85fb3f09b59bU, 0x3e64873ebcafb50fU, 0x3ea081483f20512bU,
  0x3e6798c5bd0fd090U, 0xbf603492beb5024eU, 0xbf5329393ce5dbd3U, 0x3eb912b43c9c9b4dU,
  0x3e44bfd6bef4f61eU, 0xbf558208bf3d6e2fU, 0x3d00b4943f9f8ce9U, 0xbf3a89893e8d406bU,
  0x3ed723523e1c3bbeU, 0xbf747dc83b39ff96U, 0xbf3eed7d3f2835b9U, 0xbe0c538fbf9675b2U,
  0xbec1ced6bfd7eaf7U, 0xbed7e1a2bfa15764U, 0xbeb87ef7bf348680U, 0xbdd868813f120f75U,
  0xbda1eec2beaaa76aU, 0x3dcd9198bf2e3d2cU, 0x3ee45d20bfd629f4U, 0xc0381aa43f19bfd4U,
  0x3d14f4f83e03ba48U, 0x3ee7d3eebc44714bU, 0xbf8b4e11bee00473U, 0xbd6c336abed10303U,
  0x3f1b7944bf8e8521U, 0x3f03b4b33f3ffdb9U, 0xbf755f15bf908a42U, 0xbe6058e73f48d842U,
  0xbdad4fe13e8785aaU, 0xbeb8b678bf75259aU, 0x3f2df355bee77667U, 0xbf35b477bf871ea4U,
  0xbe5b92733e364c97U, 0xbee6ce403f3e1edaU, 0x3c852ab93f413979U, 0x3ea80120be745c53U,
  0x3f81658c3ebf21beU, 0xbe684c0b3efc19e3U, 0x3eb65c7dbc904bd8U, 0xbe8d8faa3de0fd5dU,
  0x3e6136e43ea72e2bU, 0x3f849cacbf8ad8d5U, 0xbddbae6e3d106338U, 0x3f4b59453ec672b5U,
  0x3d6097d3bf589437U, 0x3f19361dbe19ea89U, 0xbe7c3750bd3969a0U, 0x3e98f4debfa4bbcfU,
  0x3f4d46f23e60f38fU, 0x3e801c373e6fc6f4U, 0x3e29eca3bf01a1e7U, 0xbd680ab03fc00b54U,
  0xbe6a5b6d3d9b2d13U, 0xbf915c22bf500a7cU, 0xbcecee6e3f1fc132U, 0x3cbb8a3dbdfe7fbdU,
  0xbebf47093ef6d58fU, 0xbf66f2973f34754eU, 0x3d250c673f6c692bU, 0x3d1bb925bec41587U,
  0x3d4195f83f6fe447U, 0x3f195344bfbf98b5U, 0x3e7d68093eaccab8U, 0xbe1abb3fbe9fbbb4U,
  0x3e9d41cb3eb68e05U, 0x3f071708bee3b019U, 0x3e795f993ec6eca9U, 0x3ea0de50bfcf8e54U,
  0x3e81e5693e828ec6U, 0x3ed1fb393e89b0f8U, 0xbd7a2f02bfca4ebfU, 0xbeaae420beadae3aU,
  0x3e8845c43eaa6815U, 0xbf9dc996be9c9b4bU, 0xbdcd98013ea33060U, 0x3e2962c2be788ee9U,
  0x3e825a10bea5e3feU, 0x3f4342633d7f311cU, 0xbf4d2a2d3e45cfccU, 0xbd0cb89e3d305b81U,
  0x3ee4a4003ec4614fU, 0x3de6fd7c3e802e43U, 0xbef91bb83cbf7774U, 0xbdbcbc9e3e8341c4U,
  0xbe041a5cbef2fafdU, 0x3ee539f83f2d91b0U, 0xbfd30f67be298769U, 0xbea4415dbd753934U,
  0x3ea932913eca78f9U, 0xbe9756563f43daa4U, 0xbef8b245bd8535f4U, 0x3f5d6de43f5dba75U,
  0xbd360efa3f0cca82U, 0xbf38d9903f140b20U, 0xbed927b0be10f9c3U, 0xbc8da0103e9020fcU,
  0x3f01eb163fa9c36dU, 0xbe8f7d063ede3c26U, 0xbe7926303e007aceU, 0xbe0598193e98d812U,
  0x3d015e5e3f829a6bU, 0x3eb601623e9862a3U, 0xbebc4fd43f08f7bbU, 0x3fa2b77abd9cb9f3U,
  0xbef8c1223e3edb09U, 0xbea46d3abc1eec2fU, 0xbe64cfe23f3bbf8aU, 0x3ea5cee73f1f204fU,
  0x3ef6e77a3f2eed99U, 0x3f97fa0b3e0be30fU, 0xbeeef33cbd68d2a2U, 0x3ed69b2b3d930860U,
  0x3eebb8eabf185722U, 0xbf692dbebeb31d30U, 0x3ed7b7653d7ca09aU, 0x3f174a1ebf1c5419U,
  0xbe270f493d658f51U, 0x3e1c145cbf249665U, 0x3b180f17bf931582U, 0x3eea6601bf34f588U,
  0xbd1e05a63e07783aU, 0x3f2d1f4fbeca2700U, 0x3e526dc4bd4d22f2U, 0xbcb44699bdb29de7U,
  0x3d83d5c63d656951U, 0x3ec6f6883ec90c34U, 0x3f2521d63f2349dbU, 0x3e61ba41be737234U,
  0x3eb1a8193f2b9cb1U, 0x3f7615fdbf758047U, 0x3fa0a4983e6cdb0cU, 0xbf4d3c153f8c7e4cU,
  0x3ecc49123f201de1U, 0x3e981d303ea012a4U, 0xbe2cbe893f2a8276U, 0x3f5645ff3e047f6aU,
  0xbe9e98093ebd833dU, 0xbe9cc3663f005972U, 0xbed0690abf213cceU, 0xbf493eef3e495004U,
  0x3f10c0253ec9092aU, 0xbe2399c13e6af8e8U, 0xbf8012033ddff64eU, 0xbf86f5d8beb515b9U,
  0x3e262d2e3dfa2130U, 0xbe6893763e20ba83U, 0xbf3aa3ef3e2956a8U, 0x3dc5d2b6be2ddf28U,
  0x3efec0d83f2ed4e6U, 0x3ea6de973e9d8402U, 0x3e541289bf6e480cU, 0x3eb40bf9be903509U,
  0xbe14311f3ec1e964U, 0x3ed0e7c03ed25e27U, 0x3dadc1453ea7bf9cU, 0xbea047533d95eafcU,
  0x3ee374003e93cff4U, 0x3f5d956bbe67efb8U, 0x3ecc6c08bf7a029fU, 0x3e9c738f3e5d043cU,
  0xbf3fed6bbcaaa5bbU, 0x3d9cfef5be235c39U, 0xbf27de10bf16ebb1U, 0x3ecaabfebedeb5c5U,
  0x3e1dd6ac3f2c0b0dU, 0x3ec596583de22e7cU, 0xbf2383ecbfb7ac8cU, 0x3e160011beaa1231U,
  0x3f03cf0dbf80228bU, 0x3e3d0a3c3f9c5c12U, 0x3eb08ecd3d68ae6fU, 0xbe9fde263df98f5fU,
  0xbda39f713d45bc39U, 0xbe68a796bf2415c3U, 0x3e611ff43d3fa40dU, 0xbf278bc1be303a79U,
  0x3f5f6c3a3edee3eaU, 0x3e84f833bb4f9b0cU, 0xbea594c73ef78959U, 0x3f5060e73eec9999U,
  0xbf2d58503f202cc6U, 0xbf8ade813b98b67cU, 0x3f00e4203e99e1b2U, 0xbefa6804becf8e93U,
  0x3f042a1f3e4b4bf1U, 0x3e3528c03f196bc0U, 0xbe383de4be661284U, 0xbec650abbf880fd1U,
  0x3ebea59f3e8340a3U, 0xbe545e8b3f00fca0U, 0xbeb838e33ebbfd62U, 0xbefbdcae3f1950caU,
  0xbf08bf62beff11e5U, 0x3cdfcfadbdfbd802U, 0xbf203cdc3ec48540U, 0x3f07b9dc3ed348f6U,
  0x3e958dd9bdaac775U, 0x3e8325b03ec44d77U, 0xbf890ce5be49e69bU, 0xbef1777e3dcd246bU,
  0x3ebb71ff3df8192eU, 0x3d19674dbf8b3be3U, 0x3eb3181f3e8e96e7U, 0x3e5ba716be3ce783U,
  0x3e827f3e3cfb7739U, 0x3ebf08053ece4354U, 0x3ea574e73df87d38U, 0xbf6463613dea440aU,
  0x3d05453fbf02b169U, 0x3d9e25b8be61ead0U, 0xbe3781323ec077a2U, 0x3e614e353e3c445fU,
  0x3efd8f38be5eb40bU, 0xbd741db83e590eefU, 0x3e3fb2ac3e24d4a8U, 0x3e4f6f99be640931U,
  0xbf33e96f3ecb62ceU, 0xbdac2ab93e78f23cU, 0x3eb87fda3e9e9205U, 0x3eede651bd68be19U,
  0x3edbfb613deebd30U, 0x3d5dd11c3e873772U, 0xbd94ccd3be6b2fa0U, 0x3eebbb463ec603e5U,
  0xbedcdad93e21c6a0U, 0x3db6c2a7be8a03e3U, 0x3b4a79ae3f05d057U, 0x3dfa20623eea73ceU,
  0xbcdb917c3e8fb064U, 0x3eba6bf03e9542b6U, 0x3e7c6189be0022b9U, 0x3eceb248bd9a092eU,
  0xbf1324353e974ad3U, 0x3dc06be73f26b63cU, 0xbfa05f733e4a342aU, 0xbde7d34abe4b034dU,
  0xbf8ba911be47d3c8U, 0x3bdfecf43dbeededU, 0x3e51b40e3e1ed3cbU, 0xbe6c76963e9652d4U,
  0x3c4dcfef3f96d216U, 0x3e97499e3eee2ee0U, 0x3e7fb77c3de8e73bU, 0x3ee6333abf4a644aU,
  0x3f8242133e4e0667U, 0x3fa417713c338581U, 0xbeac96333dfc854bU, 0x3f356c773f308462U,
  0xbee1bbe2bf3bcfefU, 0x3ecdce8cbde61ce6U, 0xbddfe2c4bf623fe7U, 0x3d8b8ca1bf060db3U,
  0x3e3fca4e3dc1a17eU, 0x3e5ea3e93fb71327U, 0x3e8615943eb5a239U, 0xbf0516a3bf0dd2a5U,
  0x3ebb49e8bf2f27d6U, 0xbf36a59ebdcfac08U, 0x3e2726f2bec78c62U, 0x3f03d8903e6a431bU,
  0x3d598fea3f01ee26U, 0x3de3505bbe3fd5bdU, 0xbfaa02d9bf0145bbU, 0x3edb44b63e31aa8bU,
  0xbd0cd6c5be94f2dcU, 0x3f443fc6be932d00U, 0x3d3c1b843f044843U, 0x3e6f137dbf41270aU,
  0xbd8caca13f23f861U, 0xbf2d68d3bf087eceU, 0x3daf7fe43ed79f3dU, 0xbf2779553e533035U,
  0xbccdcc843f561f0cU, 0x3ee11c8ebf57f1dcU, 0x3c98a4cf3f31ad1bU, 0xbd17cbfb3e11ed00U,
  0xbf305f0dbf0af37dU, 0xbe5de2ccbe31a5f4U, 0x3f2d14acbefff6beU, 0x3e2e59bfbeaa33adU,
  0xbe229e673e16dbf3U, 0x3f41e71d3dea3a3eU, 0x3f4f1402be9bd3b6U, 0x3f65c55ebe8a980aU,
  0xbeace3cc3e367890U, 0xbdbc6d34bfd66f04U, 0xbe9d2da93f3aef11U, 0xbec651053d873aedU,
  0x3ed90478be5ec66cU, 0x3f06c0ab3e2d9968U, 0xbd9f109d3f77763eU, 0xbf430f793f0e0d1bU,
  0x3c04200cbd9f97c1U, 0xbf02b6123e6bee62U, 0x3f802b4bbe4dffc8U, 0xbf6722da3ee95265U,
  0x3dff9712bf0d7e05U, 0xbf67a2a5bf64e5eeU, 0xbf031cd1be918e33U, 0xbec53e38bf622b10U,
  0xba875f603f27badcU, 0xbf4649c4be8e4405U, 0x3e46a5ee3dc87444U, 0x3ec9e43b3e258b7eU,
  0xbe18b7a4bf4e7fcbU, 0x3ed901e1bdfd8902U, 0x3eaee800beb459e9U, 0xbf0662613e87efe1U,
  0xbfb343f73f2299daU, 0x3f9a513b3e8d48c5U, 0xbdf4621c3d1256e5U, 0x3f0c29ad3eb8a489U,
  0x3f8c5e3fbf8bd9d3U, 0xbef3f6b73cf45277U, 0x3f078b74bd562ce3U, 0xbe6a96aabf5f6331U,
  0xbded760a3e01a63aU, 0xbe5a87ed3f52b6d7U, 0xbbc3ff51be572bfaU, 0x3db1b36ac046f34fU,
  0x3e388d6ebea09ad1U, 0xbfd2e6ea3ecded2dU, 0xbec1f05fbed225a2U, 0x3d70661fbedc451cU,
  0x3e99bebf3edbc4a6U, 0x3d23dbd3bece7050U, 0x3f3dcaa1bf0bc015U, 0xbed6f096be93b684U,
  0x3f114d163dd4368cU, 0x3edcecd9be8e22beU, 0x3edd4f67bd8ff36aU, 0x3d9e72dd3f3583e3U,
  0x3ea328aebbee82d6U, 0x3f134d73bf06fcfbU, 0x3e3446bdbe40baa9U, 0xbe7eecaebe061460U,
  0x3ef111303f04b691U, 0x3dc7de3cbde20884U, 0x3e55747bbf8ab59dU, 0xbf4db084be398abaU,
  0x3d5c667bbf0e1b48U, 0xbcf2fd97bf0b28c7U, 0x3e42a858bee0fb0aU, 0xbd74efd3beae81a8U,
  0xbf3e4bc3be3998ddU, 0x3e8d78d8bdc792b6U, 0xbfab0ea13d7c6920U, 0x3c9146b33d367a89U,
  0x3e7ff17cbe33efd5U, 0xbf1d4947bda226b1U, 0xbe404ac8bf2352c3U, 0xbd9ef8d33eb0f08fU,
  0x3e88d1363d3f492bU, 0xbd5634e9bdf9fba3U, 0xbf76b4ec3ca8f8c1U, 0x3f17af5cbef90ab5U,
  0x3f0e627c3efa948cU, 0xbefd12bb3e720097U, 0xbe1cbe923f20029eU, 0x3ebedbef3eca8e21U,
  0xbc6c46fa3f4da83fU, 0x3f3e93ff3f2b8bb1U, 0x3f4a51b93ea82af4U, 0xbeb9f6e53e355116U,
  0x3e8aae953e8eb612U, 0x3dc251d53f82c25fU, 0x3e1564143e98bf56U, 0x3e771d013ed09ab6U,
  0xbe8a12943de1c30aU, 0xbecc99b13e0adeceU, 0xbd8374cfbe5b545cU, 0xbe6501d1bf253365U,
  0x3f4fd869bf1156b6U, 0x3d0c40f43e2c0799U, 0x3e45cd50bc699eb0U, 0x3e9845673efa7ff9U,
  0x3f8a6e2d3dfc072bU, 0x3e9ba72dbe9ef318U, 0xbec1bf783dcd0ea1U, 0xbf65f9d83edc8e86U,
  0x3ea741a33d4ba1d5U, 0xbe3ab34f3e0d57efU, 0x3e1aeb403edf8bd4U, 0x3f38861f3faf8f22U,
  0x3f2116d4bf53e547U, 0x3f5f33fe3f078d6eU, 0xbd95fc99bd5cc668U, 0x3f264716bd8a2dfbU,
  0x3c2fc6a43eae3744U, 0x3d508cf3bf239b4bU, 0x3f932da33e96c641U, 0xbf2ba9c83efffe47U,
  0x3e0de4743de00d75U, 0xbdf2d447bed83873U, 0x3ea974ea3f809021U, 0x3ecff188bf8b3a7fU,
  0x3dc29a89bf0650d7U, 0xbebdf228be6ed9b4U, 0xbf3f890c3e251525U, 0xbff71b633f0badb9U,
  0xbf124bc63f0c1642U, 0xbd8c6edf3e21aa7fU, 0xbc0c1b5fbefc3c31U, 0x3cff92e53ecdca26U,
  0x3fa37747bd99e74fU, 0xbeeef0233e87fa23U, 0x3f22944cbf994e18U, 0xbe6b6684bf3dc3eeU,
  0xbf10707dbc32e9d7U, 0xbf83ab783e877d33U, 0x3d06e5fdbf5666d0U, 0x3ff2def93bf160ffU,
  0x3f37f5d83e9d95c6U, 0xbe511ae0bfb72414U, 0xbc4ae370bd814b23U, 0xbf72b68f3eae02a7U,
  0xbf558a233e125597U, 0x3eec9de63e3c87adU, 0xbfd307c3be13a92fU, 0xbecebdd23f30842eU,
  0x3f981ad83f1d2b7eU, 0x3e16980a3f030f3aU, 0xbea68dadbff583eeU, 0x3f1e2fc4bc2052a1U,
  0x3d9dedc63e019d2bU, 0xbe1c6747bf6a9f9fU, 0x3f485c363e6c29d9U, 0x3f0907ec3ecefae5U,
  0x3eeb9e933c56b43dU, 0xbe81aacfbf57711cU, 0x3d7d91873dfb3d06U, 0x3e53c5bfbf9b7da8U,
  0x3e5cde3b3f2db7f8U, 0x3e8d981fbe54921aU, 0x3e8a3aa63e3676dcU, 0x3e8e797bbb806ce9U,
  0x3f1d43dd3ef859cbU, 0xbf34a8c43e9b47d0U, 0x3ef5026c3ee75cc8U, 0xbf13ec24bec21210U,
  0xbf55a33cbeff443aU, 0x3f03ffdf3ea79d4dU, 0xbe3fa04fbf17375bU, 0xbec8ec97beb5b0f9U,
  0xbeb31af03efe5064U, 0x3e0b54c03cd4b739U, 0xbdc49b963def02dfU, 0xbf6b6a4dbf6e622cU,
  0xbee0d248bc216577U, 0x3e2f0dd83d39ff72U, 0x3ebc90ffbee9f382U, 0x3fddf86c3e4ee916U,
  0x3e1e056c3f5fef1aU, 0x3bac31ebbf5b9de4U, 0x3eac587d3e7e4341U, 0x3f15a1743cc4b222U,
  0xbe6193f9bf5c3c2aU, 0x3dd8006bbebdbca6U, 0x3eed9c0c3f51be13U, 0x3f6887e8bfa81c8cU,
  0xbea4975c3e51fc6eU, 0x3de23a5ebf87ba1aU, 0xbdbf5c413eaa2e1bU, 0xbea919343f8563f4U,
  0xbcd3277e3f43fdb4U, 0xbd698a7f3efb12fcU, 0x3f20ed153d03ce3bU, 0x3e177cfe3eafc817U,
  0xbf49bea4bf9b2226U, 0xc062222ebea4dbb9U, 0x3e961b3cbe1db232U, 0xbe276323be90073bU,
  0x3f458333bebc27dbU, 0xbf4b04eebe4ce77cU, 0x3e38763abea5dd58U, 0x3e9e1e443ecf4866U,
  0x3f5d39eabe6da8bcU, 0xbd4f69f13ece93c8U, 0x3ee37a893f06616aU, 0xbf10e5b63f42270bU,
  0x3e99c506bf442481U, 0x3f0a782e3f2702b1U, 0x3df0b179bf3db456U, 0xbf7158993e526d5aU,
  0xbea9647b3d52c879U, 0xbc1f8b9e3e74260cU, 0xbd653415bf9fa089U, 0xbed53f2a3d9c69b5U,
  0xbe08f6943d1fb3bfU, 0xbfcfffac3e81dea8U, 0x3e232eaf3f9032a1U, 0x3f89b48b3f297ca6U,
  0x3ec033cf3e00aa6fU, 0x3ea7acf13efef698U, 0xbcb7f136bfe6be30U, 0x3f6455b3be4bd4b7U,
  0xbe5b387b3e906986U, 0x3d65b654bf192467U, 0x3ecf2b77bf46e7a1U, 0xbf2d1dee3cb6b0a4U,
  0xbf1960783ee1ae7eU, 0xbf2eff7d3f4840d2U, 0xbf1aad11bddc78e3U, 0xbe25611c3de0554cU,
  0x3f2130ad3e9e1c08U, 0x3f18ed61bf4a66bbU, 0xbecd4c4a3f6302c2U, 0xbfc34f42bd0783afU,
  0x3eb32370bf562e23U, 0x3f4a3df73eafe3aaU, 0x3e87faa5bec7a7deU, 0xbdf5c13bbed63325U,
  0xbf8ed58abe421545U, 0xbfdb38793e4873a4U, 0xbfa459df3e8c625aU, 0xbed620c8bfa5c5e8U,
  0x3e8168fc3e81736eU, 0x3e8704ee3e6c503bU, 0x3f88a3b4bf37b6cdU, 0x3ef654593d8b41b6U,
  0x3ec2e7ab3eef6f23U, 0x3f01e78fbf537f38U, 0xbe315611be54d382U, 0xbe2be7033d9c18d8U,
  0xbead91e43cf760e2U, 0xbe67c6203e41de8cU, 0x3ea443e5be5fc608U, 0x3d35159dbf574ffcU,
  0x3f0c2555be9e226eU, 0xbe8ff0c93e8cfe90U, 0x3efc56063ec96e2eU, 0xbe5f03a93d9c3554U,
  0x3e44167bbf058639U, 0x3e8f12693d9448d4U, 0x3f10a82cbf59fba4U, 0xbd9d1c47bf1d359dU,
  0xbea7b32cbe27bebfU, 0xbe7ad59f3de0c9b7U, 0x3dc7be1f3df07409U, 0xbf87bc623db099f2U,
  0x3d10d1df3de433ceU, 0x3dc412bf3d241af0U, 0x3e91fd8fbcfce4c3U, 0x3cb5438e3d2ac107U,
  0x3e907c673eb1aefbU, 0x3dcb505a3f1345a6U, 0xbeef5c24bf5dd725U, 0xbe0ebbd4be1e7a0bU,
  0x3ed0feb93f35798dU, 0x3d11429f3bf0962cU, 0xbea29ca83dc2bed3U, 0x3e0408e23f011f3bU,
  0xbe4911543f5818a8U, 0x3f8f6d5e3e3d0bc8U, 0xbe975d95bcc6763dU, 0xbf25b7843eb36803U,
  0xbf00bb7ebef94112U, 0x3c233a4c3ed0506fU, 0x3dfea6183f010211U, 0x3e342f78bf20626aU,
  0xbd82d6003edac5b4U, 0x3baf93d43eb2564aU, 0x3da1a6c53f2bfc07U, 0x3e9b9c4bbed9dc73U,
  0x3f9868f43ebd3891U, 0x3f1610ee3f06b9a3U, 0x3de9ea6f3dc98276U, 0xbeb5bdc93f2f5049U,
  0x3e00bf96bed5dbdfU, 0xbdcd721f3e2c6c10U, 0xbe9df6e2bf9b3bc6U, 0xbbba6f6c3ec9d558U,
  0xbd1423f63ebc68c2U, 0xbdb7d27f3f4065a3U, 0x3dc23c2b3f041e5dU, 0x3f10e848bd17a37eU,
  0x3eaf8d84bcb359acU, 0xbea871f83e8a7a99U, 0x3d554955bdf93eb4U, 0xbe668fb1bf078bbaU,
  0xbd52a7f0bd55f512U, 0xbc150686beb55488U, 0xbfe402bebf61f65fU, 0x3e4eff853e87ba00U,
  0x3ef1b25f3e70940dU, 0xbfe6dd3ebffa0ce9U, 0x3e0e31d7bf40dfe5U, 0x3f8a57ccbf1d416fU,
  0xbe3f43e8bfd65759U, 0x3dfa9b953e6c1fffU, 0xbe3131b4befffe26U, 0xbea084263b8fd6cdU,
  0x3eab11c1bd82524fU, 0xbf82ff4ebf9dd054U, 0xbf209cc93f6a797eU, 0x3f72391d3cc61421U,
  0xbec1da6bbfdc5af6U, 0x3e55b6633ed0450bU, 0xbfb899a43fcaede5U, 0x3b6c7202beed3626U,
  0xbfb762c43c8bfd42U, 0xbdc978e33e018a31U, 0xbf79f9adbdbea2a8U, 0xbe7716443f047b3cU,
  0x3f6ff6ef3dd78901U, 0x3ed7f461bf71d827U, 0xbe44f978bf9114adU, 0xbf083ebf3e6574c0U,
  0xbbbe77803ec5c7efU, 0x3e941ae93df68b50U, 0x3e5cea93bf024d46U, 0x3f3af2793eea0b5dU,
  0x3ee8da313f6d55b8U, 0x3f56d8eebec1eb99U, 0xbf54fef13e477201U, 0x3f2af0223e7153cfU,
  0xbfa1b5743ee40d55U, 0xbb107428bf71c269U, 0x3f97a5e63ed851faU, 0xbf3c48d63e9cc528U,
  0xc02ea180bec1849eU, 0x3e5cdc37bc2c52f7U, 0xbe3e686c3e7af936U, 0xbd54a0283e741975U,
  0x3e5c58e53f26f39dU, 0x3e0d6e1abe18c87bU, 0x3e56a0413ec5e9c7U, 0x3f241131bf56cf1aU,
  0x3f452c9a3db05786U, 0x3f5409ffbe258febU, 0xbf6793fe3e831bd1U, 0xbfac11993e3ac747U,
  0xb84a38093fd0c5f9U, 0xbd1439e4beb58481U, 0xc030b9f3bf7aa8a0U, 0xbed29e59bd67894aU,
  0xbd4d7a863ec13c4fU, 0x3eb453b73ea11df9U, 0x3e2559c73f230c98U, 0x3f1804c23e8e819dU,
  0xbe6eb9943f6ced9fU, 0x3fd9e366bfc30e8aU, 0x3f0d64613f38c07dU, 0x3f2856443ec0bb73U,
  0x3e802b0b3f3b02a1U, 0x3eee54063d738eccU, 0xbf13f8c0beb8fd76U, 0x3ec58b53bdf0d29fU,
  0x3d7b3d3d3edc820bU, 0x3f5b85b63f1a014aU, 0xbd19ba6abee6b404U, 0x3f0b6c2f3dbd0d85U,
  0x3e8215913f114626U, 0xbf07bd383df0464cU, 0x3f742c213f494d39U, 0xbe7548e83ec99073U,
  0x3ee2afffbf7c3119U, 0xbeddb2393e3a94aeU, 0x3ec6ef2dbde86edbU, 0x3eb6528bbeff8e58U,
  0x3da515993f45d63fU, 0xbe062bd2bf0d807cU, 0x3f5e65cdbea92c52U, 0x3e66116bbdff69cbU,
  0x3de432d23e4f00fcU, 0xbe595a92bf303434U, 0x3ed249e43f3630abU, 0xbdda6836bf1f2741U,
  0xbe440b80bf201407U, 0xbd67c7753f2df572U, 0xbea011ed3e628b11U, 0x3f67c5db3f03e4a1U,
  0xbe6596f23ebdc0d6U, 0x3c5c492f3e5b3556U, 0xbe96a7723eb5556bU, 0x3f978556bf352769U,
  0xbe4d8cf8be9e9041U, 0x3e2d4f533eaa937dU, 0xbf1cc73a3e09c381U, 0x3f13e7a93ed94ff0U,
  0x3eb9a55ebf69969eU, 0x3f5b70443f1a938aU, 0xbe34b39f3f048f72U, 0xbe892349be699d72U,
  0xbe511e62bec3cce8U, 0x3e043d59bd4ca57aU, 0x3ee8ab143e73b030U, 0x3d87dfe3bea78088U,
  0x3dce0f1e3f84e62eU, 0xbe996dcb3ea7907bU, 0xbe41be383eca3037U, 0x3e9807b3bfcced83U,
  0x3d88f407bf8e5cf4U, 0xbdb337763f2285e0U, 0x3e001491bec82d8bU, 0xbf708ebd3d361201U,
  0x3fc43c30bf2d6349U, 0x3f2e9b44bf4057bbU, 0x3cb05912bf46abd0U, 0x3e7c011cbb3da71eU,
  0x3ee5baf6bf2660f9U, 0xbf3a0ba53fac0151U, 0x3f0382033e8c160aU, 0xbcb91f543f4969aaU,
  0xbdff172ebe883922U, 0xbf2ea1083eeefea3U, 0xbe8246183e566477U, 0xbe839e61bf36b31fU,
  0xbcfc1d68be4b6a21U, 0xbf26ddc4bf09be32U, 0x3e306d623edaf7acU, 0xbf312b7e3eaeab02U,
  0x3ea38450bec55d47U, 0xbfe3de3c3f4289f8U, 0xbd8b0ff83f59f473U, 0xbd9e8c0d3e947d75U,
  0x3eee0b00bea2b729U, 0x3efafa91bd8978e7U, 0xbf841c06bd9d04eaU, 0xbf2a99703e676104U,
  0xc005bcef3e2dd2aaU, 0xbdd18ee13ee19c5bU, 0xbec9286e3c9e6e64U, 0x3ec5bc983f6fdba3U,
  0x3f06ff953ef7b271U, 0xbe1d44023e17a07eU, 0xbf40690abea6e368U, 0xbee3fe1bbdf18ca0U,
  0x3f0e1a7bbecfc63fU, 0x3f2fb5583f80597fU, 0x3ee6039ebf1650cdU, 0x3e4112e53e30c348U,
  0x3d8f99f63dc20ac8U, 0x3f5db25abeef3068U, 0xbd9f975bbfbfbea0U, 0x3e12d255bf21a08cU,
  0xbfa1c24ebfb38df7U, 0xba9abf04be9d7d99U, 0xbedbff7d3f39ae32U, 0x3b8636a33cb0e19fU,
  0x3ca2ea6f3f41c89eU, 0x3ee0363d3e0eef4aU, 0x3eb080003f552014U, 0xbf833261bf016851U,
  0xbeddf88b3ed50187U, 0xbee167033ca4cf1dU, 0x3eef12ef3ea88c24U, 0x3c65a2223d6c68f2U,
  0x3e4d7a1d3e9475feU, 0x3e443522bba49cbaU, 0xbe67f4d7be806591U, 0xbf1ac02bbecdc295U,
  0xbf8e4f203e6e06ebU, 0x3d51291c3f7ac3cfU, 0x3dddcdf9bf827b2fU, 0x3eb8b0123f022230U,
  0xbf7ca4263f5238caU, 0x3f02e8e4bf9cd9feU, 0x3ec39add3f0b6136U, 0x3f1ebbb3bdfc5875U,
  0xbfa0e3ee3e95453aU, 0x3e70f6953dbcdb0fU, 0x3ce1d0bd3f2cb2ccU, 0xbec53b963febd363U,
  0x3d08d9473ef76993U, 0xbf0bc181be7ef356U, 0xbee5b8a73dca96d6U, 0xbe2719573dfa7f96U,
  0x3e99579cbd161c98U, 0x3e2cf475bfd793c4U, 0x3cacb5cfbfa155baU, 0x3f84e19a3f20f8e8U,
  0x3e7ae0b83bfe12a9U, 0xbd144d3e3ed5add7U, 0xbf1008eabd64d6dbU, 0x3eb6b4383e827eddU,
  0x3f2725f1be4befb8U, 0x3d1e1e0cbeea7974U, 0xbe4d2f39bec1bd84U, 0xbedb6bdabfb3e430U,
  0x3f1191e03e75a9f6U, 0xbd8695dabed40558U, 0x3e255ebd3e947a46U, 0xbf4916993f134569U,
  0xbf2e6675b914e1b5U, 0x3f0ff36cbef6d9e7U, 0xbd85389abe95a0c6U, 0x3c762bdd3ea0bea4U,
  0x3e2adf2ebf2a8285U, 0xbe5035493df45b54U, 0x3d6b8f7f3deee2c4U, 0x3dddc4fa3e4fdd36U,
  0xbddb50cbbdae2467U, 0x3ebfbff3bf04935eU, 0xbd2ff8af3e38faa2U, 0x3eb03cba3ece4bcaU,
  0x3e811518bcb459acU, 0xbee4240fbfe87b52U, 0xbf0ea12bbfa279b7U, 0x3e60b8df3e509300U,
  0xbf0d7c3e3e3ce79aU, 0xbd14c096bfade900U, 0xbf44f6383db4de9bU, 0x3cba0c603f3b7cd0U,
  0xbf135c1cbf94f085U, 0xbf4764723ed6d8a0U, 0x3eec81f3bf985bd2U, 0x3e76446dbeee471eU,
  0xbd2198d23ddd5762U, 0xbf2d28653ef8d349U, 0x3efe5335be60f0feU, 0xbe4e8bc5bfaa9047U,
  0x3e9f05ef3ed8ed65U, 0x3ead3e4e3d60a499U, 0x3efafd5fbf109c80U, 0xbccb5aab3b9636f4U,
  0xbf2244c6bda2f429U, 0x3c5fd6753f450d21U, 0x3f2d87d9bef26415U, 0xbd97949bbf6724f7U,
  0x3f3c51e43ea49029U, 0x3ffbb1073eca2863U, 0x3df7c35ebd2a8241U, 0xbc1b73953ea8a8f2U,
  0xbf36da8abec7d23dU, 0x3f176a03be6774a7U, 0xbf233b2ebd6b7f1aU, 0x3e4698753da0d418U,
  0x3ee0d0483e7d6e8bU, 0x3e0881d03f276286U, 0x3ed07e373d6cb93aU, 0xbec9fbc5bf61f0baU,
  0xbe17388a3e33c23bU, 0xbd9625d53ea7efe7U, 0x3e3c0785bf253375U, 0x3e789528bf1ef814U,
  0x3eed65943f6cd064U, 0x3edf27493d926361U, 0x3f8cfb0bbcb667d3U, 0x3f7ac8d0be747aadU,
  0xbe954d713eda4735U, 0x3d2447ef3e4618c8U, 0x3ef82e62bf9172a7U, 0xbe20800fbcd04f41U,
  0x3ed3d8123f431a96U, 0xbec556223d87b656U, 0xbf7df49ebdcccda5U, 0xbfca0e99bdc9cfd7U,
  0x3e04bfdc3e95e8c2U, 0x3dc9e503be555e69U, 0x3eeb6eee3cfa2985U, 0x3e6007d1bdb12457U,
  0x3ed24d093de4a5bdU, 0x3e99e9813e906b3dU, 0x3e590f4cbf2ee0fbU, 0x3e9b17e2bdaa7a38U,
  0x3d5922a63ee2a6c1U, 0x3ec7008e3d5cab6dU, 0xbdcf2b313e4079c8U, 0xbf1a3d92bea21ba4U,
  0x3ea5a9073d908d71U, 0x3f0a214cbecd1fe7U, 0x3ebe50f33df15073U, 0x3edab93a3ea98ba4U,
  0xbec69ba33c9df5d3U, 0x3da6818d3d091269U, 0x3ceb10d0be52cde7U, 0x3eee8011bf8d23f6U,
  0x3e11878f3eb57961U, 0x3e72381f3e1d616fU, 0xbf1563e5c0051213U, 0x3e032ae73d081fd9U,
  0x3e645f5c3e84cafaU, 0x3f8134353f7f77aaU, 0x3df81ca33e843701U, 0xbe8f33503e8b52d9U,
  0xbeb66208be19a5eaU, 0x3e561800bec0f84dU, 0x3d0d9cb83e732378U, 0xbdd66115bdc41d96U,
  0x3f2b7ab4bfc4daf8U, 0x3e9195bf3f10a718U, 0xbe148ba23ef9a2ffU, 0x3edbe104bef8007dU,
  0xbf4645db3eca18bfU, 0xbf618b463ec21ac8U, 0x3f11e8923ec8c229U, 0xbf5b2260be12f5cbU,
  0x3fb630c93e3e7fd0U, 0x3e97dc3b3e95712aU, 0x3d17cc85bcb2458aU, 0x3e8d9b623ed2c643U,
  0x3e876ddb3dd98831U, 0xbe115400bf11295bU, 0xbda395a73e7858b0U, 0xbe9e13763f30bce2U,
  0xbeaa4762bed5ace8U, 0xbfd4e5793ef74726U, 0xbf06f4a5bf293b7cU, 0x3f1e0aba3f18bbdfU,
  0xbb111b44bef3eecbU, 0x3e68d8fabf1148e0U, 0x3f1dec34bd1af9cdU, 0xbf03d2703d9fb770U,
  0x3e968c5a3d0aed3fU, 0xbfac5a343e367965U, 0x3e419157bd4a508cU, 0x3f4e3c4b3e10476aU,
  0xbeafb0c9bfc5ce4eU, 0xbf8085bbbf054c20U, 0xbea22b493eede70eU, 0x3e1a3d5b3e217189U,
  0x3d4f38dbbeb9b303U, 0x3e87844cbd719606U, 0xbedbc5df3e48ab21U, 0x3e8ba09a3d5b1173U,
  0xbec95d863f027576U, 0xbf14b26fbe2f4e48U, 0xbef538633ef7da9fU, 0x3d902faf3e7ecc3eU,
  0x3f5b287bbe486fe7U, 0xbe91f844be6e8f4eU, 0x3d460a813e1c6142U, 0xbe333fc73eda9aa9U,
  0xbe222f5abd67dff5U, 0xbfcb54673f5fdc3bU, 0x3e5f0343bf670f4aU, 0xbe4d3acdbecc57edU,
  0x3f0845743d90f76aU, 0xbdf4afd43f253826U, 0xbe75ac07bdc0ed0fU, 0xbf4480853f109816U,
  0xbe3f7170bc021a43U, 0xbe2836e43d9776c8U, 0x3def14aa3f0e8d5bU, 0x3eda8bc73edb4980U,
  0x3ea89493bda2259dU, 0x3e2496d6be796facU, 0x3f24abaf3eb620beU, 0x3db3d2f8bdbc22cfU,
  0xbdbea1f9bf0436a9U, 0x3ee131143e0c9462U, 0xba98c618bd6b9b42U, 0xbe16215bbf1165f2U,
  0x3dafad423ca235c1U, 0x3beea8783e8c23bfU, 0x3ecb799cbcde5027U, 0x3d8c8bac3dd00a52U,
  0xbe1a34cbbe5fe5e9U, 0xbfc43a813e1e545bU, 0xb8d470123dcdd209U, 0xbd33c1073e45cd18U,
  0xbed234c23f5b2559U, 0xbf68eeb1b9e6f51dU, 0xbe265d593ea03506U, 0xbf235c3b3eb0441bU,
  0x3e0d38663d1c6e73U, 0x3eee2b66c025a3eaU, 0x3f113f99bd0cb02bU, 0xbe8aa98b3e7d15d2U,
  0xbe9b229d3f89003dU, 0x3f6e0d82bf06013eU, 0x3e908533be8e0f44U, 0xbec6ac0cbf58a3e9U,
  0xbd4e4723be929a08U, 0x3efd13a6bd8cc338U, 0xbebf3afc3f2c7f2fU, 0xbf3cb01ebdd8e383U,
  0xbeb09ace3e851871U, 0xbcfda45d3d76db06U, 0x3f189598bfb1b665U, 0x3f06ef48bf73849eU,
  0xbf22d07abdeb4046U, 0xbf851c8e3eb4356dU, 0xbe6a321d3dfaeaf0U, 0x3f82ce5ebf0a6e1dU,
  0x3e76eab0be6481d1U, 0xbf1bbffb3f23c53cU, 0x3edfa279be811f6bU, 0xbc4f818d3c0501f6U,
  0xbf29ae6bbed2ceadU, 0xbbda59443e0c81efU, 0xbe621d56bdbf5293U, 0x3d57ec2e3e9a7201U,
  0x3e5b83d6bdbdcd6aU, 0xbf5572e83e750168U, 0x3e82d2d4be12bc82U, 0xbf46d5e13e978fb3U,
  0x3d4346093e034cd8U, 0x3cfc50e23fab1166U, 0x3e2b4d03be63812bU, 0xbf59db5d3e84a894U,
  0x3efbec113d832556U, 0x3f0f939c3ec5433eU, 0xbf5e30ccbffb79a8U, 0xbd8060da3eb58f0dU,
  0xbfbe0cfe3e06fdb6U, 0xbe8ab9cebec01038U, 0xbf0b8382bf8dbe65U, 0x3ec6075f3d654799U,
  0x3ea03370bd8b47a1U, 0xbf38702cbf8c92b9U, 0x3fbe53353f38f10eU, 0xbe2229653eae5e3fU,
  0x3fbe1f02bfb96bc8U, 0x3e27801fbeb5898aU, 0xbe95b4663f047dcfU, 0x3ed3ffd5be8a7c87U,
  0x3dd3eb52be92c923U, 0xbe665f713da541ebU, 0xbdc4af28beaf4c38U, 0xbe41bdd63e1dc6afU,
  0xbe5c76653c9c6060U, 0xbe6dfddf3ec32b03U, 0xbec79a243d6da284U, 0xbd3a5569bf27d791U,
  0xbf467c7ebee1a644U, 0xbf494e79bec8fc59U, 0x3ec30e2bbd9743cdU, 0xbe958a293c3d56a4U,
  0xbd14a8b03ee9aa6cU, 0x3eebd234bf9415c6U, 0xbdaa15a93e12c565U, 0xbf4948413f98a43fU,
  0xbf425c4cbebfcd47U, 0x3e8202f73f26c588U, 0x3d493cb9bf740537U, 0xbeaa082fbec552d8U,
  0x3df4479dbe9c7788U, 0x3ebc252bbf9baf2aU, 0x3f9c6ab83f048f8aU, 0xbf773d5bbe16fa04U,
  0xbed527bdbedb8350U, 0x3f360905bc833d11U, 0xbf140defbf150df9U, 0x3f1b72f73e6296c1U,
  0x3e877e03bf6532cbU, 0x3e48f4e9bed32f08U, 0xbe9ea1f8bf9638b9U, 0x3e8f17403d3cb66cU,
  0xbe42987f3e2ca933U, 0x3ef6f470bc31b0dbU, 0xbe7a153f3f04f11eU, 0x3f1b18f53ddcba36U,
  0x3e8a6bcc3cba811bU, 0xbee8e0edbd312f4aU, 0x3d3773a53ee825b6U, 0x3e96238bbea06939U,
  0xbee4918cbe8bdca9U, 0xbf0f481ebf2d5289U, 0xbebab6a53e959c9cU, 0xbd963cefbeeadb25U,
  0xbe15a090be20e768U, 0xbf5782de3ecad0b3U, 0xbf13c876bf52bb7aU, 0x3c4e9cdfbcc8f790U,
  0x3eeed160bd2f8f70U, 0x3e34801bbdbef146U, 0x3e934d443dddc127U, 0xbe9327fdbfcf9c2cU,
  0x3ea63e7a3ebb5e43U, 0x3f4ec3103ea03baaU, 0xbca9df9e3f109299U, 0xbf12c7dcbdb5cfa4U,
  0x3e2707c1bdd6534aU, 0xbe528ed53deff5f6U, 0x3f4ac590be13abc5U, 0xbef9478fbf6e86c0U,
  0xbef0a4e3bf0a13dfU, 0xbd2837ef3e8a1301U, 0x3eb8f22abcc170ceU, 0xbeaaefb1bef6ff5bU,
  0x3ca0d737bfb9636aU, 0xbde04773c022baf2U, 0x3e3396fb3d8970deU, 0xbf0b0a75be517147U,
  0x3f3568793e2e4278U, 0xbfae5bf53f8858e4U, 0x3e68ccbabe1ea790U, 0xbf161faf3eebbf53U,
