/**
  ******************************************************************************
  * @file    network_data_params.c
  * @author  AST Embedded Analytics Research Platform
  * @date    2025-04-11T00:18:08+0800
  * @brief   AI Tool Automatic Code Generator for Embedded NN computing
  ******************************************************************************
  * Copyright (c) 2025 STMicroelectronics.
  * All rights reserved.
  *
  * This software is licensed under terms that can be found in the LICENSE file
  * in the root directory of this software component.
  * If no LICENSE file comes with this software, it is provided AS-IS.
  ******************************************************************************
  */

#include "network_data_params.h"


/**  Activations Section  ****************************************************/
ai_handle g_network_activations_table[1 + 2] = {
  AI_HANDLE_PTR(AI_MAGIC_MARKER),
  AI_HANDLE_PTR(NULL),
  AI_HANDLE_PTR(AI_MAGIC_MARKER),
};




/**  Weights Section  ********************************************************/
AI_ALIGNED(32)
const ai_u64 s_network_weights_array_u64[17933] = {
  0xbf6e134cbdf05dd6U, 0x3e7c0fb1bf428043U, 0xc029554cbf2f3295U, 0xbe3f7adcbf5056caU,
  0xbc740002bf0e5565U, 0x3f21e20fbea221f6U, 0xbc232bcebe976e93U, 0x3ff052933f3eb9ccU,
  0x3c2e72aabfac4ac0U, 0x3e660d353d9091c1U, 0x3de251ce3e96bf60U, 0x3ef1c174bd220299U,
  0x3f99af6d3fd13de3U, 0x3e8bd8453ff8d5d0U, 0x3e7b8ae13ca7d762U, 0x3edce5af3de3c1b4U,
  0x3f3307efbea59d70U, 0x40302190c0120331U, 0x3cced779bf9e5b61U, 0xbdd92bb2bea47a5cU,
  0x3fb1885ebec6a7b1U, 0xbdf2f03e3f06dbbbU, 0x3e5af50d3f403381U, 0xbde56964bd77521eU,
  0xbc1d26543d4ddcf5U, 0xbeb36d2cbf174cf8U, 0xbf889c49bec3c3afU, 0xbfaca695bf9b418dU,
  0xbeb206333f6e977bU, 0xbd9746f13cc51fabU, 0xbf5a7486bd260238U, 0x3f4bf2b4bf754f0cU,
  0x3fe74d053e9310b9U, 0x3d9f0583bf36225bU, 0xbe20fa243d9dc4d2U, 0x3ee78430bde52931U,
  0x3f1024c2bf43b6c4U, 0xbf75febf3fb6f38fU, 0xbe450c99bf82fff0U, 0x3d4800283eb2677bU,
  0x3ea7c058bf2f0e8eU, 0xbfb185433eaab80eU, 0xbe0602343ebb9f85U, 0xbd2190d3bd8f3ce7U,
  0xbdd5db343e00bd49U, 0xbeb32e033e85aa10U, 0xbf268d113e93f6acU, 0xbfd039d4bf81ed66U,
  0x3ec6d117bd24dc2fU, 0x3d4d72393ccbe9b3U, 0xbed912943e80abc8U, 0x3e0bc490bf371821U,
  0x40133b21be80924dU, 0x3d4f2e743da34de8U, 0xbc6e5491be427278U, 0xbe9b85c53e9a14a7U,
  0xbfb267debf94fa0bU, 0xbf6c9f3f3ee84561U, 0x3e16abacbfc0973eU, 0xbe1e82873e5734aaU,
  0x3edd741fbdefcb3eU, 0x3f1692e8bf5bf53eU, 0x40163d0b3ecd6c25U, 0x3cdfa0b5bf81d080U,
  0x3d89c709bb1467a0U, 0x3f5dd4cebe3e9471U, 0xbe104065bfc1e885U, 0xc001f2673fe27193U,
  0xbf1747583e8863eeU, 0xbdbd574dbb0a3eb3U, 0xbf3c4968bdc2f137U, 0xbfb675c3bd240a7cU,
  0x3faa62f73ef69e6dU, 0x3dee4415bfad8021U, 0x3d14e433bddc8e4eU, 0x3f6aff5fbf235602U,
  0x3e71beae3ef0b3e8U, 0x3e4c56103f2e5daaU, 0x3e9766b14002edceU, 0xbdf345263d1949cbU,
  0x3fa569993f036db3U, 0xbcd1cf13beaa1e1fU, 0xbefbed68402494bcU, 0x3e4c6b34bf45c923U,
  0x3d0200323e143d12U, 0xbc523f06bf649e45U, 0x3ea0992fbf09b762U, 0x3f2275b03e51ed59U,
  0x3c7d08b73fc8e890U, 0x3e104c893cc5ebd6U, 0xbf1a545fbeb8de72U, 0xbdaef649bdab62f7U,
  0xbfd2bf6cbeb83fe2U, 0xbe624bf63e834451U, 0xbe568341be35daa5U, 0x3efdaef2be4ef7ceU,
  0x3f4d811bbc871c96U, 0x3fc9485ebf04beb8U, 0xbb9edfaf3f6833d5U, 0x3e9c9f79bdad826cU,
  0xbf100bfbbf364e13U, 0x3e3080283ea692c3U, 0x3fa3ec103f92ee97U, 0xbd8715263f340ac7U,
  0x3df6240a3c909aabU, 0x3d87f286bd4fa3e1U, 0xbf93bfb9beb21f88U, 0x3f994be53cea3c29U,
  0xbc43d7a03f89ecd4U, 0x3c1efbc4bdc5c2dbU, 0x3e4562a2bc0c526eU, 0xbe81c98ebf64c526U,
  0xbfd4b76e3f8fe26dU, 0x3e106302bfe87772U, 0x3da85f68bde46dd9U, 0x3fabb9e73e9ea6ecU,
  0xbe6c50f7bea31da5U, 0x3fda18c4bf96a38eU, 0x3ce7a0b53fafd878U, 0xbd12d02e3d585d89U,
  0xbf84a245be3806ebU, 0xbf683e1a3e13480bU, 0x3e455690bfc99089U, 0x3e0a7de7bfb9d188U,
  0x3d20a1343dd76526U, 0x3f193bbebf6355c6U, 0x3e796606bf2147f3U, 0xc04d278b3f8a6b1bU,
  0xbe881ec53fd5368bU, 0xbdd04c5d3d397486U, 0x3eb6f349bca8b028U, 0xbf185534befbb9dbU,
  0x3f31b6b83f712be9U, 0x3f07ae95c020ee52U, 0x3d15350fbd866f47U, 0xbe90e006bf583c4fU,
  0xbea6088b3fab0027U, 0xbd8b3682bf03fb49U, 0x3cf120ae3fe6116aU, 0x3d621e86bdc07f61U,
  0xbddb76c9bf616807U, 0xbec09b12be09b5beU, 0xbfd89cf63e1f4f26U, 0xbd94287f4015db4dU,
  0xbcf580293ca10cd7U, 0xbfafcb2d3db369bbU, 0xbe99a26fbf9c81a7U, 0x4006a274bed5ee38U,
  0x3e82e2253f803bf5U, 0xbdb941c03e9e33f0U, 0xbfaaf8e53ee871d6U, 0xbeb2c680bf929e77U,
  0x3f5a9e453fb261b3U, 0xbee15d223f795ab3U, 0x3d35eec1bdda83d1U, 0x3db88dfd3e24c8f5U,
  0xbee11694be1c46e7U, 0x3fbd9220c00ced5fU, 0x3d8f92adbf7b7b5eU, 0xbe5aec0a3e47957bU,
  0xbfd0ec71be97cff8U, 0x3e9dc1ec3e958ac8U, 0xbf7cfb0e3fdd343dU, 0x3d88a34ebf85b6d3U,
  0xbda132523dba5bd9U, 0x3f98584abf1aa05aU, 0xbedf9f2a3e6c450aU, 0xbf747caa3f5c06f7U,
  0xbc35ded63f9fc653U, 0xbd47e56ebb2d07bfU, 0x3ca0bb7fbe05108cU, 0x3ef7d1d0bd54b741U,
  0xc04559f53f133af2U, 0x3dc7536cbf89e1bbU, 0x3e02de20bdf91500U, 0x3f138e8a3f114e5fU,
  0x3f97e0e5bd8ea48bU, 0xbf805c863f65f4a4U, 0x3d94e4a73f020454U, 0x3e5be9db3eedac07U,
  0xbea6b486be3a469aU, 0xbebd7db63e89fb61U, 0x407e20cfbf6da926U, 0x3da3cc05c0098b8dU,
  0x3db7a05f3e39f1f8U, 0x3e3170453e1ed493U, 0xbd5d75e6bf77a4abU, 0xc04c48efbd425b0cU,
  0x3e1cad393f91686bU, 0xbdcb83f8bc7a6555U, 0xbf041c5a3e55ab0eU, 0x3e6247e13fab3d14U,
  0x3e831d2fbfb19d9fU, 0xbf301526bf18b2a4U, 0xbdcacf18bef15dd6U, 0xbf17e6fbbef0cc6aU,
  0xbcf31030be37dc87U, 0xbfa503364010d5d7U, 0x3d2d3e6bbedf2e3bU, 0xbded7afd3e6bafbfU,
  0x3de229ec3deaf7c6U, 0x3ea754103e7fcbecU, 0xbea37d63bf03c3d2U, 0xbd35243bc052bdf9U,
  0x3dc448ba3e17d9ddU, 0x3cb9f0b13e30c972U, 0x3f02b2e1bf25bc51U, 0xbf85be893f11b77aU,
  0x3e874ca83e8e0d61U, 0x3c481a263e1491c8U, 0xbf2636d9bd026217U, 0xc0087a42beb674a1U,
  0xbe830b1240038e72U, 0xbe87800f3b6dd2e5U, 0x38d2e835be4340bdU, 0x3e94a4e73e80aee0U,
  0xbebddc1a3f470e5aU, 0x3fc959aa3ea44e0fU, 0xbdbb901bbef4dc35U, 0xbe0b2f033e3366f4U,
  0x3e2c43f73f14b060U, 0x3f05579dbdc4c51cU, 0xbf710c56bf3dc6a1U, 0xbc3855273fc14e39U,
  0x3d816cecbda657aaU, 0xbfd161bf3e4f859eU, 0x3f327dd9becbc220U, 0xbe303f3dc03599aeU,
  0xbea769a23fa4621dU, 0x3e17725cbd451fe8U, 0xbea48a3a3ef8f2b0U, 0x3e16bfe93eb95bd5U,
  0xbfd2ed8b3f900ad3U, 0x3da3395bc03ad4c6U, 0x3d85932e3ed7b9f6U, 0xbf2ac775be4d11a3U,
  0x3f6fce91bee8413bU, 0xbeb850ffc004942aU, 0xbf5eeae53f289fb0U, 0xbe5145d0bea9176fU,
  0xbf3655123e762087U, 0x3e41e0e4bf7b0cf5U, 0xbebfefddbecddff3U, 0x3dff1ff53b91f994U,
  0xbda4db95bd793d8cU, 0xbee71ac43d9fc62cU, 0x3f779b843f42e1d6U, 0xbdd5e8bdbfaa601fU,
  0xbe1819373f46b9a0U, 0x3c524f703eb22321U, 0x3ea736433e1f51c9U, 0x3f0c8fcfbe6b3a2fU,
  0xc0266288c00258f9U, 0xbd80d7e2c03451d1U, 0xbe06b7b43f03a5a0U, 0xbc0048193e957fa4U,
  0xbef9bf43bd52a88aU, 0xc00222c13f04368cU, 0xbe02dcd740181092U, 0xbe464954beb48c53U,
  0xbf9dd3c2bed48aefU, 0xbf86f1d03f46dbdfU, 0x3bc6b8a13e091736U, 0xbd8d65df3f6f2600U,
  0x3d1b70bf3d0732a9U, 0xbead6c15beeb418aU, 0xbeb0fa5abded2f10U, 0xc01678f1c0428cf9U,
  0xbe4e9a41bf97ffbdU, 0xbb937b1dbd855f06U, 0xbfa64fc13e00ef5aU, 0xbfe97052bb2752f5U,
  0xbfaf5cb0bfb64aecU, 0x3e26730a3f97b11eU, 0x3d958ba2be2632f3U, 0xbd917dfb3e4f9ed8U,
  0xbdb5e54b3e159f4dU, 0x3f47881ebfa296efU, 0xbece169b40264513U, 0xbeab9902bdae6df8U,
  0xbd049352bc1561a2U, 0xbfc99bc73dc79f6bU, 0x3fd32f33bf720aa3U, 0xbd5b6804beeb371dU,
  0x3d3c9199be7f756eU, 0x3f2f26aebf316b9bU, 0xbf038498bd711c9dU, 0x3f86844bbe92a402U,
  0xbececd713f9adae3U, 0xbdc7fd333dd68c15U, 0x3d9f9f06bdbb5064U, 0x3f37731cbea3db88U,
  0xbf0f9522bfa3699cU, 0x3d0e97873fd11758U, 0x3d1d4c543e680c94U, 0xbe871a43be6799f5U,
  0x3e83dee73f313a7bU, 0x4027e1e53d1026c6U, 0xbbbd0b0fbfaa786fU, 0x3e80801dbe15d72dU,
  0x3d9770d7bd7f9d61U, 0xbee1cf44bc3e2633U, 0xbf6e311fbe96ebe4U, 0x3ee848303f6d4bf2U,
  0xbe08bd32be998b0cU, 0xbfae001f3e22a398U, 0xbf1fff2dbf291aa0U, 0xbec5d1853f8caed8U,
  0x3ea9a820bf22ced9U, 0xbe3ce59b3c164c09U, 0xbecae06dbdf95a21U, 0xbf71de783eca9c30U,
  0x3f4486023fb7a168U, 0x3cb85febbfd564eaU, 0x3dd738f03e18532fU, 0xbeb4c0983e462024U,
  0xbf54060cbeb017e0U, 0x3dd422d03f7a5d37U, 0xbd688b953fb830b3U, 0xbc974f33bb3a38d8U,
  0xbf876eb43d95b9d9U, 0xbd1db5393f502635U, 0x3eb05d7ac066bf64U, 0x3d47e0abbd9565f1U,
  0x3df7a3acbcf0744cU, 0xbf22289bbe3fb98fU, 0x3e02d1133ef6ba57U, 0x3fed2406bfc763cbU,
  0x3cdab554be29fe1aU, 0xbd5072783c4eb70bU, 0xbec30fe3be12621aU, 0x3f3d1ddebfa32ff7U,
  0x3f924d093d0d05f7U, 0xbed89a303efa3b45U, 0xbd8701103d4c406eU, 0xbe27c1dcbe132681U,
  0xbfac466dbf083562U, 0xbfa06f9a4043f2a3U, 0x3ebec9edbeddb7cfU, 0x3d647415bdc7345fU,
  0xbf783b9d3d683940U, 0x3f549080bf348c71U, 0xbf88ba2bbf3296b8U, 0xbde964373f0f408aU,
  0xbc0078dd3d958a4aU, 0x3e0d75eb3e83312fU, 0x3e9b8091bf63d53aU, 0xbf06d37e3ecac1b4U,
  0xbddb96ffbf999f55U, 0xbd096397bdb1d702U, 0xbfac840fbe6cf2a3U, 0x3e2d0c3c3f4f52b1U,
  0xbf22d0ba3f4600e3U, 0xbe73cce13d8005bfU, 0x3db424313e378e29U, 0xbf21a99f3cd9a1e4U,
  0x3f7ac0203e455622U, 0xbeb73b37c053c9f6U, 0xbd46c4833f0519f5U, 0xbe27b4793cdd0351U,
  0x3c971a8f3dbac502U, 0x3e0a12f83f795246U, 0x402a95fac0059b6aU, 0x3c666671bf2415d4U,
  0xbccc3ddb3b977b5eU, 0xbd968a2ebf920c51U, 0x3f692be83e209fbdU, 0xbff06e503f00997cU,
  0xbe0adcb03fc172f2U, 0xbdaf68e7bd9029f3U, 0x3e774156be5ee183U, 0x3f6388563f529ef6U,
  0xbfb8c705bf3d12e6U, 0xbe0815da3b661bd3U, 0x3e23224d3cd78498U, 0x3f699880bf40e4f9U,
  0xbf930a3b3ea8716cU, 0xbf17b7b8bfa34217U, 0x3c36dab43eb7dcecU, 0x3d85c8353baabf6eU,
  0x3da33d3abe84f8d6U, 0xbd678f0fbf44e836U, 0xbf225e083fc295bbU, 0xbd8369d43e48116dU,
  0x3e1bd94e3e059f36U, 0xbe8c5f04bdb36110U, 0xbf1a8c7dbef639e0U, 0xbfa5b3cac0252082U,
  0x3e8858ebbf3006a4U, 0xbbb1fe323e8df7a8U, 0xbe893d95bdb53e95U, 0xbfabd2fcbf4601faU,
  0xbf0d6b1dbf8271c3U, 0x3dd0538ebeb479dbU, 0xbd9091aa3d379c88U, 0x3ed0d5823e0fd26aU,
  0x3e93136f3ee06263U, 0x401426133ffa37c7U, 0xbe78ebc83fec7b62U, 0xbb96cfd2bea9a646U,
  0x3edf01843e6db48cU, 0x3d290d45bfb2f60eU, 0xbe5c8794bf6199beU, 0x3dd021033fb6d91aU,
  0x3d8dd2efbe7b2106U, 0x3f20eeb8bf884a90U, 0xbe332491be1434e0U, 0xbf8dcb2c3fd8277fU,
  0x3d749c0d3f723884U, 0x3ca1448abd0cef88U, 0xbf00c3c3befb59c5U, 0x3c807e4bbf3ad75aU,
  0xc0240ee5bf978bf6U, 0xbcdfa64c3ef16b00U, 0xbe0089e9bbd3dcf9U, 0x3e545c683df300a7U,
  0x3e3dd1e03dec4cfbU, 0xbdc4ebf53fa3f94cU, 0x3f04ed263fdf3268U, 0x3de96e1cbf0d12e0U,
  0x3fb5a4313e82bcf5U, 0xbf867e45bed1f5c6U, 0xbfc4736f3eec26dfU, 0xbe7194c93f3fd94fU,
  0x3bfde659beb5811eU, 0xbed730e63bc6d042U, 0x3e6b2c39bf6152ddU, 0xbf5926f6c03fc705U,
  0xbeaa6e9dbeb3548dU, 0xbdc1199ebe34d5a6U, 0x3f220999beb5dd8eU, 0xbe2dc22b3d09b95eU,
  0xbf475c4b3fdbdb74U, 0x3e10d22b3d1940b2U, 0xbe04276ebe8857c3U, 0xbf5edd763ebcf62dU,
  0xbfc1253e3ec83837U, 0x3dc870b640028596U, 0xbe607b9a3f000ecbU, 0x3db73c97bdafe19fU,
  0x3d9604e9bd1d3860U, 0xbf68f2bb3f729bc6U, 0xbd2d2a373fcfbcdcU, 0xbe1a812ebe4cd310U,
  0xbd5abbf4bce3da3cU, 0xbe4d8d6e3f18b0c9U, 0x3ea072d7bee29cfbU, 0xbf72300f3f541232U,
  0x3da542c33d79c2b0U, 0xbc813a06bedf51a5U, 0xbf7d5d2bbf1ab128U, 0x3f6eb794bf6832b9U,
  0xbf665be6bfe4197fU, 0xbdcb63753f8f0603U, 0xbd80e1063d8d077eU, 0xbcfc60a8be37c923U,
  0x3f1a5fd43f24b696U, 0x3f10f2594069b1deU, 0x3ea0b96bbe71dd7aU, 0xbd9677d8bdc7fb02U,
  0x3f108f7a3eaac8a3U, 0x3e9fc0ddbdad2f14U, 0xbf9db765406269f9U, 0xbe038fb3be420b32U,
  0xbe59e0f0be5045aaU, 0xbb4da0833e932190U, 0x3eba5bb33f4abf2aU, 0x407ed4913f25978dU,
  0xbe5f3bcebf1530feU, 0x3ead7362bd7f8e15U, 0x3ee734743e4485fdU, 0xbf4b7e39bec9a25fU,
  0x3f5ae2d03f3dd8ddU, 0xbe96acb4bf19069eU, 0x3cfc1dbcbdbe9e6dU, 0x3f7b4996bf2a201fU,
  0x3ec6df7fbe54ea12U, 0x3efb978abf46dbd2U, 0xbe18618ebfc80869U, 0x3dc650e73d3c6a4aU,
  0x3e807f5d3e037c9dU, 0xbee6e1febf0b40d9U, 0x3e93e397bed3a1fdU, 0xbe0ea340bff03faaU,
  0xbe081b093e855d31U, 0x3f91160e3e868832U, 0x3ea8d2453d821a9aU, 0xbd08392fc037a188U,
  0xbf00e5c7bfe69835U, 0xbe376aebbeb08ca9U, 0x3f057638be6024e0U, 0xbf59a491be6b47a6U,
  0x3eac4953bf48c6aaU, 0xbd15018c3fa295e3U, 0x3d1739fdbec72a57U, 0xbd8a1187bedadd6aU,
  0x3f1c6d3ebf7587b2U, 0x403eb69e3ede915dU, 0x3e407f5b3f5e093cU, 0x3da8739f3d94e3f9U,
  0xbf308dccbea98d8eU, 0xbf898790be9579aaU, 0xbfb2243cbf5ba971U, 0xbd255d07bfc8ddbfU,
  0xbccab7b6bd892ef7U, 0x3fb8531e3e0c86d3U, 0xbf67d2a33d9b6629U, 0x3e9c8e30401b70bdU,
  0xbe21e0d9bef6d124U, 0xbe0064debd86c877U, 0x3f6518a7be933a8aU, 0x3f17a6b3bf224c4fU,
  0x3e6c314bbfaeb823U, 0xbd67238cbe0534c2U, 0xbc9a94d5be31f08dU, 0xbfa5e111be4186eeU,
  0x3edc00f43ec3ea0dU, 0x3e3192453eee59c4U, 0x3e40e7123db25746U, 0xbda3637ebe30a8b0U,
  0xbf546c2d3cca2a24U, 0xbf9711993debd185U, 0x3f5b356f3f652069U, 0xbcaffed43ec9835bU,
  0xbe10b8d9bddc53d0U, 0xbec4d2bdbe8cdad0U, 0x3eb48be5bedf3ad8U, 0xbffc4083bf1078fbU,
  0x3e4841ba3fece782U, 0xbd9f9cfc3dcb493bU, 0x3f08a18dbebbecd9U, 0xbf2aa064be925e4eU,
  0x3ff24c084002f416U, 0x3e44019b3efcfed2U, 0x3d85d1773b1d4f6bU, 0xbf266769bfafd43cU,
  0x3e1696febe0bb0e2U, 0x3fc1652abde57782U, 0x3c866738bf430012U, 0xbcce9d483c71e7c9U,
  0x3f7603fc3ed7ae7bU, 0x3f47974ebf38a3edU, 0xbe6f9d64bf6dfbe5U, 0xbd0f7d323f486ec7U,
  0x3dc7f3ddbeace327U, 0xbf4360eb3ec212b3U, 0x3f65b8cabef86fb5U, 0xbfbde3ad3edcb1aaU,
  0x3dfad5a33ffc75fcU, 0x3e86813bbe6bd49cU, 0xbe8a4691bde9c4f8U, 0x3f0d9f8d3f1f2ba5U,
  0xbfe909953f5078a8U, 0x3e2c77fdbf304cdaU, 0xbd1ce7c3bd6a7b36U, 0x3b89c6403c85e3feU,
  0x3de9652ebd4a5260U, 0x3ff469123fc505bfU, 0xbeb6b15dbde0408cU, 0xbe09d0193e910f63U,
  0x3f34f3ecbf382cabU, 0xbede951ebb57069aU, 0x3fbde1de3fe2d125U, 0xbeac55343f6caaaaU,
  0xbd91b6583de35b8eU, 0xbe07c553bf40d96aU, 0xbebe85323ef8f956U, 0xbece16f0400f117cU,
  0x3ea19085bf8d70c3U, 0x3d8741d8bdf7d108U, 0x3f12bb4f3ee6b867U, 0x3fb5bd2f3e03877bU,
  0xbfc21a6b3f1d3e62U, 0x3e00a707be9c0e94U, 0x3e433842bdb5837cU, 0xbee4d974bf6ddb39U,
  0xbd854791bf457bb9U, 0x3f12ddecbf4d634fU, 0x3e2931b43ebd20c6U, 0xbe5523b83cd7521eU,
  0xbeae8d843e00360aU, 0x3f7e2c513f12cd7aU, 0x3f9dfc4bbea86089U, 0x3ee6aa92be8e1258U,
  0x3d2bcb493cacee8aU, 0xbe82b15ebdb907ddU, 0xbdd4694abe4c8e12U, 0xbfde17d9bec93b42U,
  0xbdb0679fc025524fU, 0xbe2894aabe8c937dU, 0x3f6ed4e23ef37efcU, 0x3ee0ccd7be2b2b9fU,
  0xbfd6000a3f15bc74U, 0x3ebdc64d3ec7ee22U, 0x3e222c08be18b77dU, 0x3d02a3833ee58037U,
  0x3ec2db7d3ebf6986U, 0x3ecfcf53bf090389U, 0xbedad0653f2ab756U, 0x3d1bc67d3ce4a92eU,
  0xbf6d92f2bce1f42dU, 0x3f8708093e04d865U, 0xc0035b5dbe943c28U, 0x3e01cef53e5bb29cU,
  0x3dd3b6a8be0c7162U, 0x3ef6993abe86c8edU, 0x3e7953a1bf036713U, 0x4042e7cdbf1cda9aU,
  0xbd8e2a593f47f2a3U, 0x3e813feebd103935U, 0x3f8c4dc33e9edc68U, 0xbebc0306bf739637U,
  0xbf8a78083f853b2cU, 0xbeefae44bfe87f17U, 0xbda372543d0a85d7U, 0xbfa1750bbe920744U,
  0x3dfa9909bf883723U, 0x3c8cef493f98e25aU, 0xbe19a2de3f2d4042U, 0x3d447422be9c7dd5U,
  0xba41cf37bdfef2c6U, 0x3f61f3b93da52bb4U, 0xbf23be323e3fca77U, 0x3e25a2ef3f5d5ad3U,
  0x3e28ae253db2dc07U, 0xbdd3f0b43e61e451U, 0xbdabef4dbdd770ddU, 0x401b5aa33f1432abU,
  0x3f01bec0c012196fU, 0x3c0e0e803ee7586dU, 0xbf1a5e22be36edfcU, 0xbf175cb0beca3288U,
  0xbe4ff32a3fefbf6aU, 0x3cdb2134403452daU, 0x3d1f47ab3e35b545U, 0x3f947399be13fa3dU,
  0x3e535d39bf6913d8U, 0x3cc2949fbfb81f54U, 0x3db221dc3f881606U, 0xbc856ab3bd75fe00U,
  0xbdd2f060beffeaccU, 0xbeedae00be9ea155U, 0x404f55e33fd5334eU, 0x3ed027f7bf154418U,
  0x3dba1f3dbd8829b2U, 0xbe5043a0be0d042fU, 0x3f699d2ebe091e82U, 0x3f8ef2b73f129192U,
  0x3f1fcfacbe21b1bdU, 0xbe773420bdfd2e16U, 0x3fd1c8f73e45418bU, 0xbd36c26c3da8d96cU,
  0x3e76ca963f2e58fdU, 0xbd7590063e565f89U, 0x3dff4d12bed94c2bU, 0xbe980e1b3dbfc5f0U,
  0x3f206e3ebc6777e0U, 0xbfdd606a3e98f390U, 0xbc78cc79bfb2e9eeU, 0xbe241ad2bf2181a9U,
  0x3e9c83bf3dde72eeU, 0xbe87df00bf18be55U, 0xbf37a3c24013ab8bU, 0x3ef8c8f5bd8f12b0U,
  0x3e22b75a3e9fbf8dU, 0x3ee7bc983f044699U, 0xbf1b504c3db430ddU, 0x3e451a48bf823cccU,
  0xbc453d543f94bfa0U, 0x3bd8ff223da2d7f6U, 0xbf699ab3be301a7eU, 0xbe439c26bf1da3b6U,
  0x3fa9797f3f471d64U, 0x3d736d67401fb690U, 0xbe0ec85539ecf78cU, 0xbfd553813d2681aeU,
  0x3f5bfb373eb0d580U, 0xbf6e7047bfa2fb65U, 0x3e3f3d29bed8a9a4U, 0xbd6ac127be58d194U,
  0xbdfe6737be81b5fcU, 0xbeca899bbd6f2692U, 0xbf9e82f8be8b2e8dU, 0xbd0bca15c073d4afU,
  0xbd6f85e7be8903b2U, 0x3f51c335bca702c6U, 0x3fbfa971bddde333U, 0xbfaaeea6bf4960fbU,
  0xbe16b42c3fefcd8cU, 0xbe0eacc73d0e1856U, 0x3ea55e9f3d349516U, 0x3e96a7063f285726U,
  0xbe8028913fd1d5b2U, 0x3f079e823fc6b948U, 0xbb036f43bd7de958U, 0x3f8af103bb3ed950U,
  0xbeeba8a1befa7004U, 0xbfd6e7d8bfbe0ee5U, 0x3e580eeabf22aea5U, 0xbcabbd27be944630U,
  0xbfc15cd4be79e8adU, 0x3f639ed83ee5e7e5U, 0x3eba6e23be52a8dbU, 0xbc67e7803e299d90U,
  0x3dec0785bdc11ac8U, 0xbe439a13bec3294eU, 0xbe904690bfd4e428U, 0x3fbc58bdbecf4096U,
  0x3db74d213e9fdc48U, 0x3da5f036bbe2e6a1U, 0xbe782ade3dec54d9U, 0x3e98e8223ebd8c5cU,
  0xbdfda25cbfb217aaU, 0x3ace48abc02fc0ebU, 0xbd4768183da89110U, 0xbd9ebd58bfb84e29U,
  0x3e8f7deebebc3b1eU, 0x3ec0b5d83efff371U, 0xbec7a054be2dff88U, 0xbdac66093cea1708U,
  0xbf53e0493ee1ba2cU, 0xbf39a0f43f0958d1U, 0x3dcab97ec01bf2abU, 0x3e6842253eb96871U,
  0xbbb81ddd3e4a8c04U, 0xbfa420893e6468aaU, 0xbf6eaee83ebcfda7U, 0xbe2e25713e1386b9U,
  0xbe8841bd3efd1b32U, 0x3e05ddecbe16ca59U, 0x3f8b2b2e3e0510d4U, 0xbf8e04a23e60a440U,
  0xbe949c173f19db8bU, 0x3e9d59d6bf64fa86U, 0x3e3370f03dc7ad3bU, 0xbf9bcc1cbf2fb43eU,
  0x3e1169f8beb488dfU, 0x4008ed923fa1c1b4U, 0xbddb5615bea7cdf1U, 0x3daaea86bd9442e4U,
  0x3f1da71c3e57a45bU, 0x3ec5ac6abeffc79bU, 0xbfb9cdde3fc47f18U, 0xbed54b9ebf6eb8fbU,
  0xbe654dcd3e82f8c9U, 0x3e932182bf1f65beU, 0x3f2ff89f3e26646aU, 0xbfe0dcc33db6a3deU,
  0xbd71fde6400b4c22U, 0x3e0bd6e13d9cc6a8U, 0x3e5ddf2fbf27f222U, 0x3f66e600bf3106d0U,
  0x3e8118203dc0e687U, 0xbd3831303fdb5af0U, 0xbbff0b673b94307fU, 0xbe754d81bf690008U,
  0x3ef17edf3f8442b6U, 0x3fd31e3bc01c6eb9U, 0xbe82bd2b3fcfe9fbU, 0xbb19e7d43d839cf8U,
  0x3e6dff433ef8c786U, 0x3f589317bcc9c65eU, 0xbeb445b63f95709dU, 0xbe0282893f349a0fU,
  0x3dcf33e63e0fa1cfU, 0x3dc5c915be1dc33aU, 0xbf4dcec9bea0024fU, 0x4002099dbecc80e4U,
  0x3d91c25340350adcU, 0xbc9830a53ea30093U, 0xbf9042cbbeb86039U, 0x3c99926dbe54f88fU,
  0x3e8dbe023ea4eb11U, 0xbe2483f7406837baU, 0x3c9977663e37c8ceU, 0x3e55aedfbe891b90U,
  0xbebeb19c3ef3fc46U, 0xbf876fe4bffa9a11U, 0xbe7519c83f8d12dbU, 0xbe87ef3cbd751fd5U,
  0xbea6e48dbe198a69U, 0xbf6c5633bf34f679U, 0xc06931d03f5be9b1U, 0x3d5696c6bf310e67U,
  0xbdd36e66bdec4ba0U, 0xbfaec343bde92d88U, 0xbf0f49c63e23f1eaU, 0x3f66e17bbf90b4beU,
  0x3aa127353dd41260U, 0x3dd4cff2bc88b8c9U, 0x3e8fff123d8e51b1U, 0xbf5553ff3f56337fU,
  0x3f9a432a3fa06008U, 0x3da924953f0425f9U, 0xbcb79c6a3eea1f99U, 0xbf62280b3e7fe7a2U,
  0x3ee025ce3fc4e3bcU, 0x40043db7bf042a71U, 0x3d633cbabf03a9ccU, 0x3e5974e3be27184dU,
  0xbed01121beab8656U, 0x3c0b2e88bee3ce8eU, 0xbf09cf023ffd3e02U, 0xbcec6b883fc113c0U,
  0x3e07a32b3d52fcb1U, 0xbfb56ab53e8d4340U, 0xbf0a0765bfa37f9dU, 0x3d16f7d43eae6d27U,
  0xbece8e7ebf06ca4dU, 0xbe0b0569bdb8731eU, 0xbed860e0be0924c4U, 0xbf3cdee7be2f1e76U,
  0xbf001a863c48e45aU, 0xbe517ca8406cc937U, 0x3a8b8cf1bde9b13bU, 0x3f0c4662be68f9a1U,
  0x3c1c15bebf157c6eU, 0xbf85ffb5beb57635U, 0x3c71b4a4401d89afU, 0x3c4243aabed1418cU,
  0xbf99fce7be7a95e1U, 0xbe6c76a6bf5d4497U, 0x3f1079983f527c05U, 0x3e732048be153d69U,
  0xbe0c9df4be0f311aU, 0xbfe1bf463e0622c0U, 0xbf62ed913e5e9c30U, 0x3f8c3c81bc9af272U,
  0x3ed58a80bf4acd64U, 0x3dc6e323be3b1b83U, 0xbea142c43ce0e4ebU, 0x3f59811c3ec06626U,
  0x3e43a292bf6b5d09U, 0xbe0666c13f58a002U, 0xbcc07438bdc47b7aU, 0x3d854905bf052cf0U,
  0xbed1fef23f905772U, 0xbfc48eec4038a828U, 0xbe1410ef3fcd4795U, 0xbe23e335bdfd82c2U,
  0xbe03d3a7bf14e265U, 0xbf63e89b3e29af86U, 0x3f4498933fbddd64U, 0x3e1cc61fc03b2caaU,
  0xbd8caf51bc695d58U, 0xbc7612983db37f3aU, 0x3e48b1aebf3b8144U, 0xbe7ad752c0145adfU,
  0x3f48849e40402cfbU, 0x3e7664a23e9d373aU, 0xbf424bf43df004b2U, 0xbeeaf3c43f62358eU,
  0xbfcdaf6a3f27961cU, 0xbd522c163f03cdcfU, 0xbc88213c3e551edeU, 0x3eed1b883ccb7ee9U,
  0xbf6cb4c03f5363feU, 0x3fb0f8203f630dfcU, 0x3f23cec6bf949a79U, 0x3dcefb64be13baf4U,
  0x3f2db4ab3d94bee2U, 0xbd020c6bbec416a5U, 0x3f4991bbbf8833c9U, 0xbde4f67d3e878382U,
  0xbdc0b89b3d640f8eU, 0xbf81a42abea4a844U, 0xbf359feabf2e6d7dU, 0xbed45aa23f97b124U,
  0xbeae58953cfc6e22U, 0x3d148dc8beff6d2aU, 0x3e0fb750bee5046fU, 0x3f3998f3be8851e3U,
  0x3edc46cbc044aee7U, 0xbc4f8938bf3b440fU, 0xbd93bf53bd0d2d68U, 0xbf73f70fbe0dfa69U,
  0x3ecf07153e6daa38U, 0xbda1d191bee2424bU, 0x3e0736f34098a1c1U, 0x3dfba657bdd1bf2cU,
  0x3f964dbfbf24aba7U, 0x3f16340bbed01a55U, 0x3fdbe66bc057fcf1U, 0x3cb08c95bdc8d8dfU,
  0x3d1f535ebd16898fU, 0xbecf7ebcbd921ceeU, 0x3f945f8abf3df69dU, 0xbd6c2770bf8a691aU,
  0xbcb4f1ea3fa304bdU, 0x3d9e1e2cbc300a04U, 0x3f5b3b493e0c7e33U, 0x3ee03259beb094c3U,
  0xbf5937cfbeeebf93U, 0xbe08e8a03f1d9241U, 0xbd49f4b2bd38c4c2U, 0xbe6ec8fcbdc49970U,
  0xbf9c9ef0bfe57289U, 0x3fbd8951bf591648U, 0x3c039be4bdbfb422U, 0xbdbc585b3e1929dcU,
  0xbee3ce8bbf017377U, 0xbf2ab4e8be1e33b7U, 0x401d3ff13ef66ad3U, 0x3e3e1d133fb0c912U,
  0x3e4e39a9bd0b75bdU, 0xbee448d43e972717U, 0xbfdb9fda3f251a95U, 0xbfd1adb24063548aU,
  0xbe2486fdbe7a33fbU, 0x3d9a8372bd498aa9U, 0x3e0f589ebed3216bU, 0x3f489e513f538a29U,
  0xbf67fb74bdbd89a9U, 0xbdc0a7dac012b353U, 0x3de384953c3d1cd0U, 0x3e8e76fdbd64bad6U,
  0xbecbd9cbbeb44083U, 0xbf2b3ec3bfc7801fU, 0xbf2e2f04c0453ec9U, 0xbe9387bfbde464e6U,
  0x3f75bfc8be2c39c5U, 0xbd53593ebf98a1cbU, 0xbf8235c93fe30fcbU, 0x3ec0b277be6a7b92U,
  0x3d6a2151bd81bd9aU, 0xbee0803bbdffbe14U, 0x3f262eb9bf223adcU, 0xbd44e0a03fd99681U,
  0x3e090efb3f9d93e7U, 0xbcdfd7803d4529a2U, 0x3dece7acbdff67a9U, 0xbeec5b9d3f875f81U,
  0x3fbb559abfca6acaU, 0x3e9406633d94aee4U, 0xbd9187513e2b03adU, 0x3fce65cebdeb2a88U,
  0x3f273febbe8d8492U, 0xbfc88f6e3dfe0c12U, 0x3d90baba3f8a02c4U, 0xbde2577bbc6e1d3dU,
  0x3f4189103e7a312eU, 0x3ec8654ebe1c9de0U, 0x3f5d50b1bfbd7871U, 0x3d837865c01435d1U,
  0x3d42e75dbdf06dffU, 0x3f158971bed53a68U, 0xbcbff3cbbfd3c2f4U, 0x3f362648bfb6170aU,
  0xbe44c3a63e8ff08dU, 0x3e098bddbcc8b14eU, 0xbeb733193e2141deU, 0x3f55d52cbf4e81c2U,
  0xbfb691acbf88c7e8U, 0xbdbd7eaf3f380895U, 0xbde654a13d8b3e48U, 0xbe0ea7efbcf8c657U,
  0xbd2ffbcfbf7c8c67U, 0xbfafc2fe3c9444ddU, 0x3e51f5fdbfc331beU, 0xbda74eb4be3f2e8eU,
  0xbf10849abe329b37U, 0x3ee830583eb48970U, 0x3fa071953fd2165fU, 0x3d4fe9e03fbd8d7eU,
  0xbd3267403d8adfdaU, 0x3f9c8452be94320dU, 0xbf3608863e13be28U, 0xbee06972c026d757U,
  0xbb9d71293ead6159U, 0x3c2909433d13f145U, 0xbf516b5dbcd74901U, 0xbd9ab9373be10b80U,
  0x3f64a840bfd164c7U, 0x3dd15b553ecad851U, 0x3ec8abb43ea816f7U, 0x3d8cb1d1be59fd91U,
  0x3ee09a9a3f329212U, 0x3e2cff133f1ecd81U, 0x3e162a05bf3c0b28U, 0xbdc03fd7bc4faf4eU,
  0xbf1dfea9bef439dfU, 0xbf163f92bf624a04U, 0xbf7c581dbf4db76cU, 0xbeb2bc2a3ec68aaeU,
  0xbd0625303d85d771U, 0x3f9135db3ec00ddeU, 0xbcaa0cefbe93e32dU, 0x4007904fbff51ec6U,
  0x3d2b4b26bf348167U, 0x3c796aaebd21e429U, 0xbf7fc677bcf85cc9U, 0xbf83b532beee7baeU,
  0xbef87acb3dcc7e25U, 0xbd99316abf50064aU, 0xbd1b09df3db94240U, 0xbe9be6f5bf9babf6U,
  0x3e6b68a0bde2db0cU, 0xbf100f5abff20ef4U, 0xbc2f55643d0ff713U, 0xbe3ea2213da5daabU,
  0xbf3ddc06bf370646U, 0xbf74ea9b3e6dfd75U, 0x3fd490053fff70bcU, 0xbc19a8143f79b742U,
  0x3d38a8f9bbe2442cU, 0xba9528cabcb39190U, 0x3f777d033f12de2bU, 0x3fb80b8dbe6d4a31U,
  0x3e9dcf453fa6e203U, 0x3e1937493d48a1e0U, 0xbfd9a99a3da942c1U, 0xbe81e5d63e25002bU,
  0x3d5d2be13f73854eU, 0x3eda04f03e9e35f3U, 0x3e3a81e93e497f3aU, 0x3d811f12be9373b1U,
  0x3f2e547dbcc70ba3U, 0x3fc7f2663ee03250U, 0xbe837a71bf95db7dU, 0x3d9c15f03c2e1029U,
  0x3efbd319bd5b6e87U, 0xbf6991c7bf3184e7U, 0x3f98cd7dbfaa6621U, 0xbed39868bf9a346cU,
  0x3dcf32b73cd66b3cU, 0xbe9429dbbdcbe06dU, 0xbf84df143ebc4c77U, 0xbf882c08c03a4f77U,
  0xbd45e149bf9eeaf5U, 0x3c5027c3bd97acd1U, 0x3eb42167beb09a91U, 0x3eea87213f054405U,
  0xbf3fdf84c0006c7eU, 0xbd8cb175bf78c4daU, 0xbe5d91b83e26ac1cU, 0xbfbb60493dd49846U,
  0x3f459006bf483b66U, 0x3e910129bfc08370U, 0x3e79e29c3febdb56U, 0x3db9f1ff3c1b828cU,
  0x3e260a1fbe05782cU, 0x3f8012f0bf02f0dbU, 0x3fb7ba3abf3df740U, 0xbed510ecbf0758a8U,
  0xbd54e0e03c700219U, 0x3e0e54eebefd00c0U, 0xbf3bf4e7bed7aa1dU, 0x3fe29d603f3abd7eU,
  0xbe48ddec3df46acbU, 0x3cb0facf3da2cc45U, 0xbe93cd41bf10b64dU, 0xbf4f4a3cbeefd152U,
  0x401c76863fe8f94fU, 0x3dab50194022b46fU, 0x3e2de87abdbb6f29U, 0xbf72cc5c3ed17719U,
  0x3f1023f93fb26678U, 0xbfd79c233f92687bU, 0x3d731ce1bf454f11U, 0xbdc233513e65f002U,
  0x3e850d09bd8048ebU, 0x3f46feadbc342d13U, 0xbc83b2534025e0b3U, 0xbdeb6de3403293b0U,
  0xbdf4c5163e1141d5U, 0x3fb19688bbf120eaU, 0xbea746ec3f3937f2U, 0xbf28172c401eb1d3U,
  0x3d3389513f806ea0U, 0x3dcabf5f3d15e4c1U, 0x3eca8c90bd3614edU, 0x3e2e33d5bf2489b2U,
  0xbfd703dd402a51a7U, 0x3ec1ce6cbf7e59ebU, 0xbde6c62dbd08ebe7U, 0x3e8ad5fb3e0493e4U,
  0xbe59a8973ebbf12aU, 0xc00c9d03bfb0fbb9U, 0xbe91981e3ed8329cU, 0x3d504c963e3c8296U,
  0x3f95436dbefa97c6U, 0x3e8b0696bf27e86eU, 0x3f918449bf4f333cU, 0xbeb41f3b3f012616U,
  0x3d650ee33c650f6cU, 0xbeb4ebd9bd862b37U, 0x3e2b5ebabf41e663U, 0x3f162c433fcaf756U,
  0x3d3b50bcbfeedba2U, 0xbcae37d33dfad638U, 0xbea7c7da3e068737U, 0xbded4bf9bf2ed83bU,
  0xc04ad14c3f921d17U, 0xbe820de5bee8ccbbU, 0xbe8fa09dbc53edeaU, 0x3f3fbd20bd835c1bU,
  0x3fa41e3fbe6a571fU, 0xbeab0797bee12e27U, 0x3e3d2900beaaac90U, 0xbd8d5f473c2752e2U,
  0x3eee2e31be748de0U, 0xbf1555fcbdebc3bdU, 0x4027f39e40447240U, 0xbe165726bf3525a0U,
  0xbd806c5b3d251467U, 0xbdd35ce5be9d6f01U, 0xbe2a7cffbf1820bcU, 0x4020ff75c0255d63U,
  0x3e1bc2563f1c4bb0U, 0xbdfafbaabd9ad3e4U, 0xbf4173d5bf7b4fc7U, 0x3d6896f13c4d0a0cU,
  0xbd9d26e6bf84fa2bU, 0xbddc7525bfc0916bU, 0xbb791dca3d5d5b37U, 0xbe7b1167bdfcf974U,
  0x3d2a43593fa05eb9U, 0x3f8e43a83f147a4eU, 0x3e276aca3ea76bb9U, 0x3c4eeb21be38ef62U,
  0x3e776a02bdd9e9faU, 0xbf08d6f8beec179dU, 0xbfcd02d03fd14825U, 0xbea0e7f9401f2c83U,
  0xbdd66e8fbbb694d4U, 0x3e17ea67bf929598U, 0x3ea8bff8bf59a315U, 0x3eaef8a5bd738d54U,
  0x3e100a0f3cc79a16U, 0x3df2eb25bc9c8e9dU, 0x3df04810bee06c77U, 0xbf3b910cbf7518f1U,
  0xc0053a0d3f64aa0eU, 0x3e95fa753f18f364U, 0x3daa4bc03d80a126U, 0xbeb5bc52bf572b88U,
  0xbcecdbdb3f2f7202U, 0xbf5ecdfd3f3ab911U, 0x3d5e177f3f986949U, 0xbc9d5743bcc1217fU,
  0xbf54c403bea1c6e0U, 0x3c5c9f05bf1d8d83U, 0xbf770bfcc02a2e36U, 0xbe1a855b3ddc33d0U,
  0xbd0278db3e6169b8U, 0xbf95995fbf53ecbaU, 0xbebcc58fbc48a7d8U, 0xbf50820bbfb7af9dU,
  0xbdbe7f623e29741dU, 0xbd1a88293d61635bU, 0x3f50c7553c2461d6U, 0xbf0b9df1bf324138U,
  0xbf0c40023f98776bU, 0x3a9a1b593f044f56U, 0x3d9129c4bf0166d8U, 0x3f519fd9bef9359bU,
  0xbe720143bf00ab22U, 0xbfa410cc3eed0448U, 0x3d8e414bbf9ae8f8U, 0x3de27c473dfd593bU,
  0xbef881e13eb3241fU, 0xbf8625a2be40263bU, 0xbdbeb11ec00726f6U, 0xbe94c9893f93c8f9U,
  0x3d84e40dbe924294U, 0xbf1d3760be8413a7U, 0x3e2cd2bbbe232b63U, 0x400303d03f907df0U,
  0xbe866e7a3ea288bdU, 0xbd5a0ee33db0ba9eU, 0xbfd9dd29bd33bfefU, 0xbf5cacf1bf18e1caU,
  0xbebb5703bf9c6483U, 0x3d568bb73f9b65bbU, 0x3e1899febdfdadb1U, 0xbfb605733ed5be9eU,
  0x3f4aac823e4ea928U, 0xbe5cfac44006aee2U, 0x3e2312593f33779fU, 0x3e1801a5bdfb65f4U,
  0xbe533263bee86d14U, 0xbe37cc963ead2e1eU, 0x407ae6623f03547cU, 0xbe09d751bf056d7aU,
  0xbe1602a83dc8d4c9U, 0xbf0136493f18a4feU, 0xbf7d46653fdb2314U, 0x3e796e983f5ff5ffU,
  0xbeb701293e01b226U, 0xbd3a81723e5fc64bU, 0x3f8f803fbd9202aaU, 0x3dd625d9be196df2U,
  0xbfe915d1bf4189c9U, 0x3ec66d23bf7e446eU, 0x3e103f743da150c2U, 0x3f31ca2ebe36982bU,
  0x3de720ba3f342920U, 0x3f844f0f3fab18fdU, 0x3e88e9f83fb8929aU, 0xbd4314193ee93ac5U,
  0xbf6d1ab63e49c755U, 0x3f8e0dc9bf4b0f9cU, 0xbf8934a04009b329U, 0xbc9604253f7a74b3U,
  0x3dc12646bd86cd3eU, 0xbf6e191a3dfb381dU, 0x3edf85093ec131f0U, 0x3f2eedd4beaabf50U,
  0xbdd524183f890eeeU, 0x3e132eb43d945bc5U, 0x3ec699383e64d053U, 0xbf4e8d01bf5e3fa9U,
  0x3f87a864bf7cd9b2U, 0x3f0ffcfcbfb60cf5U, 0x3deadbc63ea2e4d2U, 0xbeeeb700bf243f2dU,
  0x3d05a462bf814a02U, 0xbebe95923d828222U, 0xbcf6970cc0952253U, 0xbcbfe29fbe03e73dU,
  0xbf974a06be235edcU, 0xbec7fe473f79b535U, 0x3f960c344035ff92U, 0xbd7485b03e07b7fbU,
  0x3e23698abe3b6ec4U, 0x3f6cf0293e8a06c7U, 0x3f34b422be4fbce7U, 0xbd4510273f95a888U,
  0xbe0082efbf1e09e3U, 0xbdf7dfd9bd17c50bU, 0x3db1a16fbf14987bU, 0x3f46b16abfb90104U,
  0xbe2df7bfbf800e4eU, 0xbe29a158bd128bc7U, 0x3daf2b2e3cbfa161U, 0xbd5f7d6b3d89ae0bU,
  0xbf1f32fcbf4f7b16U, 0x3fe3b0e93fd2ac4cU, 0xbebf022e40199e41U, 0x3dbcf2edbea5a30aU,
  0x3ec67323be7604a0U, 0x3ed5d2d83f00e8acU, 0x3f7fbc363fb4e49dU, 0xbdff14163fd84b11U,
  0xbe59a5d23e4965a9U, 0xbf44621ebe53a547U, 0x3e87fdc63f92f00eU, 0xc01cde573f56821eU,
  0xbe1572023e01b94dU, 0xbd5ce35e3de02aaeU, 0x3f58f7b83e67a7c7U, 0x3f10da60bf8f60e7U,
  0xc04217413fe00e1cU, 0xbe19b6aebf503833U, 0xbd8dff1d3dd851a0U, 0x3eb2a1fc3d02aff9U,
  0x3ea3bf0a3e4f91ffU, 0xbf9a376a40015d2fU, 0x3e46cea53fe51033U, 0x3dd950bbbe42a2eeU,
  0x3f56877c3e0018efU, 0x3f1811c2bf21d273U, 0x3e0c7f7dbf39c4f7U, 0x3ebdc44340315fb5U,
  0xbd2364e53c6c4d9aU, 0xbed48d1cbf4ba4c7U, 0x3ec772543f667dd2U, 0xbf3cc031bfc082bcU,
  0x3d4392ca4017e6e0U, 0x3da7cdb03d8c18faU, 0x3f386661becf8098U, 0x3f7ef375be9f0e01U,
  0x3fb8bd68be8f90afU, 0xbd677b213fddc363U, 0xbe22b32d3dcd9307U, 0xbdb91d24be923759U,
  0x3ebc86a4bf6ecc0eU, 0xbd6707df403796d1U, 0xbdbc61f03f189fa6U, 0x3d98c8c33dc93fd9U,
  0x3ea3365fbf8db548U, 0xbdb45d4cbf83cc72U, 0xbf5682703febc23fU, 0x3b9306a33eb015e2U,
  0x3d4c16fbbd0d5938U, 0xbea1c882be458bfcU, 0xbef98bec3ebc248aU, 0xbfa31d9a3e67ac0aU,
  0x3e37c5ca3ffcb821U, 0x3e325348bdca8686U, 0x3f5da26cbf3987b9U, 0xbdac9e303d44104eU,
  0xc0268a2dbf46ea02U, 0xbda29184bf186b0aU, 0xbe88e9313d8609e7U, 0xbf7794d5be8252cdU,
  0xbea526af3f363696U, 0x3e19f027bf9292daU, 0x3d998f77bfb7e1d4U, 0xbdbf00e2bcc6f422U,
  0xbf279920be7b77cfU, 0x3f799f09bf3d29fcU, 0xbeba40733fd5abd6U, 0x3e60dafdbf73e185U,
  0x3e022a0fbc9e5496U, 0x3fc624583e826dafU, 0xbead369abfb0b776U, 0xbf6337ec3f6a3adeU,
  0x3e98fa7a3f09b378U, 0xbd9eac723d9c62f6U, 0xbe8b54b1bb8e16eeU, 0x3c5d40103fab32e1U,
  0xbf4f623ebf31ccd3U, 0x3ded98eabecacd46U, 0x3e3d3bbe3e12dc78U, 0x3f42d8b1be4a678eU,
  0x3f2f7bde3fc71cb8U, 0x3f908d92bff60df4U, 0x3e490cd2bea9faeeU, 0x3e2a62d2bdf4de72U,
  0xbde9b82ebf5f2bb7U, 0xbf3123373f07f769U, 0xc02bc1e5be94d838U, 0x3e1748abbfeeeee2U,
  0x3e6172623d901ae6U, 0xbed28084bd3c10dbU, 0xbe5aa5d33fa8716bU, 0xbf79a3833fa06ee6U,
  0x3d077589bfe99383U, 0x3db3cb563d4648cdU, 0xbe16e9bbbeef91dbU, 0xbdc102383ef4015eU,
  0xc03315a1c00be2feU, 0xbd91c7ff3f876d0aU, 0xbda08e093e3db0bbU, 0xbf4706483e3d26a5U,
  0xbd8c9c19bee9a0a7U, 0x3e208af3bde2aa8aU, 0xbb6e0d93bfa50927U, 0xbde09faf3e9e19d3U,
  0xbf01fc53be891a2dU, 0xbf0445f53f1553efU, 0xbf47dfb8bf75224dU, 0xbe8307553f56291dU,
  0xbdad955dbe8fa863U, 0xbf3b29d7bf1bb983U, 0xbf37203b3d746b81U, 0xbfa4f876bf41e57aU,
  0xbd9c4c93bf5d9a41U, 0x3e44a33c3e2242c8U, 0xbf3fb95ebe334d0eU, 0xbf0d0a2a3de860cfU,
  0x3f8166ab3f1bae1bU, 0x3e709a5340027733U, 0x3e3b136c3caed470U, 0x3e9a34a9bb01d973U,
  0x3f4eafc53f9940a2U, 0xbee5ff6c3e316866U, 0x3e0498c6bf854959U, 0xbdd2807abe874560U,
  0x3fa20253be8393a1U, 0x3df9e8dc3e04a61cU, 0x3f5d3f943fded727U, 0x3ea1e2b8400932ecU,
  0xbdff65d0bd8b3e87U, 0x3ee45b673e98f5a1U, 0xbebea36a3ec67de0U, 0xbf5aa6a73f3def71U,
  0xbe967013bded5215U, 0x3dd01c4d3e6b111aU, 0xbf46fc45bdc83f3eU, 0xbf5625ab3f291154U,
  0x3ff1d406c020f398U, 0xbe8740ccbe7346a1U, 0x3df209033d581c4aU, 0x3d1a8afb3ea1a1cbU,
  0x3f08b234be8e1ee6U, 0x3f8d8fb3bff8f905U, 0xbd9755d9be9a9278U, 0x3c5773dcbe60f855U,
  0xbd694cd73c120483U, 0x3f5f936abf95835fU, 0xbfa86f34bed5e556U, 0x3ea9279fbebc7ef5U,
  0x3af4cb4d3955a869U, 0x3f7ceffb3ed325e0U, 0x3f1dc8363dce34d8U, 0x3ccef1c7bffc7ba8U,
  0x3f285c783f78677eU, 0x3e37ef653e415edaU, 0xbe0882363ec5bc50U, 0x3e22db2dbeb7c193U,
  0x3fa3e4a7becc13bbU, 0xbc4441bc3f77eb44U, 0x3df7284bbe16a640U, 0xbf3488433eb70f99U,
  0x3dbac2343f3ec122U, 0x401d939d3f37fac5U, 0xbe9724bc3d82f88fU, 0xbe396424bdc758c1U,
  0x3fcbb929bec9797fU, 0xbeaacd0cbf7d55a1U, 0xbf12d6e73f6fe423U, 0xbe92f0e1400368a0U,
  0xbe2a3316bcc4ad49U, 0x3f405f75be7667f6U, 0xbe9adf8dbf31db1aU, 0xbf1c6029bfe488c2U,
  0xbf0529f84038a4d0U, 0xbc45301abcd22045U, 0x3f983242be2e332eU, 0x3a7a3cc03f8dce36U,
  0x402003f83e6aacecU, 0x3d3f9aac3fa881b1U, 0xbd4d43cabce2daa7U, 0x3d29a166becbe627U,
  0x3e44baf0bedb0c59U, 0xc00d1750bf952ee9U, 0xbe9baee640651008U, 0xbe4a85243dbf7bfaU,
  0xbf9b1b52be1cf62aU, 0x3c101a4c3f38ba09U, 0xbf666aee3d61e6eeU, 0xbdddce2dbf8fe908U,
  0xbdff25b73cc83a82U, 0xbf0f8bd2bef96d6cU, 0x3eccdf693d7db7d8U, 0x3f92416b3f155265U,
  0xbe9099b6bfafa4b1U, 0xbdee8af9bc8c469aU, 0x3ede31613d40d9dbU, 0xbf85f7eb3fda738eU,
  0x401b2c0e3f953adeU, 0xbe8cf2843efe998eU, 0x3dc618b6bc8ef8e9U, 0x3dedb817be9a506fU,
  0x3d439d293eff476eU, 0xbf96eac33fd0a444U, 0xbe9ecddd4032db3dU, 0xbdb2f2523d50dc5cU,
  0xbe5f33cdbf7433a4U, 0xbf7940e4bf108a9eU, 0x3e8a678fc005e623U, 0xbd8c3a693ced205fU,
  0xbde1a45a3ddaf693U, 0x3f33b770bec56ca6U, 0x3e675b0a3e00d351U, 0xbf4915cc4015b943U,
  0xbe7b7613bfab1c9dU, 0xbdd13beebe27fd3eU, 0xbf1fab97bdb14ae1U, 0x3e8ef4bdbf9b0cc1U,
  0xbf72510b3fbde6acU, 0x3c3834babf21b6eeU, 0x3d981cc2be6fc9e7U, 0xbf04b40dbe8ceb9bU,
  0xbf76e7cd3e1552f2U, 0x3f0f36ad3fe74f30U, 0x3e070aad3f848388U, 0x3d79dfcebd585e78U,
  0x3f701d31bf17edc4U, 0xbe8106c43f2ee246U, 0x3f9d94e0c02fdf11U, 0x3d5736253e5bcc20U,
  0x3d281fd1bc4427bdU, 0x3d888bba3df1b562U, 0x3f5a49f3bc3e421dU, 0xbe208371c011a730U,
  0xbf041129c02bc463U, 0xbd5402c03e459c82U, 0x3da4b70fbdd26144U, 0x3f807fe4bed7af65U,
  0x3fa43b73be1529edU, 0xbe319e453fb76cfdU, 0x3d7b4d72bd524894U, 0x3f96bd06be12612bU,
  0xbf5726cfbf6d906aU, 0x4003d08b3db7377bU, 0x3d95a89e3e01bd81U, 0xbe174ceabe2deb58U,
  0xbe7727db3d80afadU, 0xbfd6b2483f0624cbU, 0x3f69e070bfd33316U, 0xbde05ac6401cce70U,
  0x3d90e92d3df420bdU, 0x3f571c7fbd811593U, 0x3f05cdaa3f0a523eU, 0x3fa83fccbfa34677U,
  0xbe3cb15cbf418ce3U, 0xbd24209d3e9d8770U, 0x3f10a144bf4527b3U, 0xbeb821df3e684520U,
  0xbf4030db3f788755U, 0xbdfb29eabf362424U, 0x3dfc75a3bd86526cU, 0xbd57772bbdd572b6U,
  0xbc7c9fbc3e05d97bU, 0x3fa87e07be493577U, 0xbd6cfd81405637f4U, 0xbeb8f62cbe9317ecU,
  0x3f44f494bf23d79bU, 0xbf8d423bbf137853U, 0xbf95cd17be416208U, 0xbe9dcf7dc035319aU,
  0xbea7d67e3d955686U, 0x3e7c9cd1be9ef063U, 0x3f26795c3eecdac1U, 0x3fd86327bf5416e1U,
  0x3c6c97c53e38ef35U, 0x3e58d6ecbd8a6e6bU, 0xbe7e29b53c0e944dU, 0x3e97d2cabf349c5eU,
  0xc02f8b70be38f322U, 0xbce2492ebf322772U, 0xbdf5fe05bb385e2dU, 0xbe4bbd9b3ebfcd43U,
  0xbf8121b5bd774414U, 0xbead2d2e3f63ade3U, 0x3e9aa441bfbaeecbU, 0x3d81fb7e3dd97cb6U,
  0xbf989e91bdf66920U, 0x3f672c00bfa41c04U, 0xbed8df18bfd8b49aU, 0xbd75625abcc8e0e0U,
  0xbdbcfd083d8d7bbfU, 0xbf7d1394bf6f61c1U, 0xbf1874d43e467c17U, 0xbfc1ff723fc859e0U,
  0xbe40833abf44c2a0U, 0xbd82c9223df96d9eU, 0xbe5c8520bec8e0f4U, 0xbe6326623f4af939U,
  0x3ee9578640580b24U, 0x3e4f0b8d3fe00559U, 0x3da33415be1947f0U, 0xbf4e8bd53e788b0bU,
  0xbc1aa295bf37da05U, 0x4018721abf5e2a1fU, 0xbe0a5699beecebb6U, 0xbe5ef6ce3d00265fU,
  0xbee6f3e0bf1a3e9aU, 0x3e7579bcbf6368c8U, 0xbfb63bd2be53d222U, 0xbe9ace4fbedc5795U,
  0xbdd153bd3c74bd44U, 0x3f9d107fbef90013U, 0xbf77211ebe572189U, 0xbd300adfbf392c42U,
  0xbd93fb143fb252feU, 0xbca84e603dcbf7e4U, 0x3fa99c3abdfc420bU, 0x3e6fc38fbd9434feU,
  0xbe6d8fb4bf21a01eU, 0xbe05ffcc3f826b7eU, 0x3df6e2f5bdb8bd7dU, 0xbf7aeadebd7fbab2U,
  0x3f0467fd3ecf37bfU, 0x3e0afeb8c01ba829U, 0xbf18cbdabeeb59b7U, 0xbe21a55abdc47b97U,
  0xbd2034f5bf321c30U, 0x3c918ff7be4e67c3U, 0x3ec869f33fab3e26U, 0x3e0376cc408aa868U,
  0x3d067136be4282c0U, 0x3f3ad18bbeebfc3cU, 0xbe5bbadb3f440dffU, 0x3f5cc3eb3fd5cbdcU,
  0xbd1260f240454ce0U, 0x3d2ebd2abd853c38U, 0x3f0da9bd3d1efd4dU, 0x3f1f1463bfb24a57U,
  0x3f7aea2bbf84dad7U, 0xbeab6336bfa7f445U, 0xbe0dc9c63d79704dU, 0x3ec1abbabf8650b7U,
  0x3ed017623d27bdbcU, 0x3f8e31853ef0b3a1U, 0x3e4869213e1dec48U, 0x3dc5ea2fbdbd9c9aU,
  0xbe2f4813bf23842fU, 0x3df112c6bf00f267U, 0xc051def73fda9a46U, 0x3ee6dd12402c9991U,
  0xbd8f7830bea13884U, 0xbf23b563bf6e6f9cU, 0x3ecd4724bf12154eU, 0x3dafeebbbb8d285cU,
  0x3e06a10c3fcb9e2eU, 0xbd8e70e33d15e4bfU, 0xbea2c201be06c069U, 0x3e361e45bea6d762U,
  0xbfc734833f84425cU, 0x3ea787f03f463f6cU, 0xbd62287dbf084adeU, 0xbd9f8088bf85f4b8U,
  0xbea7bedb3f4f43e4U, 0x3d3ffb2bbfcec9eeU, 0x3d6bbd3cbf7df96fU, 0xbc3c06a03d0aa557U,
  0x3d1a4d6dbde27120U, 0x3f4347083df1ea4cU, 0xbe819f603f4c76ccU, 0x3dec60dcc01558e2U,
  0x3d12f6f43f44fcf7U, 0x3f997bde3eaea941U, 0x3f0a52583f79f6b1U, 0x3e9759763f2ff89cU,
  0xbe14d5093f9a9d65U, 0xbd04128e3e3fac02U, 0x3f82a5cd3ec2396aU, 0xbf649b643ec35817U,
  0xbfcd9dacc02ac0d0U, 0x3c7a86b5bf4683aeU, 0xbc93de6a3db1e480U, 0xbe8f08da3eced2d0U,
  0x3f6207273ded954bU, 0x3db64f2cbf728f3bU, 0xbd20f5163ecf8327U, 0x3cefefd13cb3147cU,
  0xbf1fc927be55249cU, 0x3f538f50be2f5e56U, 0xbc6e3614bfaf94d9U, 0x3cf9e8ebbec467acU,
  0xbeaf843bbdf828cfU, 0xbeae5e69bd292150U, 0x3f338de2bfb6e978U, 0x3f902dffbfe18c3bU,
  0x3df33b023fd29477U, 0x3d11c5523d31c215U, 0xbd75ec66bf19ef9eU, 0xbef40cf93f2b4377U,
  0xbd54eeed3f35e470U, 0x3dee17fb3f653073U, 0x3e6dbe933ed154adU, 0xbf89d30d3ca9682eU,
  0xbe94ee28bf21fe2eU, 0x3f1b15fa3edd5686U, 0x3e355791bf98e816U, 0xbd849d933e96be94U,
  0xbe551a7bbf3e0731U, 0xbf28e7f7bebac8bfU, 0xbf0b5266bf3fa5c8U, 0x3c63b273bf8124bbU,
  0xbe51ae08bcfbef00U, 0xbd1bc5af3e2a7fc5U, 0xbf4e901ebfd2538aU, 0xbfb43c373e1610ebU,
  0x3df62e78c0356a39U, 0x3e79936f3ccbc2d3U, 0xbe6153b93e977c17U, 0xbf3aa6f9beb6ad9dU,
  0x3ff48b90bfe04530U, 0xbe65a9fa3ff3f0a0U, 0xbe06f5da3d6554dcU, 0xbf3950a4beaeffadU,
  0xbf2b27bfbf3c5e60U, 0x3f426a7840161859U, 0xbb0c15053fa12f6aU, 0xbca8c770bde6721eU,
  0xbf0725183e92d765U, 0x3eb42e683ede68f6U, 0x4029f7a43dd83214U, 0xbe181530bc8f35deU,
  0xbd6d8ca83ea28319U, 0x3f51c0e1be07ff37U, 0x3ea0bd82bf16fc83U, 0xc0131bed4035a3b3U,
  0x3dbf35f4be3bf996U, 0xbdc90276bdd6e1a7U, 0x3e5faa8f3ea53b36U, 0xbf301153bf96c423U,
  0xbf8a07b5bf1541f9U, 0x3eb6ff33bfe603a6U, 0xbd2abdb0beff4fc6U, 0xbf8d0f513d214660U,
  0x3df4978b3ef06b0aU, 0x3f32fdf7bf1e825bU, 0xbc14f6ae3e98365aU, 0x3cdf5faf3dc85586U,
  0x3f4482e1be9253c3U, 0x3e994223bf6a8922U, 0x3f7e936cbff51768U, 0x3e20ba4abf84054bU,
  0x3e17cfc13e5710a0U, 0xbe7af2ad3ccddd0fU, 0x3f871ababf159ac5U, 0x3f94d76d3ede70f5U,
  0x3e2cf45fbf842f3eU, 0x3cba80043e19270dU, 0x3c7c09ad3e044f4aU, 0x3dc9f86bbfdcd3ccU,
  0x3f40f6353fc87c9aU, 0x3ec119a73e205a36U, 0xbd8121783d4c31f9U, 0x3f5fda8abe3ea32fU,
  0xbeef04c93e593a5aU, 0x3fc93df33e9be905U, 0xbebe9298bfd6e940U, 0x3e246ca53dc2854fU,
  0xbf3c40643eb385e2U, 0x3f970b52be513e30U, 0x3eb2277fbe19f882U, 0x3dead83e3ec3bafcU,
  0xbdbc0c89bdd7ab3cU, 0xbedf1c82bf5c75f6U, 0xbe0e27f9bf92ef9cU, 0x3d5a14fd3fc208e9U,
  0x3e473db13f3331c9U, 0x3c411b9bbcdf039fU, 0x3d98adac3d3e5fa8U, 0xbe83b4c03f212175U,
  0x3fa54f34bfa1d337U, 0x3e8fd205409861c1U, 0x3c39ab17bc87ddfcU, 0xbf35c4eebe458295U,
  0xbee49595bf79f83dU, 0xbf5174e1c019aa4cU, 0x3e49aee13fac2bf0U, 0x3dd6adf4bd87dfb9U,
  0xbeff3738be625969U, 0xbf67d5993f887bcbU, 0xbf88a0e83e8f672dU, 0xbe6f1fcd3f8ef4daU,
  0x3e8854fd3e322771U, 0xbdeedc8dbf7f01b6U, 0x3e2f4b903e9db397U, 0x3efc40eebf7ce8dcU,
  0xbd245843bedb33deU, 0xbe09ffaf3b8f1273U, 0xbea4d0a2bcf720acU, 0xbea2fde2be9fa078U,
  0xc057f8bd3d98faf0U, 0xbd2b8dffbfad1ed3U, 0x3ddda81fbd8e23a4U, 0xbf71a42b3dba0d83U,
  0xbf28177dbed875bcU, 0xc029fcaa3de37701U, 0xbe64dee9be8fd1e9U, 0x3dd3e5d4bed9d028U,
  0x3ea375353ebf1357U, 0x3e24b812bf3c602dU, 0xbfd9ae62bf7b1204U, 0x3dc875e93e92911fU,
  0xbd9c16933d885030U, 0xbf46861fbe953f59U, 0x3ec7e3793fcb44d8U, 0x3fa89a8e3e808e7aU,
  0x3da07a173f295e4bU, 0xbdc2e7cdbd4e76ddU, 0x3f03ae31bd903f1eU, 0xbf6aa0c03f10d88aU,
  0x3e0c59f3bf2a9325U, 0x3eeae629bfbbdcf0U, 0x3e50a7dcbdc5e497U, 0xbf477de93e8a7f48U,
  0x3f81b2debf05be88U, 0x3f078ded3f8152bcU, 0xbdc10a3d3e7b89afU, 0x3e6a79efbed7b493U,
  0x3c874ec9beb6cbd1U, 0xbe713909bcf53ea3U, 0xc074f7c4bfd8d7d5U, 0x3d0373d73f02eb1cU,
  0xbde14937bd91fdc1U, 0x3f2ec020bedb4e8dU, 0x3efe9f04bf3d1d5dU, 0x3f80d761bb8673e2U,
  0x3e1b5d4b3f549f08U, 0x3db17e45bd563b52U, 0x3e98ad973f0119e8U, 0x3f2b063dbee7efaaU,
  0xbe2132f03fc7b88aU, 0x3dc208f9403609aeU, 0x3dd2a0f23ca92c3cU, 0xbed55775be033938U,
  0xbe3358f5bdc75691U, 0xc0448bc5c01eb956U, 0xbdc3da01402cf9a1U, 0xbe3211c93e0d5f3dU,
  0xbee953af3ebb7761U, 0xbfd053513ee12c18U, 0x3ea06cd03eadf42cU, 0xbeb07012bf6da11bU,
  0xbd50f8d63dff924aU, 0x3ec0d970be8a27fdU, 0x3f0b81d8beb9f9c4U, 0xbefefc05bfaf42b6U,
  0xbda8e633bf9ac463U, 0x3ced5e433e1b0c9fU, 0xbf0e72803ed457f0U, 0x3f491ebbbf7a81f5U,
  0x3f9c99db3e46dadbU, 0xbdb6d2c7be30dff0U, 0xbd4cdb9dbde6b605U, 0x3edcc55cbef2bcf3U,
  0x3f68762ebe1f994aU, 0x3f0235b83f50cd4cU, 0x3e13e4f53ef217ebU, 0xbdec56dbbcf22b35U,
  0xbf2ad6e5bf143ab8U, 0x3eae5b953d18c071U, 0x3f0f66d0c0304d6dU, 0x3d6c4624405e59ffU,
  0x3d61ba88bd24da39U, 0xbeea35d8bf94ebe7U, 0x3f3bcfde3efb5f5fU, 0x3ecc5fa23f473989U,
  0xbd9e81ddbec7e841U, 0xbd9a2bac3d250d8bU, 0x3fcb96abbeb64b41U, 0xbf95fb023ed3c630U,
  0x3da776b23f537815U, 0x3dfc5e15bef75055U, 0xbcd33256bda8dd96U, 0xbf73ecdfbe2c1b22U,
  0x3cdcdba8bf1c9020U, 0xbfb7d710403f2b16U, 0xbda493e4bfb7e9feU, 0xbd300355bde173cfU,
  0xbecd703a3e06cadaU, 0x3da098cabdeb8f93U, 0x3f2b909ec053441dU, 0xbf36dc4c3fb28a5aU,
  0xbc8bdf6a3c2b29d3U, 0x3e598c02befd6fbdU, 0x3d2f869ebf8040ceU, 0xc00823053f99956cU,
  0xbe5b8dec405b696cU, 0xbe40adbb3da9f356U, 0xbf9acc08be651bbcU, 0xbf1e3b803f822b92U,
  0x3fc656673f714dd0U, 0x3e850f6ebf1f7456U, 0x3e60c9663e2e17dbU, 0xbf1d9beb3cac8ab3U,
  0x3efcef2b3e8c35c8U, 0x403fa95b3ef53ee0U, 0x3d4cd132c03983c8U, 0xbd9981f53daf1e0aU,
  0xbe5126dbbe2dc6cfU, 0x3f368c7ebd8671a5U, 0xc031cc62bf7bee03U, 0x3db5b55e4033c113U,
  0xbddada22bf059b28U, 0x3ee326dbbce46117U, 0xbfb16eb83f13edfeU, 0x401ad2fe3f50b5d6U,
  0x3e4a4ae9bfe38a5aU, 0x3d9eb08f3e608200U, 0xbfe977c43e830d6eU, 0xbfa53279bf56209cU,
  0xbea92d2bbff03a26U, 0x3e7e95af3f112e48U, 0x3e286e62be723cceU, 0x3d321d9fbde5b3dcU,
  0x3f7636eebf408379U, 0xbe34c57f3d0ca41fU, 0x3eb0d2253f9eb869U, 0x3d7f68373d022c65U,
  0x3dae77533bfa305cU, 0x3f30b967bf87b776U, 0xbf4160a2bfba042cU, 0xbec65c23401e2855U,
  0xbdfc60a3be9d0b73U, 0xbf5dfc063ea3cc00U, 0x3f35876a3d9170f9U, 0x3c6bc0f1bd66f580U,
  0xbde3a27abf0faff1U, 0xbd6793a53e927b41U, 0x3f95214d3e005d1eU, 0xbf4bde6d3f4ed99fU,
  0x3ed52f993e47c750U, 0x3e9f45cb3e07a2daU, 0x3e561107bd38d9feU, 0xbee271083e0b3b14U,
  0x3ee90786beaf2c7dU, 0x4012b8703efcf751U, 0xbeb2f4c4bed9935cU, 0x3d2e755e3c8f94a1U,
  0xbf0ed68ebf2d4090U, 0x3eed2bf63f1f1464U, 0x3fc3a41a4008ef89U, 0x3e865543bddba535U,
  0xbe158a82be023896U, 0xbf201eedbf419e02U, 0x3f85e6333f1c5a0aU, 0x3fec51dcbf6bde6eU,
  0x3cf7c4b63fbbe3f9U, 0xbdb03611bbbb9549U, 0xbf363461be95d586U, 0x3f1f925d3e233aaaU,
  0x3f6414efbfaf085fU, 0xbe81784a40112314U, 0x3e87a0b7bc59c3ffU, 0x3eb47f683d5d3ea9U,
  0xbda8caf93e777fb1U, 0xbf5229263f29c10aU, 0x3e3ff3a1406de58aU, 0x3dcf0f673e5ec768U,
  0xbf564fb73e95e7cdU, 0xbf606260bfa50f4bU, 0xbf55bbba3fc76697U, 0x3e0d7f444019ae2eU,
  0x3ded127cbddc1fa0U, 0x3e25fd63bef96096U, 0x3ea3aeacbf09ac2cU, 0x3f922acbbf22c923U,
  0x3e6f7b233f24da73U, 0xbe2558f63d865c8cU, 0xbf0d228abe389123U, 0xbe971e42bea45e94U,
  0x3fd2a14ec0278236U, 0x3e9b7d983fed01bfU, 0xbe04c2163efd6ec1U, 0x3f8469b03e264252U,
  0x3f3082b2bf2e072cU, 0x3f1bd1c1bf874f4eU, 0x3caf461cbf29b53eU, 0xbd319b74bec0fad9U,
  0x3c13dd973e704e28U, 0xbf8d42f53eb92151U, 0xc0100a104009e036U, 0x3e73f486bf27dab1U,
  0xbc879cbd3b03c7afU, 0xbf242f83bf2301b0U, 0xbdf595783e1897dcU, 0xc018cad3be1f5af6U,
  0xbe48d1a13f8b7147U, 0xbe813ba03e297069U, 0xbefd815e3c222d13U, 0x3f1d0d13bf9036cdU,
  0xbf84e46f3f82792aU, 0x3eda2658bf199217U, 0x3c255530bd54c533U, 0x3f0505ef3dcb0b79U,
  0xbf7b24e13eb130f5U, 0xbfdbd3be3f07c7c0U, 0xbe255a58bec323d7U, 0xbdaddd863e541817U,
  0x3ee4b1f03def0913U, 0x3eb83217bfa6f4b1U, 0xc024159c3fa5e0cfU, 0xbea4bce93f88fd2eU,
  0x3d0ce5d93d3996e5U, 0x3eb490a0bec33bfcU, 0x3ee239db3fbdcba5U, 0xbe76bb9a3ece6463U,
  0xbe0b90ae3fda378aU, 0xbe5aa462bdaf8fdbU, 0x3f96148c3d9a241dU, 0xbe10c03d3f6b5c92U,
  0xbf1d20503f05d578U, 0xbda7da7bbf41ad03U, 0xbe1fd3633ea249cfU, 0xbe99043d3cb1e9bcU,
  0x3f13eb943f35fe36U, 0xbf1eec36bf88b041U, 0xbe1d46413f3a891dU, 0xbd0cbd30bebbfc0eU,
  0x3f9fb9de3f006a45U, 0xbf395ebabf6f72ccU, 0xbf843fa8bfcee187U, 0xbf08e32a3dbf02faU,
  0x3d939bcfbdbefcc3U, 0xbe5b7186be3d4c19U, 0xbee9695c3e6f6e97U, 0x3f8a40adc04bbb7eU,
  0xbe55ae29bf2a5d94U, 0xbe9b63c73d028747U, 0x3f09b1733e2ea249U, 0x3f72acff3eb9ae6eU,
  0x3f798c32bf31ea5bU, 0xbf1164453ef46fe2U, 0xbe30a8353e7164d5U, 0x3f598a8bbe2ea5adU,
  0xbed85f9e3f998fb9U, 0xbf9d3ae5bfad7f1cU, 0xbe05e53e40106631U, 0x3dd430bf3e23be84U,
  0xbebdbf52bdd3a792U, 0x3f1bf1b1bedb55ecU, 0xc01de69fbfc9a0f0U, 0xbeba59063fa76639U,
  0xbe94cc5fbe209f5fU, 0xbeaa02d43eaa8f65U, 0xbe73c24c3e5ac7faU, 0x3e307d793e093b47U,
  0xbe30db854029fc29U, 0x3ddad1c2bcccbadeU, 0xbed64280be1621e9U, 0xbedd3fa23e825bbaU,
  0x3f8daa8cbf6a2e00U, 0xbd48c589c015c448U, 0xbe1078423ed40448U, 0xbeb3d59b3e44c6edU,
  0xbf8079a53e1e6867U, 0x3f29200fbfb665faU, 0x3d3e47fabfc4181fU, 0xbd45f7273d2787edU,
  0xbe1f835d3e4a4853U, 0xbd9c07fabe55a561U, 0x3e420d97bdee3b63U, 0x3e0d8151beae333eU,
  0xbd55c06fbeac17d1U, 0xbdf46173be3c1d09U, 0x3e7d1d16bdd800deU, 0x3f2768c2bd98d8daU,
  0x3e0dee42bea7d01cU, 0x3e15b0233eb42b78U, 0x3d31172b3e0df5c6U, 0xbe7e49253e3383b0U,
  0xbe0f79843d6127f9U, 0x3c82bcc0bedc8cffU, 0xbd809b033d9ae721U, 0xbe0c100abed80d73U,
  0xbeb70d65bca511c0U, 0xbf13dcd6bd68e380U, 0xbd4e2ce93e225178U, 0x3f0906c8be15beffU,
  0xbd902774bdb1937eU, 0xbe2726c93d0c5bf3U, 0xbe28afbbbe5ea4f8U, 0x3e9e143cbe2e4fb8U,
  0x3d374da7bdd2f74eU, 0xbdf0130abde06002U, 0xbe2e56fa3e0200aeU, 0xbd90f55dbed063b8U,
  0x3e2d513d3ce61614U, 0x3e7b646e3dedfa21U, 0xbdf8d7c83e647639U, 0xbe59c96e3e15799aU,
  0x3dc97f97bd924b46U, 0xbe256874bea16f67U, 0x3d0a001038642d8dU, 0xbe607aeebe9dcc82U,
  0xbe00f37ebe85a885U, 0xbeab6d66be8b9276U, 0x3e98f3ed3e994d5cU, 0xbe0367bbbd0d0283U,
  0x3e605cf0bea6bd17U, 0x3c52b2043dc28c8dU, 0x3df67e61be7a5cf5U, 0xbeb303ab3dbebe40U,
  0xbee76164be2396efU, 0xbd8ef7b6be1e1c2eU, 0xbe43b425be7fc524U, 0x3e580cafbdca55a5U,
  0xbe7ff8613cdabf1cU, 0xbd1c9ac13e90e22aU, 0xbdd3f72a3e7ebc36U, 0xbed6ccf23e862a3cU,
  0x3e708015bc95b55dU, 0x3e0677e2bd5729e3U, 0xbea7828abe92a878U, 0x3dbd414f3d0b0e50U,
  0xbd2806d43e8d21dfU, 0x3df26978bec32ee6U, 0x3e2ddbca3d5afac3U, 0xbe8de973bea95ec8U,
  0x3ed584dcbe4169c0U, 0x3e7956f9be3c1820U, 0xbd7d76fcbea7eafeU, 0xbe488e7cbdb46247U,
  0x3d9e5edc3d410385U, 0xbd922f25be0fe747U, 0xbe23685dbd91d338U, 0xbe3e9d2cbe68cafcU,
  0xbeb5b709be1eaec7U, 0x3e294d47b985f3e6U, 0x3e692cb5be2a291dU, 0x3ea2e0d0bd8ed56bU,
  0xbe359cabbed1999cU, 0x3dac9826bddfd120U, 0x3ed003c5bdeab96dU, 0xbe91938cbe1c50c2U,
  0x3e3e4951beb4bf2cU, 0x3e986af73ce35d10U, 0xbe91a1b43e4a9fe4U, 0xbe68b8bdbd67e981U,
  0xbe6d455f3e5db5b5U, 0x3e8e5bca3e2acaa8U, 0xbdb5c319bc941e8bU, 0x3e304c1bbc2b0728U,
  0x3c7aee2f3e0c3689U, 0xbe44d414bcd364bdU, 0x3ec628433e3ed5caU, 0xbeab31db3dd088c7U,
  0xbdc52f79be3084baU, 0xbe720b6cbc64394aU, 0xbe5d6c123ea79851U, 0x3e0d1b44be7b344eU,
  0x3e19532abe5b806dU, 0xbe1cdfd33e8a9611U, 0xbd99f2c7be6f475eU, 0x3e1ef7ae3df908a1U,
  0x3c4fa05e3e6f5147U, 0xbe56ad3b3d927184U, 0xbf07724c3e3a92cdU, 0x3dec77e13e0b770fU,
  0x3d6d70db3db5855eU, 0xbe6102fabda731b7U, 0x3de2c1c63dcfe733U, 0xbe05768a3e763cdaU,
  0x3d9add1bbf082cc4U, 0xbec7248ebd1fd7f5U, 0xbea4658c3e144905U, 0xbca68b9c3d9ebe53U,
  0x3e4ec0403e14add6U, 0xbe9b6cb3bd2c40faU, 0x3ea06d66bcae785eU, 0x3d3a16433e76f2d7U,
  0x3d7781ebbc83e00bU, 0x3f091f61bd3915e6U, 0xbeaee8853da2ba99U, 0x3eeb4b0b3dba9ccfU,
  0x3e3138c9be9bd98aU, 0xbef24f663ccde676U, 0xbf120e8c3deb3871U, 0x3e61c2423dd6916eU,
  0xbd6ca4b5bee541cbU, 0x3ed40d49be237c65U, 0xbe69aee3bd23256bU, 0xbc75eb3dbd66ede6U,
  0x3e2a334abe612796U, 0xbdca411fbec444fdU, 0xbed35fb8be01e23bU, 0xbc8d8a2abebacc2cU,
  0x3d18e56c3dbc3958U, 0x3e8313f23e028371U, 0xbe1769c83bd27240U, 0xbe90e449bdf5b60aU,
  0xbd69e1333c7644e3U, 0x3d802f69bdd43393U, 0x3eac95493ea16c11U, 0xbba7f325bb96b0ddU,
  0xbe0c6e97bcf54a67U, 0xbe33ea823df9d34cU, 0xbeb8e3403c06b4d5U, 0xbe19efa5beb069c8U,
  0x3e9561f7be5f1d14U, 0xbdbab671bd8f566dU, 0xbc8df2883d5eb851U, 0xbd83789fbee3f3f0U,
  0x3e17b7323e96f711U, 0xbaf204253d78d7f9U, 0xbd9ee4e4bea5eb3fU, 0x3e1a5dde3d612701U,
  0x3dd5bdc6be1225aaU, 0x3e22bb9a3eed46c8U, 0xbecca6563eaaacaeU, 0xbcb3fafdbc3fdc36U,
  0x3cd105e3bea1c6b3U, 0xbdbdaffe3eadef3dU, 0xbdd93f283e41c1c3U, 0x3dbf2e273e0fac7aU,
  0xbd5c347c3d03cb32U, 0x3e4be3893c9d0c8bU, 0x3e8021d43e7ffafeU, 0x3da869e8bdd82d9eU,
  0xbe8368023e36e54fU, 0xbeeab576beb55ab3U, 0x3d5b66793dfbae68U, 0x3d130e453f1593a5U,
  0xbea988be3f3a43b6U, 0xbe0aa5a0be27244cU, 0xbebb54abbe9ee57fU, 0xbcb656fabdef2c2eU,
  0x3ae632af3e9cee20U, 0x3d7fbe0fbd182447U, 0x3e30d0d6beba0599U, 0xbd916100bd2fe2e7U,
  0x3ec7c6e0bb4c079dU, 0xbd8e37d1beb354ddU, 0xbdea9d233d3862e8U, 0xbe11a5493e2c4f8dU,
  0xbdf9417abdde3456U, 0xbe98e1c3becf6396U, 0x3eaf56cbbe2140faU, 0x3e867c55beff4ea8U,
  0x3e47c6503e89edacU, 0x3d3e52d33e4a211cU, 0xbd5041d33de63dffU, 0xbea6eb623d06e629U,
  0x3d94171e3e82c566U, 0x3df121cfbe4f7c27U, 0xbe5a5fbb3cfe2cfaU, 0x3dd7839fbdc889caU,
  0xbe44478d3cd2e5b8U, 0xbd106be43de22605U, 0x3e12071ebe831babU, 0xbdd52ce13e5e7a97U,
  0xbc54c082bec69e0fU, 0xbe97f24ebeaf8027U, 0xbe23fb96bdc13c97U, 0x3acab0efbc5b5947U,
  0x3e6a3814bed09fe1U, 0x3e122020bd056242U, 0xbe9abb4b3e57ec3aU, 0xbca7d9a53e9183e0U,
  0xc005b545c0069c20U, 0xc003e78ec004ce69U, 0xc00219d7c0031c26U, 0xc0004c20c00132fbU,
  0xbffcfcd2bffeca89U, 0xbff976d4bffb2dcdU, 0xbff5c5f7bff793aeU, 0xbff252e7bff3f840U,
  0xbfee8f80bff03d42U, 0xbfeaf3aebfed36a6U, 0xbfe68251bfe9d56bU, 0xbfe3bcd2bfe58a89U,
  0xbfe02165bfe1ef1cU, 0xbfdcc6acbfdeb143U, 0xbfd8ea89bfdadb4fU, 0xbfd50b00bfd71cd2U,
  0xbfd0b78cbfd31824U, 0xbfce1840bfcf5310U, 0xbfca9e1dbfcbdb5eU, 0xbfc6cf48bfc93533U,
  0xbfc34872bfc513aeU, 0xbfbf7e6fbfc1d812U, 0xbfbc776cbfbe1708U, 0xbfb7e830bfba7b65U,
  0xbfb4ccb3bfb697fcU, 0xbfb147b8bfb3bb69U, 0xbfae5e03bfb023f3U, 0xbfaa070abfabd5b1U,
  0xbfa68f41bfa87ac2U, 0xbfa2a69cbfa4cd16U, 0xbf9f69b1bfa0c900U, 0xbf9b799abf9d59faU,
  0xbf981e16bf99df47U, 0xbf9460aebf9625d5U, 0xbf90bb72bf92ca35U, 0xbf8ddb46bf8f4a97U,
  0xbf89564ebf8b6167U, 0xbf85fb99bf879172U, 0xbf829b7bbf840cffU, 0xbf7e5c9cbf8101aeU,
  0xbf769aa0bf7a870eU, 0xbf6f3b24bf729529U, 0xbf67b8b8bf6ba5b3U, 0xbf604dffbf63f585U,
  0xbf58daabbf5c6568U, 0xbf51c64dbf558a29U, 0xbf4ae602bf4e9502U, 0xbf436f81bf474bb0U,
  0xbf3c564cbf3fdc6aU, 0xbf3506e0bf389616U, 0xbf2de0e5bf31662fU, 0xbf2699a1bf2a5b26U,
  0xbf1f3d69bf22af70U, 0xbf181cc0bf1bd75aU, 0xbf10e9b1bf1485f7U, 0xbf098a61bf0d44a5U,
  0xbf024f8cbf05d748U, 0xbef6f912befdaa38U, 0xbee8ac34beefdcd7U, 0xbeda2315bee1589eU,
  0xbecb3a79bed2bc57U, 0xbebcc3d7bec3f44bU, 0xbeae7178beb5a947U, 0xbea01530bea70b4aU,
  0xbe91d40abe990ef8U, 0xbe83ae9bbe8ac5b2U, 0xbe6a9b2ebe791aa9U, 0xbe4dcd6ebe5c32fcU,
  0xbe30a592be3f62a4U, 0xbe13c3b8be227d62U, 0xbdee1281be0536deU, 0xbdb45d23bdd165c3U,
  0xbd74f577bd97694aU, 0xbd025b29bd3ba8caU, 0xbb405fa3bc8fdbc4U, 0x3cc3fd073c29955dU,
  0x3d558b8f3d1bf5cdU, 0x3da49db33d87c320U, 0x3ddde9b03dc1767eU, 0x3e0b6ad43dfa5329U,
  0x3e28aee43e1a4179U, 0x3e4587da3e374599U, 0x3e6257c23e53c4efU, 0x3e7ee2253e70973fU,
  0x3e8e40c63e86d5a8U, 0x3e9cc2f53e959ed3U, 0x3eaab6d13ea39427U, 0x3eb956dd3eb21143U,
  0x3ec7950e3ec0a0fdU, 0x3ed644663eceec89U, 0x3ee4849a3edd819dU, 0x3ef2603b3eeb70f6U,
  0x3f0099a03ef9b871U, 0x3f07f6213f0429bbU, 0x3f0f15603f0bab7dU, 0x3f1625623f12c15dU,
  0x3f1ceca73f19a61bU, 0x3f24232b3f207db1U, 0x3f2c38a33f286350U, 0x3f3364323f2fef3bU,
  0x3f3a5d2e3f36ea85U, 0x3f40df483f3d8d8dU, 0x3f47ddb23f445507U, 0x3f4fa8d13f4b913cU,
  0x3f56dcd33f5333a6U, 0x3f5fc55e3f5b06eeU, 0x3f6683fe3f633c77U, 0x3f6c19d73f6998beU,
  0x3f73b0473f71026cU, 0x3f7afa943f773a70U, 0x3f8181523f7ea8edU, 0x3f84ccc73f833f64U,
  0x3f88a7583f86ae03U, 0x3f8c79313f8a5cc6U, 0x3f8fb96e3f8db548U, 0x3f935d513f917fb5U,
  0x3f96f8ef3f95268aU, 0x3f99faf43f986f26U, 0x3f9d6d913f9bb97aU, 0x3fa1d5753fa00ea2U,
  0x3fa4bda93fa41412U, 0x3fa9aeea3fa765ecU, 0x3faca7be3faada08U, 0x3fb05e003fae7575U,
  0x3fb36a193fb1dad8U, 0x3fb773b63fb63afeU, 0x3fbb15753fb947beU, 0x3fbeb0e33fbce32cU,
  0x90a1998faa948496U, 0x8d908fb78daa9da5U, 0x9a9aa18ba2979fa2U, 0x9c989c8c958d9993U,
  0x938593ac948c787cU, 0x89a1858f979d8a8dU, 0x98a29594977d7991U, 0x9d9284929694a096U,
  0x898d9984849d8884U, 0xa8988c9b93989483U, 0xa28492a8949a90abU, 0x9aa1a19889a794aeU,
  0x859da19ab49b89a0U, 0xa2817f9d98ad8f92U, 0x9292868e9ba79391U, 0xa99aab88979fa3a9U,
  0x6f8ca085679192a4U, 0x9e98a48fa2947995U, 0x92a07b8697889983U, 0x92958c8c96819a8bU,
  0x90908d969f99967dU, 0x60aa959ca78d9693U, 0x8985a5969982a98dU, 0x9292a0a48795a194U,
  0x97a2a59584909589U, 0x868aa0a2a37c9897U, 0x9a958e799e9698a0U, 0x88999f9096909c9dU,
  0x97a27a948b9fa27eU, 0x837e9e9e989c9f9cU, 0x9ba991889a907d83U, 0xa99b79af9197957aU,
  0x69a1a28f7c88879eU, 0x659393959a9da080U, 0x9ba09a80999da094U, 0x8a9e95937a859f92U,
  0xa092b795987c859eU, 0xa0879196949695a7U, 0x8a8694a296859798U, 0x958196818ea57b6eU,
  0x8c8c9888a089938eU, 0x959e8ca799a1a297U, 0x8b96925d8e96a89dU, 0x83978e988b809290U,
  0x9c849a9e858f9096U, 0x9d9190937b90888eU, 0x9c8a767ea18e9c93U, 0x999aa48c9c84918cU,
  0x5d8e82928ea889b0U, 0xa29e9e8b83979a9eU, 0x94969792a09c8ea3U, 0x967da77f899f8983U,
  0x9bac8aa17da7b783U, 0x9cbbaa9693a4abadU, 0xa573a96f8fa27fa8U, 0xb48aa0a0758e89b1U,
  0x95b096a496b0929dU, 0x9d98959996ac9a98U, 0xa7889f9d9a838d78U, 0x98939dac9c95b170U,
  0x9c99c289919889c2U, 0xaea99c9a958e9993U, 0x9fb7779f94a0b066U, 0xa0bba5a85598a39fU,
  0xa2a79a7394aaa39bU, 0xb4b4ac7f977fb289U, 0xa69fa098b0ad989eU, 0x9faaab8d9492a5b5U,
  0x8a8d83a07095a77cU, 0x779488b5aea29d9dU, 0x94a59cacb37ab4a3U, 0xa88bacb09c948f93U,
  0x9cb8969d95a38aa7U, 0xa1a2a9a9a66d97a9U, 0xa679b39dce77a568U, 0x889e7aa596aa7c92U,
  0x76baa580af749d92U, 0x7f918d94aca78485U, 0xa1a09876a6b18b93U, 0x86be9b59a0848dbaU,
  0x94a2a0a18faca497U, 0xa7ac8194b59ea48dU, 0x9c7aab9087908796U, 0xafaf8e9e8c9f9a83U,
  0xa094a88fb07393a1U, 0x865f8f9e918094a5U, 0xac9d94a2a69db3a5U, 0x87b3a6a39c85976cU,
  0x94a49ba5bfccad8cU, 0x8bd991bbad9b948dU, 0xa2655a62929f7f87U, 0x8d80969bb4a48d9fU,
  0xa389b3a2939c9bb4U, 0x868ea49ca773b588U, 0x909e9777a5a4c098U, 0xb490a3a8ad977773U,
  0x969ba2a18b9c97b2U, 0xc4958eb29e9a79c0U, 0x9a9fa39e6298b887U, 0x9a749ba291bb9891U,
  0x947dad9887a68f99U, 0x5cac729f9a98a3a9U, 0x9d7f9aa1a4905f8eU, 0x6f7f7da27c8790beU,
  0x99a858c4aaa3afaeU, 0xababa283749b98acU, 0x83978eb75f93ae8fU, 0x8f9e9182a2a3b87eU,
  0xa5ae54929c7a9c91U, 0x999b8b83889e988fU, 0x8c747b848e959693U, 0x8b6db0b1ba7f778bU,
  0x8d8b8ba9727a7891U, 0xa0a3a1ab9985a2a0U, 0xa57093a5a7a4a182U, 0xa18087ba889d7ea4U,
  0xab8c858798bc898cU, 0x959f8b9a8b83b788U, 0x94869686967fa774U, 0xaa9ca4858c9c9a7eU,
  0x91af9ba480926d98U, 0x9d97a5766da48da2U, 0x75a4927f63b59f8aU, 0x839a91869396788bU,
  0x86919d98a9b67795U, 0x99978c70779fabb1U, 0x8e9291a3a58dab97U, 0xa7af6ab7ac979188U,
  0x958ca8af9e979998U, 0x979890a89a8a9990U, 0x7e9fa2a59d9a86b8U, 0x72aa91b89bb3af9aU,
  0xacad9a77b09aa37cU, 0x9d8eb0b481a6abaaU, 0xac90ad67979a8f97U, 0x8a9b9dbb7ba39795U,
  0x7ab2938cae9d9095U, 0x88929d988f86a28fU, 0x8ea59a8e8a96c88aU, 0x899098b58c875c7cU,
  0x7b929da7b36eb1b7U, 0x9c9385a9b08e45a4U, 0x8a687fa99e7baa83U, 0xa2a08c7a8b8a88b6U,
  0x9272969b7b5b6697U, 0x90a78fa8877ca07dU, 0x92979caba57691a3U, 0x5987908984a6959aU,
  0x8c908aa07d85ac8bU, 0x7c956ca371ab9696U, 0xa79869af9b9fadbeU, 0x90a0a4a7bdb948a1U,
  0x9fbc8f72a871839aU, 0x95ccb2727fbc7c8eU, 0xa073937091a3a7a2U, 0x9d43ac8fa2729867U,
  0xb1b670adab8893b7U, 0xbacc947768928692U, 0x8c8ac5a1809c7382U, 0x8da46a7f987c9e7bU,
  0x6bafa49e9379939eU, 0x9a8394b07e868d66U, 0xa1ab869eb7b29587U, 0x9caa9589829e9689U,
  0x9a7f7a9eb290b082U, 0x9ab48cb39f929467U, 0x9087998f8c80acadU, 0x6cb59c8eb3a3a58cU,
  0x958d8c978d95bf8cU, 0x5f9c9b6d889b97a7U, 0x7f8d8e9287afb188U, 0x989f9e9899878c77U,
  0x6c7eb5a4a6a78bafU, 0x8c93769eb188adbbU, 0x87b4896694b69a9bU, 0x95669ca6a1969faeU,
  0x88c79ba28ea693a1U, 0x84559da4b3ac95a4U, 0x7d988375818c9588U, 0x9d98678ea0c658aaU,
  0x95a99e9e507dba93U, 0xa2aa95a48d7260beU, 0x7b90b7a364989d82U, 0x6b98719c8d958097U,
  0x9c71817fac969d7aU, 0x90798da15b96ac84U, 0x7aa78574a0969893U, 0x9c78986f7c8196aaU,
  0x8b8c7568a0879c9dU, 0x95a47c95a6a792a0U, 0xa968997c6f849096U, 0xa49eb6a9c39ea78dU,
  0x8a987eac979fa082U, 0xad59819ab19b636eU, 0x939b76816e8c8a8aU, 0xa88d4ab19b907b73U,
  0xa287a6bd9775807aU, 0xa867789572797c8dU, 0x7d828ea890b96c88U, 0x7b908d8a6c9e81abU,
  0x49c08285989f968dU, 0x9da776d899c49699U, 0xca5685747ca670a8U, 0xaab1a395938a919cU,
  0x879c8b9ea1948e8aU, 0xb18a789a998b7895U, 0x99b87587ab9799a0U, 0xaa9486b17e9c7a9fU,
  0x8b7097a6a6bc9897U, 0x6e9d928c90a07fcaU, 0x83856e9eb06489a3U, 0xa6bab378ac9ba47fU,
  0x9297928297a7aba1U, 0xab848686915f9e86U, 0xad876c8188a09586U, 0x7676a6a983b07daaU,
  0x8a90b6907f9a9ba2U, 0x8ba9969db0788696U, 0x7e98a19b9086d88aU, 0x679d8a819695b0b0U,
  0x6f974ebf78a9a487U, 0x9ea3aaa097ad9d65U, 0x6b969dcfb99db487U, 0x5b8c9bad82b09484U,
  0x8c8fa3a6ae7cb49fU, 0xb68d6685c5807a95U, 0x9d9f775f967a87c8U, 0x8180c08e98637486U,
  0x6f758f6591976867U, 0x8851885da8adb370U, 0x9c8d90ac849e9f74U, 0x71a4959b7d488168U,
  0x9b3ed0a7897a8897U, 0xc3d2807aa68f8d95U, 0xaba1aa8ba4869d92U, 0x6d97977e8eba6da2U,
  0x9ec99c8d8fa39180U, 0x9a66a150a775bc96U, 0x9c689280a8ae96afU, 0x939c95659ac56278U,
  0x878ba48d97d79aafU, 0x9b6391af879b947fU, 0x8e77759a8b9bb79cU, 0x7b787c91bb95997bU,
  0xb0b5809564a18794U, 0xc1a07a9f817fa5a3U, 0xb988a79193adb94aU, 0x9197889a88bec2adU,
  0xc0a0818c91838663U, 0xa2a5ae7f70b68aabU, 0x97917d8763a0a78aU, 0x7c829aba9f749e75U,
  0x91877ca1909794adU, 0xa7a9c7868395ae68U, 0x95986d8672a8a0a6U, 0x858ca9838c876a88U,
  0x93a98e969a8e9360U, 0x7e82a58f977e728dU, 0x81a67faa9f9398a2U, 0x8c96b28d999fb171U,
  0xa3a875b7a99485a3U, 0xa26fa18897946eb3U, 0xa8929c9cb3868e74U, 0xa1a18e549690b37eU,
  0x8b6f8e889190a67fU, 0x996aa59fa87a64b7U, 0xa6aab09f95849b91U, 0x929397a9b091a4a0U,
  0x72bbc083ad9eae95U, 0xa08896a284979286U, 0xa69e91939a8489a3U, 0xab9e9e6397a89ea3U,
  0x949fbd909993b19fU, 0x8d6b9b71b0829d90U, 0x8e818b919fb6939bU, 0xa79a9a739da27272U,
  0xb09b8faf89878a79U, 0x8fa25d878c90b186U, 0xa8a7af91a49ab58eU, 0x97a29d72969b8ca9U,
  0xa79c9ea4b499bc95U, 0xca7ca585bc92aea0U, 0x868e8992abc19b9cU, 0xa097899fb2c6aeb7U,
  0x9f888b9c628ca97eU, 0x9366a5937c7a708eU, 0x9a7f7b81769da89dU, 0x8ba67f9e90a7898fU,
  0x9f9e6698a884868dU, 0x8daba698a380a476U, 0x97ac979b8b9da3a1U, 0xa674b1b19e83879dU,
  0x8d8ba29888749b8bU, 0x9b959d63b4a08b87U, 0xa8719795998f969cU, 0x95988d7aaaada495U,
  0xa39a8b90a8b2908aU, 0x6a879392969ea1adU, 0xc189b06eb6a396c2U, 0x8c9aa18cbb819495U,
  0xa38da59f9b59b0a3U, 0xa6abae78aa8f9c9aU, 0x9eaa9b9e839fad9dU, 0x839699aa9991b699U,
  0xaf73a3999c96bbadU, 0x978795657dabc1a9U, 0x8d9591966fa07c83U, 0x7893acbd8a709aa7U,
  0x8a8ba9a5aaaf8f92U, 0x849c9ea6a0a9a290U, 0x88bd94b0aaa1a97cU, 0xa4a7809a86a8878aU,
  0x9b78b4a59e9fb0a6U, 0x6e8a779f93a7a697U, 0x7994b1679bafa8a0U, 0x9c9e948ba9a99896U,
  0x848d8da892be859bU, 0xa7939da0a49f9192U, 0x7799a0a4aaaf987dU, 0x86a3a9a9868a957fU,
  0xab8fa5a1989c9ec7U, 0x927ba7908493699eU, 0x99aba594a4868678U, 0xae758b9c9a91959cU,
  0x8aa9b8b39d989972U, 0x77957eaa89907da3U, 0x8eacafaf7f8a9f8dU, 0x9ba9a29a9c9ca289U,
  0x97b698a19ba38da8U, 0xa99b8e9a5d8d9a8fU, 0x9293a99f93ad6c84U, 0x8e7aa197959aac8aU,
  0xa87ec1a9a6a1a1b1U, 0x9a999e9c9f8da4a2U, 0x58539e9983948d81U, 0xa09b90a88b9c87aaU,
  0xa387958a938ea391U, 0x948897a09796a49aU, 0x89a696a4a2aead9cU, 0x8e8fa4b99c9798a1U,
  0xa89c779083b7b292U, 0x69a49181a18db491U, 0x9a979d7690a2868fU, 0x85a29da59cb7a29cU,
  0x8b8c9993847481a1U, 0x8e9db7619ea6a592U, 0x7ead85789690a4a0U, 0x968f7a9da5988088U,
  0x92a3ad92a7b18da2U, 0xb2909172a1ae87afU, 0x848b98b886b87ea1U, 0x9983aa696b8d939aU,
  0x977c9c9879a68d8bU, 0x868a9ca99c957696U, 0x96c99c698b81799bU, 0xaf95be9ea1a29f8dU,
  0xa1ad8fa6ac8daa91U, 0xaba299967aa0bc8fU, 0xa6997798729ba7adU, 0xa3a5978494938697U,
  0xa89f95b49ea7689eU, 0x9183889b54b09ab0U, 0x9e9e9aa09cb28e80U, 0x96a0afafab9eaf8dU,
  0x9fa76daeb2ad8a91U, 0xa1df56a39a7cbc79U, 0xa69b8fada69ea386U, 0xa973b7976589a968U,
  0xbc89ac9790af8a96U, 0xa2848698a9a8af9cU, 0xb4a57db1af979b8cU, 0x9ab1a8a0999c956bU,
  0x8ca1b994a8979a85U, 0x9ea4b682a28395aaU, 0xbb9194a695ccb7a4U, 0xaab2aaa9759f7fabU,
  0xa786b090a58aca92U, 0x5485a89eac8e919dU, 0xa9a58d9fb9b98d96U, 0x9895b47caa9aaea9U,
  0xbe9e986c708a9980U, 0x7c99969c989c90cbU, 0xa8af7a867e9cad8cU, 0xb58ca8a980a88f8eU,
  0x908f988f82aea596U, 0x5a9782b19ab7afa2U, 0xad6977c8cf93a4aaU, 0x819fa28daf9999a9U,
  0xabaf8e7378b9918dU, 0x9e8eb1be9599a282U, 0x998dcb89a18dbc70U, 0x907ca497899889acU,
  0x8faaa99c7c998ac0U, 0x9d7ec4999586a2adU, 0xaf8b968ab3a7b5a0U, 0x8089a49c8c908595U,
  0x7fa685a99fa48c93U, 0x88b5abaeb1c6987fU, 0x96aeb39bb970bec6U, 0x948aaaa6c2a47f85U,
  0x9eb799a18f8fa285U, 0x929b95ae91a97c8cU, 0x7f6792937b8f8d92U, 0x85afbd8e958a7d92U,
  0x9f9075a1878a9f97U, 0x859d8f899994969aU, 0x8f927d97889688b4U, 0x9d9da68d867c9195U,
  0x7e878eb699b48f85U, 0xa69c88998e8b8691U, 0x9a9c8e9393808b82U, 0x968e9d8ca094a0a6U,
  0x918f979280897d88U, 0xa08c838093a08a9bU, 0x8c858499906f9a9aU, 0x6c8eaa87a4859e7eU,
  0x8288898d898f8e8eU, 0x9192998d779e7c85U, 0x918581899f988c8bU, 0x87a29b9986859e9bU,
  0x9f789b9a8499a397U, 0x78a7a19398917f94U, 0x798f91969c8a876fU, 0x859888a7968fa585U,
  0x899c82949b9d8c8cU, 0x908482839e9f6098U, 0x8b83a49093a09cafU, 0x9a91919f8585a082U,
  0x937f8a8f909e949eU, 0xa27f9899a59ea192U, 0xa1c18b97a9908284U, 0x997b97868bab909fU,
  0x969778ad8a8b9498U, 0x8d9e938d93959084U, 0x9b9e88a9a89a91a2U, 0xa1989a8d79ac7080U,
  0x7d7d998e9eae978eU, 0x95a0958e808d7c92U, 0x7e94928aaa9f96c9U, 0x8b8b8f818dafa792U,
  0xac958d9e88869aaaU, 0x95768fa3a3959692U, 0x8b9e95a5959db1a4U, 0x9e8c998a8d908f94U,
  0x92af949091768191U, 0x9a93798f969a8d86U, 0xab9ba3a2939c9c76U, 0x9f849298937d847dU,
  0x74a096aa8ea58f98U, 0x91848d7b9458866cU, 0x8590848b9fcba78eU, 0xb2a99e99a0b39b9cU,
  0xabb26f9c8c9abe9fU, 0x78869173bf96ac71U, 0x67c490949c6f8871U, 0xa779b8c3ad639e6aU,
  0xaaa66faab7579d86U, 0x9f979b74aca88b70U, 0x9dad75a199adbda8U, 0xa49e98a38fa686beU,
  0x8292b1adb990799dU, 0x9d8ba2baa282bca0U, 0x9a93706596947696U, 0x97a7b0b28a8883a5U,
  0x9f958da17197af99U, 0xa47f93aa9995b49aU, 0x918f9cb8957f8d9aU, 0x7f78978390888089U,
  0x96ada0855e86b399U, 0xbeb589a7a0a8878cU, 0x98b86b7c9e889d92U, 0xa79a86afc4959fa5U,
  0x8d96749d90899199U, 0x92919da99da38e9aU, 0x6b597579a79d8893U, 0xa4779868807fa783U,
  0x8ca69d80b177968fU, 0x926bafa6878687a1U, 0x7c8c937a828c8568U, 0x8d7e8a9ab44d94b6U,
  0x9e8f71806ea89e89U, 0xa5c79cafa371797aU, 0xc59d9d84a5767e76U, 0xa1a082ae758a8e90U,
  0xc4bf6da1b1b98974U, 0x93a49c939d78a491U, 0x90ab92ab9ea19387U, 0xa37bb1b695878fa5U,
  0x9f848c95bab79cbaU, 0x88a99caca3af7a7cU, 0x6f7eadb7bb9d8782U, 0xaeaf978175a48676U,
  0x99949fb7a5b36896U, 0x9897b881858280afU, 0xaec18985939f6985U, 0x988b70a393ae82a9U,
  0xab8ed098a68faeaeU, 0xa08695b880987cbbU, 0xb587c5c094898f8fU, 0x5e6faa92bd81bbaaU,
  0xbb9b8a8ea89c91acU, 0x978db4909e98a38bU, 0x49a48991819c9899U, 0x998483979f93af8cU,
  0x94a09b868a96a496U, 0x9d97b2b191719d98U, 0x809182abb0959289U, 0x7b8a85b099ab667cU,
  0x9e95a1ada9959b9dU, 0x96879baf8579768aU, 0x7faab08f9f97c0b4U, 0x8a8d7facafbc9a9eU,
  0x9c8f6986817d9495U, 0x85a2ad9b81a6b08bU, 0x9464827c9d788e98U, 0x7d92849b988e788fU,
  0x97a892b198a29273U, 0x9797a5a4ab9b8b99U, 0x868d9583b88f8c9aU, 0x787c899592a582a1U,
  0xb5978394b29d86a3U, 0x908d819497aba679U, 0x8e81978a849294abU, 0x87a39e98cc80bba7U,
  0x76907d929f9d719eU, 0xab7e8ca392948995U, 0x979cafa87d9d9599U, 0x906c60a9a4ae8895U,
  0x9a8e8f86909c83bfU, 0x7e84907c909182a6U, 0x76bd96a05fac8794U, 0xa4a09e9e95998585U,
  0x7ead937979819aa3U, 0x75a98d8493779484U, 0x827b8aa1868a91b8U, 0xa0965a91b7857799U,
  0x8f957c9b958a9475U, 0x7d909d7990878e7fU, 0x9eab82988c9e9cb6U, 0x7ea68da698aab49dU,
  0x6b96b77d8399957fU, 0xa5aeb097b09d7a6fU, 0x9d9c8f9f97bd86b6U, 0x6d8b8db39f9694a9U,
  0x98848f8fa9a4ae6fU, 0x9085a3a3a47ea3a4U, 0x957999b88b988fa3U, 0x8597799796a39b9bU,
  0x6d9088aa9892aa8fU, 0x8d8aa89c828d8c86U, 0x96979a8f8e989557U, 0xaa907c9695c29c9aU,
  0xc188a09590909675U, 0x8b9d88968e959593U, 0x848489a595959594U, 0x85af96768a98968dU,
  0xa0a17a8ca4a18da5U, 0xb87aa08393878fd8U, 0xb19588807f95a879U, 0x969fa169a7959598U,
  0x9995af9e8a8c95c1U, 0x98c08e9595957063U, 0x959d839696b743c0U, 0x8195a59396969c87U,
  0x829c937e95959598U, 0xc871af958a579e95U, 0xb281c27b94849690U, 0x95807a92b5989486U,
  0x9695959294a9a8a9U, 0x7b829087a8778397U, 0x949b9e8f95aba894U, 0x908b94999295877dU,
  0xa2958d7486aa9594U, 0x8e957ba996908496U, 0xa595ac8395988e80U, 0xb6789ecb95a58f82U,
  0x9494959894848095U, 0xb598ae9595a0628dU, 0x93969d8e8e949688U, 0x90909aae99a986bcU,
  0x8a90969a6e857495U, 0x9595879596959995U, 0x9c998e95895e7795U, 0x9492849b599a9588U,
  0x99ada394a8a37c96U, 0x958e959b8f9bb284U, 0x7d9c77907d9c958eU, 0x7295956e9b89b46aU,
  0x9999a7959f9a9694U, 0xa495969595af9595U, 0xa08f7085958a8e94U, 0x8a9995907b8c9964U,
  0xb1a19599927797aaU, 0x81a088b3ad968998U, 0x95955d9a999c9696U, 0x92889688a38e9593U,
  0x7f9a847f9bb2878bU, 0x7b95afa058859495U, 0x947d95957095968aU, 0x99ae638ba7c6a04bU,
  0x9c97928997a3a998U, 0x8e9da7a58ea28b86U, 0xa4a69d9793888da9U, 0x6a6582829e947b81U,
  0x99a2a18dc188917fU, 0x9c9587af769ab680U, 0x98a280888da2a0abU, 0x96a87379a3a295b9U,
  0x8186a6a495ab877aU, 0xa089969584868ba4U, 0x72a099bd939189b0U, 0xa996a6b08e8bbb61U,
  0x7f99a8a3a7a5848fU, 0x9da9a8aa8ca66f9bU, 0x90ad8fa48e87b7a4U, 0x9fa9a3939e89a089U,
  0x85a0a0b094a6a7b0U, 0x8a7c95979e948594U, 0x93679ea592937b98U, 0x97908295998ba1bfU,
  0x947d798b8a9c959aU, 0x796e85a6918f8bbcU, 0x899677a29496949dU, 0xa1a3aba98ab0a58cU,
  0x9666a5a0988c88adU, 0xa06a8195a19b9c8cU, 0x57949091809f8997U, 0x9e8ea4b57aa7a794U,
  0x92a0908e928b8693U, 0xa59274a6a5629eacU, 0x729a979c9a998abdU, 0x9a937fa2ab9d75acU,
  0x6ba4a69f9e928683U, 0x9f7c96aaa28eac8dU, 0x8c77759f8a887da5U, 0x8f90a49f9aa8a09aU,
  0x92947f89949eab99U, 0x95868a97938f8999U, 0x8f88948aaa9c929aU, 0x97879b9e8db48586U,
  0xa69d979a789599a8U, 0x7596ac707a94949aU, 0x85b18a99a4a8a296U, 0xb898a19da1858c9cU,
  0x93b09e5e80a5a08cU, 0xc2b79589a7c79874U, 0x9bc18cb38d6db37bU, 0xb07f9ca2987da39fU,
  0x96a69a9d9698928fU, 0x7d8c8d9680868ca6U, 0xac948f998da0b9a3U, 0x8991999e9fa99693U,
  0x65aaa7b4ad969a8dU, 0x5aa9989ea7869892U, 0xa17bab999476bb9eU, 0xa598726b6daabb99U,
  0x907f868e9e849ba6U, 0xb88ba37d88759c82U, 0x80b88c9db397908eU, 0xa58ba2a98592aea5U,
  0xa5838ca5a7a48a90U, 0xb39bacb1a6917cd0U, 0x7798a2a7868b6d9eU, 0xb17f6b8ca4a89292U,
  0xa7687f988d73b1adU, 0x7bb79096b39ca697U, 0x94939aae86a879a2U, 0x96879fb48a858e91U,
  0xb795a37eaaba897dU, 0x8f9f98b485719a55U, 0x878e9891a485a1a6U, 0x7487a8647f9e6ba3U,
  0x8797c2a58a879a87U, 0x9c798f7c8b979da3U, 0xaaa69f8aa39e7e9fU, 0x94927f7e9ead9faeU,
  0x75827787b89dab95U, 0xa8a496b48fad9fabU, 0xae9f83b994a39daeU, 0xae96aca1a799bff0U,
  0xa49a68ba99bc7e93U, 0xa6b6a4788c94a798U, 0x8e7fb7a2a1988299U, 0xa3749fa2b58ea1a9U,
  0x9e9c7f9e6f94aaa0U, 0x9dc099b282809b85U, 0x8a9388829f949da2U, 0xaab4969a8fa6909aU,
  0x89afa0a088a9aab5U, 0xab5c8b8ba67fa88dU, 0xc69e9a9995b1969eU, 0x9b9da6bbaa8e75a8U,
  0x8f62a792bdaf9ea8U, 0x7f9b8c719ab89795U, 0x928e8a9e9eb095a4U, 0xa9b19789b7a3aa76U,
  0x52b47f758c80aba9U, 0x769bad98668fb696U, 0x8f8a7d96bab0bd94U, 0x96a1d49c4578858cU,
  0x8a88a18da3a183a1U, 0x9c7f8b9a7f9296abU, 0xbe8ba88da4a79fa0U, 0x738da89d8d979c8fU,
  0x948d8d867b76a4a7U, 0xab89a4ab9fb191a5U, 0xb57f9ab39a9aa894U, 0xa69688a1a9a79fa6U,
  0xaba698a06b9d9d99U, 0xa09391aab0889489U, 0x9b86aca8aa9d9489U, 0x8d9c838ca0b8a595U,
  0xa690a59ea49e8ba8U, 0x818e9ba3a6afacb3U, 0x899cb89493a49a9cU, 0xacac818ea191b1a1U,
  0x94a4a7918ea0aa9eU, 0xa25e9d9992879e8eU, 0xa4949080aa9f8c7eU, 0x8891a4949ea3b197U,
  0x919b81c2a0a79488U, 0x9ca39ea68585ae9aU, 0x768d9bad999aa98bU, 0x8a9f9b8a909db39cU,
  0x9f90a1bc7c8ead98U, 0x94a0959a90a5aba7U, 0xb19a8795a5b3a087U, 0x929aa8968b7e8d9bU,
  0x97a5a8a88b769d9eU, 0x9489779f7595a193U, 0xa6958696866e9aadU, 0xa587a4a185828799U,
  0x968d95949089aba3U, 0x969ca39e9392bba8U, 0x768f9d9b9193739bU, 0xa7a89aaeac9ea7b3U,
  0xa98f7c92a5926f90U, 0x9b9c928aaf997db8U, 0x9fa39fb79995ada4U, 0x9a97a8959296a5a0U,
  0x9c98b6a79fa2a197U, 0x8c917381a491999eU, 0x94b18c8f9aa3859cU, 0xa996949f9b8da4aeU,
  0x9c958784a29a98b0U, 0x838b8fa9818c9dc3U, 0x9e9491b3a19781afU, 0x91a6a194b4af9381U,
  0xa2a28b8789959dbaU, 0x5d92aba1b38b969fU, 0xa495a78e90939390U, 0xb093a28ba39898a2U,
  0x9793a5acba96a0a4U, 0xa28fbab8a1799c8fU, 0x98aba4859587778fU, 0x799e9b9299a9a79dU,
  0x957a8fa39d888992U, 0xad8196b6a5a1a09aU, 0xa4a1a65197a2ae99U, 0x9291a39aaa93a49dU,
  0x8f867596a2879b68U, 0xa0a99dad8d9a9e9dU, 0x7d90aa92b9a0a699U, 0x959f8d7ca6a69b9eU,
  0x999a72a9879691b6U, 0xa09d8e89b09a90a4U, 0x969aa17d8f8b8b88U, 0xa69ea0a99dbb8e6dU,
  0xb9c2aaa095886b97U, 0x96aaa4a184adacaaU, 0x9a878b859ea891c7U, 0x97a493908380a66cU,
  0x91b4948fbf938f8dU, 0x9c8e9b7f9ca6aa9eU, 0x75b0a19c93af95b6U, 0x92929899929cb1b5U,
  0xb48097aaa5c2a38aU, 0x9a88a68b6ea7aba6U, 0xa59f968e9e9e9eafU, 0xa0a0a4969b9aa799U,
  0x8e9f779768b690bcU, 0xa069b5a09e989fb9U, 0xa29aa69e9b93a3afU, 0x9ca377a3989a9d9bU,
  0x9c85a7a48fb9a5b9U, 0xa1ac96949b94a0abU, 0x9b99a786ab82917aU, 0x98909594a7ae949eU,
  0x9eaa9578b3a1aa84U, 0x8db5aaa09c889fd6U, 0x88a4958c9a998aa3U, 0x97a492919c9da970U,
  0x8ca29f9a99abae83U, 0x6c9087ab81b47fa8U, 0x9ca59d9d869a9583U, 0x877aad969d8992aeU,
  0xa29fa177b09878a3U, 0xa1b8b183aab9a891U, 0x8798b080a07cae9dU, 0x99979a90c5578193U,
  0x7e9bb795968e8783U, 0x89ab7ca4ae94989cU, 0x9286ab92a8969e85U, 0x989598998195869bU,
  0x9d8568939584ae92U, 0x8289866c8797877eU, 0x9a7ca5a3696d948cU, 0x7790ad9a8475a38cU,
  0x7b90846888839391U, 0x8e9eaba09891879bU, 0x8f909ba68c968c8aU, 0x7e99898b80a1808cU,
  0x8f97a1a0b1a0979fU, 0x918c896ea4988487U, 0x9486ad8a95918e9eU, 0x95838295a6989d89U,
  0x90b08b8892998697U, 0xa19aaf99a98c957cU, 0x898a9084afa27da1U, 0x7aa2a78d9f91ac95U,
  0x7b97acaca58f928eU, 0x9485a682817283a8U, 0x9f8c6096a58d8ba9U, 0x8876b5758c8491a3U,
  0x96ac8da08ba2a681U, 0x8882979f8e8e90b4U, 0xa89c8d868eb2af87U, 0x7fa3a89c937aabb0U,
  0x99b291af80919981U, 0x8f937da4819da4b8U, 0xb6918a7f8ab97e92U, 0x9a8ca1829390718fU,
  0x8e748d708075a19fU, 0x907a96959c9f8b8bU, 0x796f9c79739c9889U, 0xa7798c898aa5b1baU,
  0xa48c827b9b7e78a9U, 0x9281889da69884b3U, 0x86b1a089ac809d7eU, 0x96869c5a8a70b7a2U,
  0x9e89a98e93b2a779U, 0x84ae94889f939b9aU, 0x98aba88e9a878ba3U, 0x75ac6c818c9c9b9aU,
  0x877983a69a9487a5U, 0x9a7a728a9b8c7a9bU, 0x819e726e84a66e77U, 0x91a1b1a29f8f8368U,
  0x8c82a180989ea08eU, 0x949c7b7b99889395U, 0xb397828d7898a281U, 0x8a92b0918b7c9490U,
  0xa6a68c8a90928bbbU, 0x8d70919493a69d8aU, 0xa25ea086a191a69aU, 0x72a74387a3888d8fU,
  0x86938f87ad956699U, 0xa9888a8f638c8d8aU, 0x76959e9e8c92958fU, 0x848c9c95849eaa9cU,
  0x6b8b98a18f8d9a9bU, 0x9297a3a0ab9393a6U, 0x9597b6818f937ea1U, 0x9e5475879aa38582U,
  0x9ca08f818ba28d97U, 0x989ba29b78ad9191U, 0x6e8ca8af7a978f96U, 0x9b988f8895aea295U,
  0x99a09fb781959194U, 0x7eaa9594a2a19eb6U, 0x875478999f857090U, 0x818f699ba79dab86U,
  0x979b9485a76c8fa7U, 0x8b8ca2aaa4859d9dU, 0x9c8f9ca5877fa298U, 0x8a907ca1918b9782U,
  0x96ad9f6786a58f98U, 0x9c9580b294b19795U, 0xa5998893818e9e93U, 0xa89bbc83a4918072U,
  0x8cac9697958e8a8eU, 0xa0838e9a90ad8187U, 0x8f7da1b0838290a5U, 0x6587847aa3918e74U,
  0x967a7d97bd8abb89U, 0x88ad8a93a3a890aaU, 0x8d8485908b929f90U, 0xa194919373a28d9cU,
  0x609595997d7c7f95U, 0x8f8d94aaa0859799U, 0x8fa29a9d929682a4U, 0x9190bf9d8e9eb381U,
  0x8b879aa0989d84a2U, 0x92899c946f968d89U, 0xa4a9919288a99477U, 0x9a948e979d97a275U,
  0x8da996a1ae55a8a9U, 0x9c65808f87908c8cU, 0x7b828ea7839e7684U, 0x9490a079926269a9U,
  0x9da1a29c9e90a082U, 0x8dafa595bda29d89U, 0x98a6a4a0a381a0b2U, 0x8eab8d9b8d858795U,
  0xb5a1a7a19d9bba9eU, 0x8f8e818497a69ea2U, 0x868d969e769f9c9bU, 0x94ad9c9eb497a18fU,
  0x908da286a8a3a181U, 0x9ca08f9c92a7a19eU, 0xafa7799db39ca091U, 0x99ae949382929782U,
  0x82a1a09aaca2a78bU, 0xa79e939f97a38ab3U, 0x7ca0a4b08b9897a7U, 0x9f7a86a398a3a0afU,
  0x91b1a7a6a39a91a1U, 0x9e87ad9f9b999ca1U, 0xada2b7a8a1bba19bU, 0xb7aa9fc48d79ab9dU,
  0xa491a3a49f7f8dabU, 0x8ca99c9d888b94b7U, 0x84a7a7ab909c98aaU, 0x9197ada1a9b39690U,
  0x6a97a3979a8e9aacU, 0x82916ba5b290b094U, 0x918991ae919daeabU, 0x7eada6af98a295b2U,
  0x9fa37ea29c74a28dU, 0xa3ad8ebc8f7ca24dU, 0x9599b3a1a09655a7U, 0x98a7aa968d9c9680U,
  0x90a4bc9aa8979da5U, 0x979181888fa39ca6U, 0x8d8e9a939488a28dU, 0xab65a3a1789aa99eU,
  0xa3a89ca1ad9f9991U, 0x91929aa395aba187U, 0x8facb1aeac81a18fU, 0x9a8d87879a928c8cU,
  0x9fa291b29a959ea6U, 0x6c999577997b8da1U, 0x7ba3a38c9ba99c88U, 0x98bda9a49fa197b3U,
  0xaca9aa8476977ea0U, 0x9c9d9d7fa19da1a7U, 0x98a68c8e95817c91U, 0xaea8ada5928b809cU,
  0xafa0ab989074b596U, 0xa5677d8f82a5929bU, 0x82a481a2aa717f98U, 0xa29391969c8d8296U,
  0xae80af7fa096997dU, 0xa097bf909fa0a381U, 0xa296947ab199899aU, 0x719f5d6a9390a397U,
  0x98a16d928a747da2U, 0xa36f9479925e9f90U, 0x6e9229ae50bb809fU, 0xa294957b8d82afaeU,
  0xa6ac8f777ea59ba5U, 0x9a79a0bf938c8d96U, 0x9ea0896c80a19da5U, 0xa2937e9484a38c96U,
  0x944e7d7ea28b83a0U, 0x8dbc908eac809fa9U, 0xaeba71999996969dU, 0x888c9b9b757e8894U,
  0xa1a6ab52ad858cbfU, 0xaf9a775d87a9b090U, 0x999db09290849b9dU, 0xa38f929b899d8a75U,
  0x9891637fae8b9594U, 0x5b84b39a9b849eb8U, 0x8b7cba8ca48fbb89U, 0x9a9c9486a9a67e94U,
  0x86b1999695a2b186U, 0xa09396a58ea1aaabU, 0xa879838d85989684U, 0x9c8d7f80b9b886e4U,
  0xa08b7fa07f97a7b1U, 0x939f8aaaa584ad84U, 0x8f9fa8af82949e78U, 0xa48885a7869aa18aU,
  0x9b7e7e9470a48da4U, 0x85977c9f86abafa6U, 0x919261a79b77af97U, 0x848a926fbead9da9U,
  0xa387a5aeb8a976a8U, 0x948d8ba79c9294aeU, 0x9195a08a8a887e8eU, 0x9b9dac9be67c8880U,
  0x959f806ca3957da7U, 0xa07c9d6a9b8b8986U, 0xaa68afa8a885b993U, 0x8a9da78ac8b2a19aU,
  0x6691938e82a492a9U, 0xb7c8a7c1898ea394U, 0x9497b658a79b8381U, 0x6888898a888b7b86U,
  0xa092928a83abaa96U, 0x909f9999c69d9d93U, 0x84909d979389866cU, 0xa4ccbd8e7899b27dU,
  0x8fa6768586a99493U, 0x93809b82a29d826eU, 0xa1bc6ca7a1769f80U, 0xa6939a8c868ca998U,
  0x91886e8eaf917497U, 0x83a7928da09aa753U, 0xb4a78e839f9aa2a4U, 0x8b92ac6bb18965b0U,
  0xa08b7a699e88638cU, 0x9d919480879ca288U, 0x9964769e958b947bU, 0x769d8ea4978690a3U,
  0x80a094938c7294a9U, 0x807ec58e8ca99e71U, 0x63b0a76c9b8eb0bcU, 0x80b3a17f719d9889U,
  0x9f9bafb28199bbb3U, 0xbc8bab6e98a8a285U, 0x8d978f96957a9d78U, 0x9d7ec374a38c919dU,
  0x7aa98aa39d9c9c9bU, 0xa86a799ba0a9978cU, 0x989c91a9a2a69996U, 0xa46b8db19f7e9d88U,
  0x8769819386b8a490U, 0xa26daa7f92b490a3U, 0xada57fa37ba39ba4U, 0xa3a198989b9192abU,
  0xaaa2639d6e6da395U, 0x8eb2888099608866U, 0xa6b1828a868a9d8aU, 0xa19085769cab7e8bU,
  0xb6a57092a699a377U, 0x937b899d8c92a4a2U, 0xa68a9ea78097917dU, 0x71b08cb8a9929ebfU,
  0x9e89a67c9698aa8aU, 0xa5aeaeada3849478U, 0xa6b5a3978987a298U, 0x95619c6aad9c78adU,
  0x9e7d7da09c96b192U, 0x9194b5989694938bU, 0x8d7797a3a1b490adU, 0x718c93ba899d93a1U,
  0x8c969d9693a67f8dU, 0x9e95958a839b7e95U, 0x96918eaf939e9fa3U, 0x98918d7dbd9d6695U,
  0xa78c6ca15aa0bcb5U, 0x84a39f90a2825489U, 0xa4c99a54952fa498U, 0xb8a3b39ebfa689a6U,
  0x9e9d83c0a095919eU, 0x949086b0a6abaf95U, 0x9ca986a56e83bd95U, 0xb8a494749779857aU,
  0x9b9aa1aca3866f9eU, 0x8cbb84803fa6a5b0U, 0xa8a18e89ae848d89U, 0x839499b795a38681U,
  0x88ad9e9ea4ae94a1U, 0xcec584b7b1a1c286U, 0xa386928f87b68f79U, 0xa8a193bdb09fe080U,
  0x925f73a8a37597a1U, 0x95519470a3a084aaU, 0x82a3a98492a2877aU, 0x7d7e9aa998818393U,
  0x84bb505e96b29844U, 0x769a8a9c9c8c8594U, 0xae899975a697946cU, 0x8385af9a89eebd8fU,
  0x995c677f968490b6U, 0x65a58f95889fa5a5U, 0x6ba19e9c8d75755eU, 0x8c9855aa8c898a88U,
  0xa18a839f8c949087U, 0x9ca3a2a2a08663e1U, 0x948dc885908b7a79U, 0x9c7e83a581796d7bU,
  0x82647695a7b0a6c0U, 0x767e8ab0606c5872U, 0xa080988093ae8093U, 0x7ba1aea6ad7984a2U,
  0xa2a1b2698e6c946dU, 0xafa0b4887a9cac9aU, 0x734a8f9c927b7675U, 0x989e836e947d7c69U,
  0xa152a8a4ab98a378U, 0xb88ab0887f89a5c0U, 0x92989ba599a19485U, 0xc1717b988fa39969U,
  0x979d99a89bab7b85U, 0xad7eb5818797c27cU, 0x8d6f6e989a8c7a7aU, 0x907fa8a388876ba2U,
  0x83909a966b91999cU, 0xa385917b71869ba7U, 0x9e938b987a629aa5U, 0x859494978670a7b6U,
  0x9fb6968f9a909f9cU, 0x878e8c987d818eabU, 0x9597a3b95fb9967bU, 0x7eaaa091878ea2b3U,
  0x92a48271aa929da1U, 0x9da8b088a7909596U, 0x8e8b8c9a6f9a9e7aU, 0x999b7da3a4b2ae72U,
  0xa8a0a1a09fab9f8dU, 0x9b9491798595919aU, 0x8bad93a3b6b69da0U, 0x8e949e95957d847cU,
  0x959b938c91998c9cU, 0xa08d8ba4a8857eafU, 0xa28c89a3ad9073a0U, 0x97bb95a0b5997e92U,
  0x9aa5aba3959f939aU, 0x8f8994919b84a09cU, 0xa3ad829d9e9d619bU, 0x8b7983a390b68598U,
  0xa68b789fa1aea09bU, 0x8ca4b59c858f9096U, 0x8c92a0868b90989aU, 0x8d939983928e8c99U,
  0x9386a58d97ad9191U, 0x8da094a1898e9fafU, 0x9f928f999ca19596U, 0x8c849b7298a091afU,
  0xb4a98d9e94afa093U, 0xb895afa482c18ba6U, 0x819c8b8a829a95aeU, 0x997c9da8ac979da1U,
  0x9c6c9ab9a9888298U, 0x869da19e9089b197U, 0xa29ea48e83829c78U, 0xa38c9593ad67a4aaU,
  0xa19a846fabacbc8fU, 0x83898e9b9b8f939cU, 0x88a3aba4b6798a91U, 0x86a6a299738bada2U,
  0x65969d92a79c85aaU, 0x9c9ab08275a29983U, 0x889a986d689b9183U, 0x7b8c87939f949280U,
  0x8daa917d99938491U, 0x969c7f97bfba988dU, 0x9c7e88b27aac8897U, 0x8d84b38d9a938a92U,
  0x9eaa8893aa958dc5U, 0x948c938c92bd9697U, 0x62b3b89d9cafb28cU, 0xa1a9a68998a0a3a5U,
  0xa9cb94958bab9c9fU, 0xa3a4806b8eb39392U, 0x7091b1a6ac8c6fb2U, 0x9c909ba17cb7a290U,
  0xa7ad96ba9c9b94c7U, 0x8fbb6c7e978f845cU, 0x92a5918baab09faaU, 0x6aad6bb49e96948aU,
  0x819c9a9790c69b94U, 0x9d94969591a6ab90U, 0x8577b1ae8f9ea198U, 0x97aaad7e9cb1919fU,
  0x8db4a0a16e7486d1U, 0x86c19b9587838997U, 0xa4c49997959f9f9aU, 0xa09593b1908aa98aU,
  0xa86f60769ac78785U, 0xa7a7a38fa9a5aca9U, 0x9c94889aa6848e9bU, 0x509c89b5a86ca887U,
  0xc9b09685a08e97b1U, 0xb79782a097b5b3a4U, 0x96ad7d9f8b97a49fU, 0xaaa3b27d97967e76U,
  0x8ead8697a5999d9bU, 0x77a1925f9d86a7a3U, 0x7ab4afaf8684a5a0U, 0xd3968773ae81958bU,
  0x7ca693965f8797b5U, 0xa1ab7b9281a2a88dU, 0xa0b9aa949099ae93U, 0xa19c668f8a8d8779U,
  0x9b9e919bb49d8ca0U, 0x76aa9eb49695a5b6U, 0x8d8eaf969bc0b08fU, 0x8495c1a18d93ae7eU,
  0xa097b0767eba91a7U, 0xa985aebfb19f898cU, 0xa77da0c3b1a0a88eU, 0x988aa19884a09c9bU,
  0x96a797a2a78e95a6U, 0xa98c8aa3adaa8c99U, 0xa6a2b6aba6987894U, 0xb48f6d958ba9b2c5U,
  0x84939b9088849ab4U, 0x9b938b85907dc295U, 0x92868f95869b9190U, 0x988cb69888968e88U,
  0x8bac9887a650959cU, 0xa4a0a19a7e81956fU, 0x8792a865807c9484U, 0xbb7e8bb39aa17a90U,
  0x9892bea6b9b9978eU, 0x919e917f7aa09186U, 0x86889d868ea48868U, 0x869889898ca19d7fU,
  0xa597739891a693a7U, 0x7f86968f7e939976U, 0x6775a684839a8392U, 0x7b5ea990a1a996b9U,
  0xa37fa89ca391998dU, 0x949590aab094a791U, 0x85958e598b8c9193U, 0x858a999e98a19998U,
  0x67929a949986a0a1U, 0x919098a7907e988dU, 0x9b94a77ba57bb0a7U, 0xa2a090a7a4767e8cU,
  0x88aa6f948c85977bU, 0x9d9ba8799588908eU, 0xac8ca1b09f989195U, 0x7f7f9f9b8ea49b89U,
  0x7397a5a076938180U, 0x8fae707da8b39691U, 0x958f678874a3a2baU, 0xa797958ca87d8c94U,
  0xa88c97a29c758284U, 0xb5857883a3847579U, 0x906397a794789890U, 0x9a959894908a909eU,
  0x7b8e8ba28da7918cU, 0xa880858a8277a861U, 0x9ba68797938d87a6U, 0x86aea8959aa49393U,
  0x967e999b6e919a8eU, 0x929f909aaebb9b85U, 0x95618d758d877680U, 0x9f8895bfbc8d936eU,
  0x979ca3949e6e728aU, 0x9d8c9b99a19182aeU, 0xa8989aa0a2bb56b2U, 0x7e888c8f859a9a7eU,
  0xaea79992968d7e9aU, 0x8e989fa58a869399U, 0x9291996ebaa3b196U, 0x77927a9755b38594U,
  0xa67d857994807287U, 0x849a70918da258a9U, 0x957d9590ac898388U, 0xb09f97a28d9499acU,
  0x78a2ca9667aa9cabU, 0x98a69f538da0866fU, 0x9c89a5a59594a992U, 0x8e878c7996955e87U,
  0x9a9ca187b3ad62b1U, 0xa7599ea689979b8bU, 0x95a680a47d89b17bU, 0x9b9b92a59897689aU,
  0x9d9abca3a8a89696U, 0x9e798f8e909484a3U, 0xb4a38773a7a999abU, 0x9292939e8489a0c3U,
  0x8a8094a18d7f999eU, 0x905f9f86889b7a8eU, 0x6b93b3a78a7f9d8aU, 0xa1b18e93818883a4U,
  0xb6aca099949ea1a4U, 0x87a5a4b68a768699U, 0x994ea1a3ac939396U, 0x97978e93ab72ae9eU,
  0x8493906d8b9990aeU, 0x9da59d9ba48386b1U, 0x7e849ba584718875U, 0x8e988e9495788dadU,
  0x67a2ada4bd819f94U, 0x79ac9398a08f8a81U, 0x86618c91b39b9073U, 0xc18f8d949c988f9aU,
  0xa6a1a095a77a787dU, 0x818aaba1ab6786a5U, 0xa098a57e9b99b794U, 0x82929889907a8b86U,
  0xa4957fb0b9a696a1U, 0xa08a947393ac755aU, 0x9f8093b0918492a9U, 0xa383a79f9a81968eU,
  0x989f9393729c969aU, 0x8e7d979ba68c9f93U, 0x88ada55888ab9e8cU, 0x9f9873a18c948d83U,
  0x9d8b979d84a19586U, 0xbe7cb0777f6a8c88U, 0xab8e9a97909c9b95U, 0x8381a1a782acbca4U,
  0x8ba7a79d99b7859aU, 0xabb4909478a4858dU, 0xb181ac9794a3a491U, 0xb3b692a68fa792a7U,
  0x948968a09e7999a1U, 0x996d9d8651b2a295U, 0xa57b8eb1948e989eU, 0x99b8d085949d94adU,
  0x909a87a588a8a285U, 0x96a498a4b08c909fU, 0x68bc9c80918da17aU, 0xa0a58a7380b88c83U,
  0xaf8bc3a1baa66e7eU, 0xab6c7f86a1989c9eU, 0xac757c72a7a09ea9U, 0x9baa9e87a17a9d93U,
  0xaea789a27fa3979eU, 0x9e87ae8aaa919198U, 0x9ea9a06290989875U, 0x9da7968f9ba9b596U,
  0x9da4baabb1c499abU, 0xa08aa58ab17e8fa0U, 0x928a91a29285987fU, 0x7f92a68c8b9da88fU,
  0xb0a29090a57fa194U, 0xa2979787a8a69fa6U, 0x8089b1bb92a3ad9cU, 0x9a98bab382529e9fU,
  0x9cb9a0a3979e9b93U, 0x9b7aa7b1af98ad8fU, 0x9d8e7fa18ea492a8U, 0xb5938ea3979a798fU,
  0x96948a9e8d8a7e9bU, 0x74b89f899e709091U, 0xaed5ba828ba081a4U, 0x8c67a7959a9f9596U,
  0xae9b9c749c9a88afU, 0x6b7e8aa3b79e9365U, 0x9494af947f9390a7U, 0x9d909c9a95869ba2U,
  0x9aabb69c966a878cU, 0x8e96799698926db2U, 0x7fdbb7a2a69a9988U, 0x9cac7c6c68829ba3U,
  0xa6c8736c87aba282U, 0xaa809d9794a39eacU, 0x9eb2a3978c88a689U, 0x81a3aab487a67f7dU,
  0x9ba67b98ad85b89dU, 0x9898cc8f8985a97eU, 0x969b9eaea581808dU, 0x88949679a7888895U,
  0xac7eaba5916f76a1U, 0x69ad93a57b95a395U, 0xb4939b80a2a752a5U, 0xb9629b9555999983U,
  0x87956f95929ab8a1U, 0xaa9474be619fbb92U, 0xa8a297a99489b39bU, 0x8e8d637b95b2868dU,
  0x948879b1836c81b2U, 0x8ba95dae8fa8a895U, 0x9fa6a095b3a88c7dU, 0x6aa87ab5b5a88893U,
  0x8f99918fb3c196a0U, 0x9db8adc7819f86c8U, 0x99c18b616588b8abU, 0xaa706ca998828577U,
  0xab8277a6856f9592U, 0xa594958c89ab7f9aU, 0x6cc0855e829ea794U, 0xae8e8a9f95879895U,
  0x9d8d94cc84d0a58cU, 0x8a9679a1886a9a71U, 0xb6a5849071acacb2U, 0x839580ab899e6396U,
  0x7a658a86bb8eb9c8U, 0x719b796ec6929180U, 0x8e8d959173a79d9eU, 0xa1a895ba82a5a8a6U,
  0xc3758d5975a297aeU, 0x917875ab8fa054baU, 0x9daecc9e76a595c1U, 0xb6967f79aaa27e8fU,
  0x587380959e887d9eU, 0x7195a48a8865a161U, 0x8356afa595946b9aU, 0x959c8c63a386b395U,
  0xb3ae7a2e90759a85U, 0xa66d8287929b91deU, 0x90558c8d7f6e547cU, 0x8c8e8169b1ae8aa5U,
  0x92869b539ca3c992U, 0xa5778a9a7e959495U, 0xb68c9b9c9893cea6U, 0xa579799b796d9377U,
  0xa07b9ca1b2865d7cU, 0xa193ba5d93a38173U, 0x89af92a495817995U, 0xaaa37d9784c12a8fU,
  0x959092a6859895c2U, 0x9e769fa091a2a392U, 0x9c639a77888d819dU, 0xa5a0b69d948a97afU,
  0x91df7e93b08b9e8cU, 0xa285af8997808b9eU, 0x9fd496ab80b0b395U, 0x899097846e919fccU,
  0xa4797da779a89abdU, 0xa1b1b89ca39a6c9aU, 0x94959c8e6b967f90U, 0xa2a2a185b4ac9195U,
  0x859394a09abe928bU, 0xad8b8b98a5a1b991U, 0x9d9a89b8a39f8a9eU, 0xa087b2998ba3b47aU,
  0x8e868b9f8791769dU, 0xa789ac9fad88858dU, 0xa28c8a927e85a1adU, 0x9db39f94c88eab8eU,
  0x7caa989e82a2b18aU, 0x80948da495957d7dU, 0x979d9697aea0848dU, 0x85919c9b8f8f8fa0U,
  0xac7598998fc6b09dU, 0x91ada0a890a39798U, 0x919898877f859caaU, 0x95adaf99a9856885U,
  0xa28ba6a985d39491U, 0x9495ad749bc083dbU, 0xca9a98888ebe837fU, 0x7f96ab7e98ae9da9U,
  0xafbba49691b093a1U, 0xba8faeb191b9969dU, 0xa2858c8b969fa283U, 0x9e979e98859dabbdU,
  0xb28fab94919a84a8U, 0x88a2a2ac89aba0b2U, 0xac929a7fa36495bdU, 0xab77897f92abaa8dU,
  0xa4a19e93aaa7a799U, 0x8e7e8ab190b07ba5U, 0xb39099b48995bcbeU, 0x7e8da2937f7cb480U,
  0x909d83aca489ada5U, 0x9092649c4fa180a7U, 0x8e9ea3926ca16285U, 0x8cb893689bd1a698U,
  0x90b4b0927b719396U, 0x8ca1818dc29f9cadU, 0x9472978faa87b1a1U, 0x999f9f80a4a9989fU,
  0xa5b39ba48e9a92aeU, 0x9471738f969b8397U, 0x888cb899a58a9896U, 0x979e6998908f96a4U,
  0x8c76958581b09aaeU, 0x8d9aa980a2ab9aa1U, 0x6e9eb3a6a1907b7dU, 0x92a29597a8a88ba4U,
  0x838aac9895888f83U, 0xa1ad858c9e789481U, 0x9a8c9c9189a3a4adU, 0x92ac65949b9f7b9bU,
  0x6aac9697935fa7aeU, 0xa6848a8278b9aa7cU, 0x567baf829da37ba9U, 0xa4ab8aa1a9747889U,
  0xa1817ca792877e7dU, 0xa6a3849f8da9b583U, 0x9e8a99937c85af95U, 0xa5808d9f967991a7U,
  0xa37d70af947d7e98U, 0x9baba187849e9393U, 0x978ea3949083a09fU, 0x818991a0aaa5aea0U,
  0x949aab9cb3b1a693U, 0x91959ea873b1ad96U, 0xa0ac6d9b9c91868aU, 0x8f9581aa7d72a0b0U,
  0x9184b3a9a4b65774U, 0x888c9da88bb883a4U, 0x918caf9496948a98U, 0x9d90927ba0759faeU,
  0x6ea9b4a280939ca4U, 0x91889d749c9e91a4U, 0x9f8c7794a28d9197U, 0xaaa3b4a3999c8992U,
  0x788ca19d8c9d9d9aU, 0xa17b80799698a398U, 0x9b9d968f96968da1U, 0x78b5728e8889b097U,
  0x9ac790a5ac9b70a6U, 0x919da1af79bc9d9dU, 0x89b488749886987fU, 0x988f8ea1889ba9b3U,
  0x9d7e8a8d8c69927eU, 0xb198898d888e8aa2U, 0xa0968a949c847c99U, 0xa39f92af887b8b9aU,
  0x95a59c9c75ad84a1U, 0x9ba6909d6a9d9193U, 0x71738a89af98a82bU, 0x587da37c989a98c1U,
  0x809d897eac879c83U, 0x9d8ea9949995a08eU, 0xabb2944b776da895U, 0x938c9e5f8b9e9a92U,
  0x8d9896a38da08d8fU, 0x8d9a9c919090a87fU, 0x9d9fac7e8597a69dU, 0x9a7e659d8f80ad99U,
  0x999a7295a69d6376U, 0x849aa39fa084a38cU, 0xa58681a499819e7bU, 0x8f87a1a3a258c480U,
  0x606e54886393aa8aU, 0x964ea3867f8ea39aU, 0xb9ad9083538ba3b1U, 0x98ad99899a8e98a7U,
  0x94afada7947aaf6aU, 0x7fad97929592b077U, 0x77668d80af8ea5a3U, 0x8c9d937d9186b1a0U,
  0xe4a54f8671a670adU, 0x998fa9759299b481U, 0x889d98878183b19eU, 0x7b97a9948e87a69fU,
  0xb18b959b8e95b375U, 0x9781cb72b476979fU, 0xa2a7679087c8a8bcU, 0x76a193ad7b6d77aeU,
  0x82a2899a72a38091U, 0xb86a8fa9a0b798a2U, 0xab847c81808474a5U, 0x969893a495939f9dU,
  0x96a871b492aa729cU, 0x827e87979c9ea987U, 0x91816f71a54f8590U, 0x809a8da0a69b8ea9U,
  0xa985b89d8e919e86U, 0x7fae9993778bb99dU, 0xaba9879b879d9aaeU, 0xa97aa89c94a59f9dU,
  0x8aac9184a6a7aca5U, 0x9f8f8f977c82868dU, 0xa59c81a49fa3707dU, 0x9293aba17b9c8984U,
  0xa2a98aa2979d8d95U, 0xaa95959c96a96f66U, 0x879189a2aa98949fU, 0x7db2998496b0596fU,
  0x9e9d6a769886979cU, 0xa082a6857f8f72b6U, 0x89b3aab47192bb95U, 0xa08089846c89937bU,
  0x9374ad7c92a9969eU, 0xb38f9d80998393a5U, 0xa2a9a29bb07fafb3U, 0x958892798ebd8aacU,
  0xa683b0a4b0a52276U, 0x929d93998177a2a5U, 0x7fa69989a9a7b287U, 0x7fac84768f8f77c3U,
  0x947b99a486ab90a7U, 0x7f6d8e91ae798bc1U, 0xac897d888dae939eU, 0x9ca6ad8081a99cb5U,
  0x859b8d8fa18c9898U, 0x93849e9785737a87U, 0x5b97a89e8e8cb37dU, 0x7b6c8da6879499ccU,
  0xb1a6998a8ab19ea4U, 0x9b9ca1a196ae8574U, 0x94858a7a91a28cb0U, 0x6486bbaa9e98947bU,
  0x8c92a68b907d96a8U, 0x7aa4b38bb5ab909aU, 0x9c8d9aa9356b867bU, 0xa8a2a19a70a79577U,
  0xa9a3b1b4bca49184U, 0x60aeae7bb1879b9cU, 0x8f85a57e8fa18973U, 0xaf807c928eb4a792U,
  0x8ec49ba6adaf857fU, 0x9d9e9a9262858ca4U, 0xac8db0b497999c75U, 0x929390878a899875U,
  0xa5999aa0c873809dU, 0x909a8c825cb66744U, 0xa23cb0a68d5dada0U, 0xa08e758c90b58eabU,
  0x96a4968ba7889995U, 0x8eaea4a8ad838292U, 0x9a80a475a49582a6U, 0x96a86b989f8f9786U,
  0x969f8eb79d8ed3bfU, 0xb17caf98a46d9c49U, 0xb094a67d8097a49bU, 0x9d89c4b1adc1b076U,
  0x76828c58a1908cb9U, 0x818576c19098ab7cU, 0x819cae8b8c7fad73U, 0x9095b79397839b8bU,
  0x78a29d7d996f99aaU, 0xa99fc6817e99794cU, 0x9fa6a95583d5b694U, 0x915a81a774918098U,
  0x7fa496cc907c73b5U, 0x8f9bad9b8d8e9aa4U, 0x9aa4ab9e8d9f9f90U, 0x958e9d6dbcb17ea2U,
  0x99888595839e7b95U, 0x898e69b396719291U, 0x9a5aa69d847e8293U, 0x489291989485a991U,
  0x98818f8897857990U, 0xb2949b7b8eb23a8fU, 0x7a9f916c93a0b7a4U, 0x67dcaea875a4c4aaU,
  0x898a90668fa2d088U, 0xbf833eaa7e9e9f74U, 0x9ea0a38f727d9299U, 0x929d769a9c997889U,
  0xa6b8b8938d82a098U, 0xa59787928bb78960U, 0xc496a66ca3a07b8cU, 0x95a98384229f9d86U,
  0xb18ba49873b897a7U, 0xac8ab55daeb28dd1U, 0x54ba7b9db7baa191U, 0x7f6aa3797863af7dU,
  0x9d9596b48e65a5b3U, 0x9ebe7c61a77f5962U, 0xa38d92b89f9694a1U, 0x97b2927a9cda769cU,
  0x849fc4836e5a997fU, 0x8cb0847b959c97a2U, 0xb56ea3939d7b78c6U, 0x6f7c7c6d6d9aa099U,
  0x9b779c7cb297b2c6U, 0xab8a8dba8f94a384U, 0x9cc19bb88d9ca4a2U, 0xa58b7f93a9c9868fU,
  0x739992a8a76996a8U, 0xa2a38ca68f9bae91U, 0x8a8fa9a3bbb98d8dU, 0x99976c9492945199U,
  0x96b6618576628d8dU, 0xd499a28d819d98a5U, 0x9ba3a19e929b8090U, 0xb4b79cb99fa388acU,
  0xa7989b94a4a89a6eU, 0x958b93a3a682a4aeU, 0xa09294958e717876U, 0x938d899aa2a89c5eU,
  0x8e97929393788f99U, 0xa9a29cb2929ca8abU, 0x80709d94ae948b96U, 0xa4a2a3afad568e7bU,
  0x9ea3948e959d9cafU, 0x9ea158967d9f9facU, 0x5aa59ba298a57f9aU, 0x6d9194afacaf9d9fU,
  0x73929191a27298a5U, 0xa3b17d8ea583aa82U, 0x6f919c977c829ea3U, 0xa5859e66a9768b92U,
  0x918a9493869ec593U, 0x77749298a38b9592U, 0x9c7b97a9a5b29b7dU, 0x66a1a3a3b6b2b798U,
  0x9b74ad939b9a9b83U, 0x9195a5a0a491a0a2U, 0xa79d69a379a7888fU, 0x919d9398958c939eU,
  0x7ea6a4858f8b999cU, 0x8998a49b858ba2adU, 0xa5a88898a3a7aa90U, 0x9c92a89c7986997dU,
  0xabaa598d98a4829eU, 0x95a885ad997b8f9aU, 0x806e969292a496aaU, 0x9a81a9aa91b89697U,
  0x76957c8582a98ba9U, 0xa082909792689c97U, 0xad768cabb2a48da9U, 0x8a7da2a09aa18ab1U,
  0x859ba29c969e8b95U, 0x97959ba38d9d9489U, 0xa1a79691a4ab9983U, 0x8190a88f8f94999dU,
  0xa2919f83a7a890afU, 0x9ea198978971969aU, 0xa69c99aa957d88b0U, 0xa0a5ae8d7b979399U,
  0x9d947da0af969f96U, 0x9da1aca9939d8f9dU, 0x7897b0a9b682b6a7U, 0xa0a3a69ab27f9b7eU,
  0x8b989e94b6969e9fU, 0xa7908895bd9cab84U, 0x9993a597a89296a2U, 0x96a68f9e95939996U,
  0x89e3a6868851b29fU, 0xa79ca699918d9c9cU, 0x938da49c909d9aadU, 0xa989a1cbaf9f8390U,
  0xa9a593a3a795a89cU, 0x9c90936eb774aca6U, 0xa49cab97aca0a9a2U, 0x99a66d8f6f789290U,
  0x9aa486849ead9880U, 0x8c9d9da39e90a5acU, 0x9c9ca6a78da78084U, 0x9b879473a29ab7b1U,
  0xb9b3989d9da18d8bU, 0x976c92a19883a295U, 0xb1afa39098a6a17dU, 0xa3c18da89ca99c96U,
  0x97a7aa8c938c9d96U, 0x8bb497a08d7da59bU, 0xafad8a9e9e91acdbU, 0x96aa96b09fae9694U,
  0x8c919790a4899e9eU, 0x959fa296b19ccf81U, 0xb493c36d998e80a5U, 0xa897a1959594a4b4U,
  0x7ea7a79d8a8d859eU, 0x82a77f9c86a4a9b9U, 0x88a07f6e8bb69c83U, 0x9cbbb895aa6c7da1U,
  0x998c9e85a5a49498U, 0xca9779859a8a8b7cU, 0x9f94b7a58f8f7abbU, 0x8a97afa096829595U,
  0x8aa39ec78b9fa293U, 0x8c8999889c8f7ba3U, 0xa7a0929397909ea2U, 0x96b2a08fa69cb29eU,
  0x838b90ab99909464U, 0xae889f8590a38976U, 0x9eaa7a9158a68986U, 0x9cb0ac9981a494b8U,
  0xb1a1a49092a389cbU, 0xa36e9ea3996d96bdU, 0x98a092ac9baa8ba2U, 0xa59ab6a1aa85aaafU,
  0xbb99ada3c174b193U, 0x959293a59d6dc49aU, 0x988f92a2829ead6dU, 0x9d8ba97a5c80999fU,
  0xad9178959b7888acU, 0x7993719099989eb8U, 0x9490a18bad94a778U, 0x818d649c868196acU,
  0xa07ca9a9859297a1U, 0x75af96b19c989089U, 0x818697937e948a89U, 0xac84777da68c8e88U,
  0x6ab4958ea88da8afU, 0x9f95a0a4af73a57eU, 0x969f8cab7b8f9b88U, 0x859898ae8ba17d97U,
  0x969d88909280ab9aU, 0xa3916b8b6a909389U, 0x81a2999490a6839fU, 0x9780986a9baaae9bU,
  0x89909ba9856e9897U, 0xa7a09ca09b888aabU, 0xb0768f86987192a4U, 0x8e7a8da4a36e99abU,
  0x978d6895689a82a3U, 0x75a38a8fa6988f87U, 0x897fa68f8e899d94U, 0x89808f848d85a6adU,
  0x8991a095b6ac91a2U, 0xa3988d9a9a8c8a9dU, 0x918aa495998c928bU, 0xaca0a496866a8c9dU,
  0x5891c28a96679199U, 0x8d9c75a7a6a17da4U, 0x8d8fa495959a809cU, 0x99919d857c93a0afU,
  0x8a9c959a9a9793a8U, 0x9693a08599b3a4a7U, 0x9e988aa59290a793U, 0x7b778f8d7a9ca298U,
  0x7fa9a6926a999f7dU, 0x928b7084a3a1ab9fU, 0x93a27885968a9ea2U, 0x6d917e778c78809aU,
  0x85a7a5a7a19f958eU, 0x9a9aa59a979d93a3U, 0x908e8a6f8ab0949bU, 0x9e8faa9c6fb59377U,
  0x76a5a1a291949793U, 0x9d79848386819daaU, 0x97a8a1a6a29278aeU, 0x95859299b092979cU,
  0x939a9fac847ea8a6U, 0x9795957c96a0a0a7U, 0x8c8ca2a487978ca6U, 0x8e96ab9faa6a8ea3U,
  0x9d889f828a91a39eU, 0x7297879a96b28786U, 0x7c9f80b49ea17291U, 0xada7a4ad967a9498U,
  0x54afa28cac7e9174U, 0x868f9297a1959e82U, 0xaf8e979ca398978fU, 0x85aaa292a9a5a69eU,
  0x9593a3898f968e94U, 0xa09978977f9694a2U, 0x8e7e8a7c9876a08fU, 0x798f9f8c9a9d819bU,
  0x7b96ab9196807e96U, 0x987c8c919499847aU, 0xb589a78ca49ba8a9U, 0x7f9d9b9d9aaeb27eU,
  0xa480a19398be9ba8U, 0x9997aa7d939a9184U, 0x8b93b4a59b63949fU, 0x9c9499917e7e8883U,
  0x80a88893919e9199U, 0x8398849665b166abU, 0x8b978d9c82aa9e95U, 0x97908a9889a97e7aU,
  0x8696a695a49a969eU, 0x975ca19999aaa0aeU, 0xb38d899d7da97a8bU, 0x8883ac7f928499acU,
  0x7b9f9a938e88b694U, 0x8db89bae8eaf9c9bU, 0xa298689a819aa7a3U, 0x9f8c949bcba58b96U,
  0x9d767086b17a9a8dU, 0xa1a9798589877db5U, 0x8d8b808d6e96aaa3U, 0x99abacab9b77b499U,
  0x95a2b69b8291a78eU, 0x919478a1a5a8a88cU, 0xa0a28b6d976c8575U, 0x818293a08d889ea3U,
  0x9a739697c18783a6U, 0x948da489a683a5a4U, 0x889b7e5880a49590U, 0x62a5928dab979e9fU,
  0x8597a07da991a8a8U, 0xa195a796a268829eU, 0x83a597a4aba2a590U, 0x8a6faab581969997U,
  0xb2a68a8b947fa19aU, 0x7d8390ae86938b90U, 0x6f93b07c87a9daa0U, 0x8f897c507b8bc27fU,
  0x9d95a99771798a85U, 0xa771948684609d95U, 0x6d849fa0869aa084U, 0xa48e7a71a87ca7a4U,
  0x9993b7a5687a7baaU, 0x8c9290aac0907c90U, 0x64ae978a8696997aU, 0x9a864890939e7c95U,
  0xa245959ea798877aU, 0xb771afc2a28dd8a6U, 0x9999aba9869ec6a0U, 0x8b84a59f9d94998eU,
  0x7c9b89b2978b9797U, 0xab7b967d9c75a76dU, 0x8dbd908fb79f9792U, 0x8c995c9c7696c278U,
  0x9c8795789aa07da8U, 0x988ba9909e74a68fU, 0xa57e8f88a78b948fU, 0x56628e82b3bb9ea4U,
  0x669c5ea6995aa082U, 0x84957fa7919fa5a3U, 0x92a39a949f96ad8bU, 0x9c8396868b806c89U,
  0xa79db6959c8682bfU, 0x7eada58cb4979da4U, 0x9d92919c8c86a58cU, 0x949269a48297958fU,
  0xab8d809e769b6691U, 0xa594756e6e909695U, 0x8fa271828da4a992U, 0x81908785ba939f9bU,
  0x8f9fab7dad949091U, 0x80b6858c8694af89U, 0xaa639093b874a9a9U, 0x8b9b9dd898988d71U,
  0x98c691aaa988d0a4U, 0xae62a6aba7a69899U, 0x9983a58e8f6487a9U, 0xb395754aaf9d6ac4U,
  0xb07a8997be7bc6caU, 0xa1a8b984d1847f63U, 0x8c8a9681cfb29aa1U, 0x936c9e7fd39c6f94U,
  0xaaad91b6aba57ba3U, 0x8d8dc3c19e949a88U, 0x8bbd7e94ab9899a6U, 0x98949ea5a2ad9f9eU,
  0xaf92a1838a719aa9U, 0x97a1a2bb8895a27aU, 0xa19f8ca9a564a4b8U, 0x669d92aa85ad8f6fU,
  0xbda0ab7dae9281a9U, 0x7f9c97a0a381a353U, 0x72ab8886ad9a9eaeU, 0x998694a49899b489U,
  0xb3ab6588a173778dU, 0x92aeb88f896aa776U, 0x978c9993a07dad9bU, 0x91829aa5918a6c8eU,
  0x858e89b589759f79U, 0x94998d959da3c29bU, 0x6f9ea982928a8e9fU, 0x708a8db1a3a57ebdU,
  0xbc998a8b9d8f9ca3U, 0xa97c979e9da2928dU, 0xa75f978692838799U, 0xa4a1a8a582abadaeU,
  0x89a6a7a48f89949eU, 0xb78d89ad9caa7189U, 0xa0b4a2b9997993aaU, 0x95875965a99ca16dU,
  0xa65f9483a3a298a1U, 0x9391a16ea49e6c8eU, 0x8a9596949bafa5a5U, 0xa997a1b08e9bbda4U,
  0x72bbafaa84aca6a5U, 0x9a97a494ab98aea8U, 0xa56c8a9eb389a2a5U, 0xa3787998b7798a90U,
  0x7996939a8a8d9d8aU, 0x948395957da9818cU, 0xa599a19d9ca0a9a2U, 0x8dbe93b298c1acaaU,
  0x82a88a6f8d808297U, 0xa2ae7eb68ba2ab8eU, 0xa07794b0aa9a9b96U, 0x9d868aa89ba993abU,
  0x9ca59092a8a89faaU, 0x9583ada4acb59d6eU, 0x9a999e93b88c889cU, 0xbe5c89b6aa9c739eU,
  0x8aa692998eaeafa6U, 0xa2979ba3919f8797U, 0x90807bb593bc8a7bU, 0x9a6f82a89299739fU,
  0x989f7b938e6c9faaU, 0x8c7591756280a876U, 0x95a77c9f95878f81U, 0x9aba9b998c8d94bdU,
  0x4da18890b7d3937fU, 0xaaa8b593a69eac8aU, 0x82b76da6928da076U, 0xbc748da399b8a2a4U,
  0xaf81667ca59e9b8bU, 0x9e94a6a4a18ec0dfU, 0xa09db27f869bb3b7U, 0xa295a183a27aa47cU,
  0xb3769d9e9f88ae93U, 0x7f89a9999c997696U, 0x8f847eb5a0a5a8a3U, 0xaba7aea1a3959261U,
  0xac9fa7789dca9a8fU, 0x8878739548ab729cU, 0x948ca7929086919eU, 0x939e849677898c60U,
  0xa8988a9199828f8cU, 0x998faa8d985e92b5U, 0xa798817db48e8097U, 0xa09c85619494a09aU,
  0x6d8c9792c52b9d86U, 0x81998a728ca39697U, 0x9da78a909470ac9eU, 0x97a1a383b3ab9f7cU,
  0x9795946986aa73a9U, 0xad95a993ab9580aeU, 0x9ebbafaa6c89bab1U, 0x8d87aa70867b9379U,
  0xa09faa7c8f6d8ea3U, 0xaf8aaa9bc4a37193U, 0x6d8d81976ab56f93U, 0x8ea9ac724f958e6bU,
  0x90ab84976789a7a6U, 0x9e969db8957c7799U, 0xb69d90b68f87aea6U, 0x70b793968b84995aU,
  0x8e879a9b8f8198abU, 0xa57b74879b8ea8a3U, 0xa2959ba79f968c84U, 0x8f8bbc35d97bb067U,
  0xa0b09a9d98788a94U, 0x898393728f8f92b1U, 0x8daaaf96a392a067U, 0x9199a192908e93b3U,
  0xa48c916f9caf997dU, 0x849a93ab7c857195U, 0x9b838b829f8ba27bU, 0xa9aa8b7582968389U,
  0x9a6c7d8fafa8a451U, 0xa7a0849c36a99bc9U, 0x9aaeab94b4a3a6abU, 0x75a0b26c91a38e7bU,
  0xa87b71a777cd868fU, 0x7ea5879a97ab8cc8U, 0x9b758b867ea67bb0U, 0xa867958a978d9e95U,
  0x9b94938e92afa361U, 0x947ab4a18f8c8e9fU, 0xa3a59b8a75a57073U, 0xac8576a87d6b7d73U,
  0x817b6db2968aa7b2U, 0xaa738c8f92b599d4U, 0xb29b9faca085b2baU, 0x428896968e8f8c9dU,
  0xa0ad8b979f9db38cU, 0xba96a7978396a1b4U, 0x90b58d8d7f9fbe96U, 0x5794a4a5706d9b77U,
  0x729d8e9f70908698U, 0xb4676686b9879c89U, 0x6f827f9595a3a5afU, 0x9c95a3929f779db5U,
  0x6c897a938e989babU, 0x9f8ca47e848ecbb9U, 0x8c9a929fb57e8f9fU, 0x9b9994a283bb968fU,
  0xb27588a37e8da39cU, 0x7696928e86669a73U, 0x88b89ba092767b46U, 0x9d80a333b69b90adU,
  0x80a7997990aeb192U, 0x749ba8a4b481998bU, 0x7c9a7b9988b197acU, 0x8a9f9b838cab9e91U,
  0x9c99a291a59fa3a8U, 0x5b92a78283576097U, 0x77a683b9d59ea890U, 0xaa757373b5bcbc99U,
  0xa6a8a58893b3a0a2U, 0x9c917d96908d8190U, 0x8d999d9b98aa8e8aU, 0x9d8b9eceb7a9f279U,
  0x7e9d8ea695b79691U, 0x7e62c39372a98291U, 0xaa8e99a1a29585acU, 0x97938d7ca2a2a8a6U,
  0x6ba19e87a69f9a66U, 0x87948fa09495c791U, 0x91928c68939f999bU, 0x988ea08b869e837bU,
  0x97a4b49889a18c93U, 0x918497a07f898f9dU, 0x959a8ea48a6f8d8eU, 0xa199a99db28db685U,
  0x9fa1a8988aa1ba78U, 0x9595738fa9a38890U, 0x879c849e5d7e798bU, 0x8aaa9e5a986ea587U,
  0x9474a5939789809aU, 0x7e8379a7967e7aaaU, 0xa3788e65a2759f6aU, 0xac848891939b99a5U,
  0x9e99b47787928ab0U, 0x8a8497b09892619dU, 0x9e9b998e999d9f84U, 0x849d9679829c9b8cU,
  0x8e919b7d998d9ba2U, 0xa1898b7db396a69dU, 0xae996693b39a6894U, 0x9e99a8737b979a75U,
  0x88a7a7898c686292U, 0x86a475a798a98c9fU, 0xa679969293a5a491U, 0x99999279919f82b8U,
  0x7aa8857fa39d9996U, 0x9aa5a271968ba5a6U, 0x9d9c85949eb69aacU, 0xa697989f87ae96a7U,
  0x81a37e88849c89b8U, 0xa27b84999495898cU, 0x7788949d799da198U, 0x9db08f9c93ad969bU,
  0x9a9093a78d879596U, 0x929d9bacab7693a0U, 0x8d968d9696ab7b98U, 0x91a0c78161a8838fU,
  0xa887969aa285a991U, 0x96899979a3a3909bU, 0xb58b90a1a29aaac0U, 0x95858696a390a29cU,
  0x87798e8fada982b7U, 0x7ca0a98189a0a29aU, 0x9c94aa80ab9dbea5U, 0xa189939b958c968eU,
  0xb6b78aa8a98b8b7eU, 0x9492988d9198677bU, 0x91748f79a58f709bU, 0xa683a29a969792adU,
  0x73a5829fa882839bU, 0x6c9e967479a28eacU, 0x6aa6aaa7739c7fa8U, 0x8c9d9e9a939580afU,
  0x859c969d899f9979U, 0x7a8e8f71a3858bcdU, 0xa7919195757786adU, 0x7a9593c17ab27592U,
  0x8fa8a1a47e8fa196U, 0x84a4c2ab84899ca8U, 0x999072799c9a8d71U, 0x9068ab808ea48c8fU,
  0xb78270a0a3ac9394U, 0x9cae74899a9e7580U, 0x9f83769e938fb2a4U, 0x9c92ad97a07a7ba3U,
  0xa1ad82948192b180U, 0x78a2a48b9ba68a64U, 0x9d95b19974959ea2U, 0x7e8f80d597af8f6fU,
  0xa463a48b8bba8d9dU, 0xa7a0b19aafb7a49bU, 0x7c899b8296968cc5U, 0x99a3b2a7b181887cU,
  0x6191a7a495607d8fU, 0x929bb888c0667f9cU, 0x829c9f9459939a7cU, 0x526ba3c292bb9264U,
  0x79908da8b28aa18aU, 0x8ca29ea59696b28bU, 0x857d96a89fa79c62U, 0xa07cadb56b898682U,
  0x6f89d7a09e8b918fU, 0x8bc4658172708e73U, 0xaf9479729ea2949fU, 0xa3ada2586ea69192U,
  0x9a99a1b28a6f8894U, 0x9185909089958d85U, 0x569589ac9aa8b19fU, 0x7d817a7bad81a5b1U,
  0x53a58d717d9a758eU, 0xda8b848c8a93a59eU, 0x9aaf9e988ea3a196U, 0xbaad7f8591ad6e7bU,
  0xa19994b7a79da1a8U, 0x8b937477b488c5a2U, 0x8b7f6e7f9e9c91bdU, 0x8661aa8199928f7fU,
  0xb19f6a95796f859bU, 0xa6ab8f9078ae989cU, 0x9ab0a26d929a8f9cU, 0xae9aa89a928c80acU,
  0xa3a49aa098b1a797U, 0x959a937f73a39293U, 0x9794959a78798888U, 0x8c969292a2936c7bU,
  0x8c94bb95818f86d2U, 0x9b9098a08f929998U, 0x94b07a8f8090a893U, 0x9dae99b5809a8f7fU,
  0xa0a4a58e95a9958cU, 0xa5acac9a6d9d7e8aU, 0x8e91958c979c8089U, 0x7fab90748a67b3beU,
  0x878c8696678ca5a0U, 0x9d608986ab90879aU, 0x809b9280a064b289U, 0x907593b5a0a49a83U,
  0xa99d7e787aa77e78U, 0x9a9d95abb2a38fa5U, 0x8b85ad7e92799b99U, 0x8d9496a76f7d8395U,
  0x83a78a7991878b99U, 0x7d908e99b8999280U, 0x928b969352968181U, 0x799db671989c91a1U,
  0x8c80a47fb29b9a55U, 0x8bab8ca59ca98081U, 0x9caa8e8b767c8f94U, 0xaf96838da7787481U,
  0x91a19b959f8a9e94U, 0x7698719b96989e83U, 0xb39aa39090937d8eU, 0x96b88e957969a7a6U,
  0xa793998a9d779596U, 0x9398718d91b0a797U, 0x836599758dacac8aU, 0xa3a99fad8c9d8a7fU,
  0xa0aa8e947b8f9ba4U, 0x7c95b29ac0a3847fU, 0x7f899d8ea7969d85U, 0x867d7b9faca37675U,
  0x908495a9947bbd88U, 0xa97781a0a2698787U, 0x978b8ea67c9e957eU, 0x9695a19a67b9aab0U,
  0x8aa0a39393a5a05bU, 0x7a9c8d56b9b6b1b3U, 0x9bb49eab7c738790U, 0x8aa09baca28f73a6U,
  0x6469a78b87b39ec5U, 0x7ba5899f9db17e9bU, 0x9973a56bab8d949bU, 0x948b97d8c19d9990U,
  0x86b6948ca7b19a70U, 0x96828b89c2a58377U, 0x929e6598c2af4c74U, 0xa58f8c91768b9f99U,
  0x8b8ba797999fa398U, 0xa0bccc938b9b809cU, 0xa582928f9b95a2c2U, 0xa5ba789ad89d91a0U,
  0xa499a091a6af8b7dU, 0x918f919097b485a0U, 0x6b769bac9caf5975U, 0x859f96c5a49978a1U,
  0x7b876fa49198779eU, 0x92b29a8e7a749691U, 0x75a3a38f9b938eaeU, 0xa5969c888390778eU,
  0x8fc4868e919ba190U, 0x9289a59b90a2aca9U, 0xc6539abb89588e94U, 0x6d97c189869b899cU,
  0xc3a5939a767f8394U, 0x8ab43db5c29f9f61U, 0x898d9a7b669089e3U, 0xa584838f7d929183U,
  0x7e7f979a89a88a95U, 0x5d5789997faa84d0U, 0xa1a6988e7b7ea38bU, 0x937a9fa8a14e8489U,
  0xa07665b1a8b09a89U, 0x9fa18a9796927988U, 0x9cafc293c488a68aU, 0xc19f995a6f787141U,
  0xab98d5a48b9e9897U, 0x9eb27d738c9a97a1U, 0x7dac9f8e70987e62U, 0xc0b5938c83bb9e9dU,
  0x9ea7918599a96198U, 0x997da9959da87e73U, 0xa2aa967f63794d88U, 0x927c9d8d7e4b9d94U,
  0x909b9c80bc6a958bU, 0x8f7ca6a4b8a083a6U, 0x9875927f87739f91U, 0x9f899c769d93899cU,
  0x7f9aab999c90937fU, 0x8cb6b89d7bbf979bU, 0x809c89a89591b1adU, 0x80917d6697a67894U,
  0x7aa7aa8e80988084U, 0xc09690a5a7818ba9U, 0x878a9ea6ac907594U, 0x7b9979998d9e969fU,
  0xbaa88dad7aa39ab4U, 0x86a597669a819295U, 0xa3a28a8ea4ab9f8fU, 0x858d835f888ea2a5U,
  0x4d7d9f627b939f87U, 0xa9ada79397959995U, 0xa07d9196b0a66da3U, 0x908db56d909397a8U,
