/**
  ******************************************************************************
  * @file    network_data_params.c
  * @author  AST Embedded Analytics Research Platform
  * @date    2025-04-12T15:29:28+0800
  * @brief   AI Tool Automatic Code Generator for Embedded NN computing
  ******************************************************************************
  * Copyright (c) 2025 STMicroelectronics.
  * All rights reserved.
  *
  * This software is licensed under terms that can be found in the LICENSE file
  * in the root directory of this software component.
  * If no LICENSE file comes with this software, it is provided AS-IS.
  ******************************************************************************
  */

#include "network_data_params.h"


/**  Activations Section  ****************************************************/
ai_handle g_network_activations_table[1 + 2] = {
  AI_HANDLE_PTR(AI_MAGIC_MARKER),
  AI_HANDLE_PTR(NULL),
  AI_HANDLE_PTR(AI_MAGIC_MARKER),
};




/**  Weights Section  ********************************************************/
AI_ALIGNED(32)
const ai_u64 s_network_weights_array_u64[62805] = {
  0xbf6e134cbdf05dd6U, 0x3e7c0fb1bf428043U, 0xc029554cbf2f3295U, 0xbe3f7adcbf5056caU,
  0xbc740002bf0e5565U, 0x3f21e20fbea221f6U, 0xbc232bcebe976e93U, 0x3ff052933f3eb9ccU,
  0x3c2e72aabfac4ac0U, 0x3e660d353d9091c1U, 0x3de251ce3e96bf60U, 0x3ef1c174bd220299U,
  0x3f99af6d3fd13de3U, 0x3e8bd8453ff8d5d0U, 0x3e7b8ae13ca7d762U, 0x3edce5af3de3c1b4U,
  0x3f3307efbea59d70U, 0x40302190c0120331U, 0x3cced779bf9e5b61U, 0xbdd92bb2bea47a5cU,
  0x3fb1885ebec6a7b1U, 0xbdf2f03e3f06dbbbU, 0x3e5af50d3f403381U, 0xbde56964bd77521eU,
  0xbc1d26543d4ddcf5U, 0xbeb36d2cbf174cf8U, 0xbf889c49bec3c3afU, 0xbfaca695bf9b418dU,
  0xbeb206333f6e977bU, 0xbd9746f13cc51fabU, 0xbf5a7486bd260238U, 0x3f4bf2b4bf754f0cU,
  0x3fe74d053e9310b9U, 0x3d9f0583bf36225bU, 0xbe20fa243d9dc4d2U, 0x3ee78430bde52931U,
  0x3f1024c2bf43b6c4U, 0xbf75febf3fb6f38fU, 0xbe450c99bf82fff0U, 0x3d4800283eb2677bU,
  0x3ea7c058bf2f0e8eU, 0xbfb185433eaab80eU, 0xbe0602343ebb9f85U, 0xbd2190d3bd8f3ce7U,
  0xbdd5db343e00bd49U, 0xbeb32e033e85aa10U, 0xbf268d113e93f6acU, 0xbfd039d4bf81ed66U,
  0x3ec6d117bd24dc2fU, 0x3d4d72393ccbe9b3U, 0xbed912943e80abc8U, 0x3e0bc490bf371821U,
  0x40133b21be80924dU, 0x3d4f2e743da34de8U, 0xbc6e5491be427278U, 0xbe9b85c53e9a14a7U,
  0xbfb267debf94fa0bU, 0xbf6c9f3f3ee84561U, 0x3e16abacbfc0973eU, 0xbe1e82873e5734aaU,
  0x3edd741fbdefcb3eU, 0x3f1692e8bf5bf53eU, 0x40163d0b3ecd6c25U, 0x3cdfa0b5bf81d080U,
  0x3d89c709bb1467a0U, 0x3f5dd4cebe3e9471U, 0xbe104065bfc1e885U, 0xc001f2673fe27193U,
  0xbf1747583e8863eeU, 0xbdbd574dbb0a3eb3U, 0xbf3c4968bdc2f137U, 0xbfb675c3bd240a7cU,
  0x3faa62f73ef69e6dU, 0x3dee4415bfad8021U, 0x3d14e433bddc8e4eU, 0x3f6aff5fbf235602U,
  0x3e71beae3ef0b3e8U, 0x3e4c56103f2e5daaU, 0x3e9766b14002edceU, 0xbdf345263d1949cbU,
  0x3fa569993f036db3U, 0xbcd1cf13beaa1e1fU, 0xbefbed68402494bcU, 0x3e4c6b34bf45c923U,
  0x3d0200323e143d12U, 0xbc523f06bf649e45U, 0x3ea0992fbf09b762U, 0x3f2275b03e51ed59U,
  0x3c7d08b73fc8e890U, 0x3e104c893cc5ebd6U, 0xbf1a545fbeb8de72U, 0xbdaef649bdab62f7U,
  0xbfd2bf6cbeb83fe2U, 0xbe624bf63e834451U, 0xbe568341be35daa5U, 0x3efdaef2be4ef7ceU,
  0x3f4d811bbc871c96U, 0x3fc9485ebf04beb8U, 0xbb9edfaf3f6833d5U, 0x3e9c9f79bdad826cU,
  0xbf100bfbbf364e13U, 0x3e3080283ea692c3U, 0x3fa3ec103f92ee97U, 0xbd8715263f340ac7U,
  0x3df6240a3c909aabU, 0x3d87f286bd4fa3e1U, 0xbf93bfb9beb21f88U, 0x3f994be53cea3c29U,
  0xbc43d7a03f89ecd4U, 0x3c1efbc4bdc5c2dbU, 0x3e4562a2bc0c526eU, 0xbe81c98ebf64c526U,
  0xbfd4b76e3f8fe26dU, 0x3e106302bfe87772U, 0x3da85f68bde46dd9U, 0x3fabb9e73e9ea6ecU,
  0xbe6c50f7bea31da5U, 0x3fda18c4bf96a38eU, 0x3ce7a0b53fafd878U, 0xbd12d02e3d585d89U,
  0xbf84a245be3806ebU, 0xbf683e1a3e13480bU, 0x3e455690bfc99089U, 0x3e0a7de7bfb9d188U,
  0x3d20a1343dd76526U, 0x3f193bbebf6355c6U, 0x3e796606bf2147f3U, 0xc04d278b3f8a6b1bU,
  0xbe881ec53fd5368bU, 0xbdd04c5d3d397486U, 0x3eb6f349bca8b028U, 0xbf185534befbb9dbU,
  0x3f31b6b83f712be9U, 0x3f07ae95c020ee52U, 0x3d15350fbd866f47U, 0xbe90e006bf583c4fU,
  0xbea6088b3fab0027U, 0xbd8b3682bf03fb49U, 0x3cf120ae3fe6116aU, 0x3d621e86bdc07f61U,
  0xbddb76c9bf616807U, 0xbec09b12be09b5beU, 0xbfd89cf63e1f4f26U, 0xbd94287f4015db4dU,
  0xbcf580293ca10cd7U, 0xbfafcb2d3db369bbU, 0xbe99a26fbf9c81a7U, 0x4006a274bed5ee38U,
  0x3e82e2253f803bf5U, 0xbdb941c03e9e33f0U, 0xbfaaf8e53ee871d6U, 0xbeb2c680bf929e77U,
  0x3f5a9e453fb261b3U, 0xbee15d223f795ab3U, 0x3d35eec1bdda83d1U, 0x3db88dfd3e24c8f5U,
  0xbee11694be1c46e7U, 0x3fbd9220c00ced5fU, 0x3d8f92adbf7b7b5eU, 0xbe5aec0a3e47957bU,
  0xbfd0ec71be97cff8U, 0x3e9dc1ec3e958ac8U, 0xbf7cfb0e3fdd343dU, 0x3d88a34ebf85b6d3U,
  0xbda132523dba5bd9U, 0x3f98584abf1aa05aU, 0xbedf9f2a3e6c450aU, 0xbf747caa3f5c06f7U,
  0xbc35ded63f9fc653U, 0xbd47e56ebb2d07bfU, 0x3ca0bb7fbe05108cU, 0x3ef7d1d0bd54b741U,
  0xc04559f53f133af2U, 0x3dc7536cbf89e1bbU, 0x3e02de20bdf91500U, 0x3f138e8a3f114e5fU,
  0x3f97e0e5bd8ea48bU, 0xbf805c863f65f4a4U, 0x3d94e4a73f020454U, 0x3e5be9db3eedac07U,
  0xbea6b486be3a469aU, 0xbebd7db63e89fb61U, 0x407e20cfbf6da926U, 0x3da3cc05c0098b8dU,
  0x3db7a05f3e39f1f8U, 0x3e3170453e1ed493U, 0xbd5d75e6bf77a4abU, 0xc04c48efbd425b0cU,
  0x3e1cad393f91686bU, 0xbdcb83f8bc7a6555U, 0xbf041c5a3e55ab0eU, 0x3e6247e13fab3d14U,
  0x3e831d2fbfb19d9fU, 0xbf301526bf18b2a4U, 0xbdcacf18bef15dd6U, 0xbf17e6fbbef0cc6aU,
  0xbcf31030be37dc87U, 0xbfa503364010d5d7U, 0x3d2d3e6bbedf2e3bU, 0xbded7afd3e6bafbfU,
  0x3de229ec3deaf7c6U, 0x3ea754103e7fcbecU, 0xbea37d63bf03c3d2U, 0xbd35243bc052bdf9U,
  0x3dc448ba3e17d9ddU, 0x3cb9f0b13e30c972U, 0x3f02b2e1bf25bc51U, 0xbf85be893f11b77aU,
  0x3e874ca83e8e0d61U, 0x3c481a263e1491c8U, 0xbf2636d9bd026217U, 0xc0087a42beb674a1U,
  0xbe830b1240038e72U, 0xbe87800f3b6dd2e5U, 0x38d2e835be4340bdU, 0x3e94a4e73e80aee0U,
  0xbebddc1a3f470e5aU, 0x3fc959aa3ea44e0fU, 0xbdbb901bbef4dc35U, 0xbe0b2f033e3366f4U,
  0x3e2c43f73f14b060U, 0x3f05579dbdc4c51cU, 0xbf710c56bf3dc6a1U, 0xbc3855273fc14e39U,
  0x3d816cecbda657aaU, 0xbfd161bf3e4f859eU, 0x3f327dd9becbc220U, 0xbe303f3dc03599aeU,
  0xbea769a23fa4621dU, 0x3e17725cbd451fe8U, 0xbea48a3a3ef8f2b0U, 0x3e16bfe93eb95bd5U,
  0xbfd2ed8b3f900ad3U, 0x3da3395bc03ad4c6U, 0x3d85932e3ed7b9f6U, 0xbf2ac775be4d11a3U,
  0x3f6fce91bee8413bU, 0xbeb850ffc004942aU, 0xbf5eeae53f289fb0U, 0xbe5145d0bea9176fU,
  0xbf3655123e762087U, 0x3e41e0e4bf7b0cf5U, 0xbebfefddbecddff3U, 0x3dff1ff53b91f994U,
  0xbda4db95bd793d8cU, 0xbee71ac43d9fc62cU, 0x3f779b843f42e1d6U, 0xbdd5e8bdbfaa601fU,
  0xbe1819373f46b9a0U, 0x3c524f703eb22321U, 0x3ea736433e1f51c9U, 0x3f0c8fcfbe6b3a2fU,
  0xc0266288c00258f9U, 0xbd80d7e2c03451d1U, 0xbe06b7b43f03a5a0U, 0xbc0048193e957fa4U,
  0xbef9bf43bd52a88aU, 0xc00222c13f04368cU, 0xbe02dcd740181092U, 0xbe464954beb48c53U,
  0xbf9dd3c2bed48aefU, 0xbf86f1d03f46dbdfU, 0x3bc6b8a13e091736U, 0xbd8d65df3f6f2600U,
  0x3d1b70bf3d0732a9U, 0xbead6c15beeb418aU, 0xbeb0fa5abded2f10U, 0xc01678f1c0428cf9U,
  0xbe4e9a41bf97ffbdU, 0xbb937b1dbd855f06U, 0xbfa64fc13e00ef5aU, 0xbfe97052bb2752f5U,
  0xbfaf5cb0bfb64aecU, 0x3e26730a3f97b11eU, 0x3d958ba2be2632f3U, 0xbd917dfb3e4f9ed8U,
  0xbdb5e54b3e159f4dU, 0x3f47881ebfa296efU, 0xbece169b40264513U, 0xbeab9902bdae6df8U,
  0xbd049352bc1561a2U, 0xbfc99bc73dc79f6bU, 0x3fd32f33bf720aa3U, 0xbd5b6804beeb371dU,
  0x3d3c9199be7f756eU, 0x3f2f26aebf316b9bU, 0xbf038498bd711c9dU, 0x3f86844bbe92a402U,
  0xbececd713f9adae3U, 0xbdc7fd333dd68c15U, 0x3d9f9f06bdbb5064U, 0x3f37731cbea3db88U,
  0xbf0f9522bfa3699cU, 0x3d0e97873fd11758U, 0x3d1d4c543e680c94U, 0xbe871a43be6799f5U,
  0x3e83dee73f313a7bU, 0x4027e1e53d1026c6U, 0xbbbd0b0fbfaa786fU, 0x3e80801dbe15d72dU,
  0x3d9770d7bd7f9d61U, 0xbee1cf44bc3e2633U, 0xbf6e311fbe96ebe4U, 0x3ee848303f6d4bf2U,
  0xbe08bd32be998b0cU, 0xbfae001f3e22a398U, 0xbf1fff2dbf291aa0U, 0xbec5d1853f8caed8U,
  0x3ea9a820bf22ced9U, 0xbe3ce59b3c164c09U, 0xbecae06dbdf95a21U, 0xbf71de783eca9c30U,
  0x3f4486023fb7a168U, 0x3cb85febbfd564eaU, 0x3dd738f03e18532fU, 0xbeb4c0983e462024U,
  0xbf54060cbeb017e0U, 0x3dd422d03f7a5d37U, 0xbd688b953fb830b3U, 0xbc974f33bb3a38d8U,
  0xbf876eb43d95b9d9U, 0xbd1db5393f502635U, 0x3eb05d7ac066bf64U, 0x3d47e0abbd9565f1U,
  0x3df7a3acbcf0744cU, 0xbf22289bbe3fb98fU, 0x3e02d1133ef6ba57U, 0x3fed2406bfc763cbU,
  0x3cdab554be29fe1aU, 0xbd5072783c4eb70bU, 0xbec30fe3be12621aU, 0x3f3d1ddebfa32ff7U,
  0x3f924d093d0d05f7U, 0xbed89a303efa3b45U, 0xbd8701103d4c406eU, 0xbe27c1dcbe132681U,
  0xbfac466dbf083562U, 0xbfa06f9a4043f2a3U, 0x3ebec9edbeddb7cfU, 0x3d647415bdc7345fU,
  0xbf783b9d3d683940U, 0x3f549080bf348c71U, 0xbf88ba2bbf3296b8U, 0xbde964373f0f408aU,
  0xbc0078dd3d958a4aU, 0x3e0d75eb3e83312fU, 0x3e9b8091bf63d53aU, 0xbf06d37e3ecac1b4U,
  0xbddb96ffbf999f55U, 0xbd096397bdb1d702U, 0xbfac840fbe6cf2a3U, 0x3e2d0c3c3f4f52b1U,
  0xbf22d0ba3f4600e3U, 0xbe73cce13d8005bfU, 0x3db424313e378e29U, 0xbf21a99f3cd9a1e4U,
  0x3f7ac0203e455622U, 0xbeb73b37c053c9f6U, 0xbd46c4833f0519f5U, 0xbe27b4793cdd0351U,
  0x3c971a8f3dbac502U, 0x3e0a12f83f795246U, 0x402a95fac0059b6aU, 0x3c666671bf2415d4U,
  0xbccc3ddb3b977b5eU, 0xbd968a2ebf920c51U, 0x3f692be83e209fbdU, 0xbff06e503f00997cU,
  0xbe0adcb03fc172f2U, 0xbdaf68e7bd9029f3U, 0x3e774156be5ee183U, 0x3f6388563f529ef6U,
  0xbfb8c705bf3d12e6U, 0xbe0815da3b661bd3U, 0x3e23224d3cd78498U, 0x3f699880bf40e4f9U,
  0xbf930a3b3ea8716cU, 0xbf17b7b8bfa34217U, 0x3c36dab43eb7dcecU, 0x3d85c8353baabf6eU,
  0x3da33d3abe84f8d6U, 0xbd678f0fbf44e836U, 0xbf225e083fc295bbU, 0xbd8369d43e48116dU,
  0x3e1bd94e3e059f36U, 0xbe8c5f04bdb36110U, 0xbf1a8c7dbef639e0U, 0xbfa5b3cac0252082U,
  0x3e8858ebbf3006a4U, 0xbbb1fe323e8df7a8U, 0xbe893d95bdb53e95U, 0xbfabd2fcbf4601faU,
  0xbf0d6b1dbf8271c3U, 0x3dd0538ebeb479dbU, 0xbd9091aa3d379c88U, 0x3ed0d5823e0fd26aU,
  0x3e93136f3ee06263U, 0x401426133ffa37c7U, 0xbe78ebc83fec7b62U, 0xbb96cfd2bea9a646U,
  0x3edf01843e6db48cU, 0x3d290d45bfb2f60eU, 0xbe5c8794bf6199beU, 0x3dd021033fb6d91aU,
  0x3d8dd2efbe7b2106U, 0x3f20eeb8bf884a90U, 0xbe332491be1434e0U, 0xbf8dcb2c3fd8277fU,
  0x3d749c0d3f723884U, 0x3ca1448abd0cef88U, 0xbf00c3c3befb59c5U, 0x3c807e4bbf3ad75aU,
  0xc0240ee5bf978bf6U, 0xbcdfa64c3ef16b00U, 0xbe0089e9bbd3dcf9U, 0x3e545c683df300a7U,
  0x3e3dd1e03dec4cfbU, 0xbdc4ebf53fa3f94cU, 0x3f04ed263fdf3268U, 0x3de96e1cbf0d12e0U,
  0x3fb5a4313e82bcf5U, 0xbf867e45bed1f5c6U, 0xbfc4736f3eec26dfU, 0xbe7194c93f3fd94fU,
  0x3bfde659beb5811eU, 0xbed730e63bc6d042U, 0x3e6b2c39bf6152ddU, 0xbf5926f6c03fc705U,
  0xbeaa6e9dbeb3548dU, 0xbdc1199ebe34d5a6U, 0x3f220999beb5dd8eU, 0xbe2dc22b3d09b95eU,
  0xbf475c4b3fdbdb74U, 0x3e10d22b3d1940b2U, 0xbe04276ebe8857c3U, 0xbf5edd763ebcf62dU,
  0xbfc1253e3ec83837U, 0x3dc870b640028596U, 0xbe607b9a3f000ecbU, 0x3db73c97bdafe19fU,
  0x3d9604e9bd1d3860U, 0xbf68f2bb3f729bc6U, 0xbd2d2a373fcfbcdcU, 0xbe1a812ebe4cd310U,
  0xbd5abbf4bce3da3cU, 0xbe4d8d6e3f18b0c9U, 0x3ea072d7bee29cfbU, 0xbf72300f3f541232U,
  0x3da542c33d79c2b0U, 0xbc813a06bedf51a5U, 0xbf7d5d2bbf1ab128U, 0x3f6eb794bf6832b9U,
  0xbf665be6bfe4197fU, 0xbdcb63753f8f0603U, 0xbd80e1063d8d077eU, 0xbcfc60a8be37c923U,
  0x3f1a5fd43f24b696U, 0x3f10f2594069b1deU, 0x3ea0b96bbe71dd7aU, 0xbd9677d8bdc7fb02U,
  0x3f108f7a3eaac8a3U, 0x3e9fc0ddbdad2f14U, 0xbf9db765406269f9U, 0xbe038fb3be420b32U,
  0xbe59e0f0be5045aaU, 0xbb4da0833e932190U, 0x3eba5bb33f4abf2aU, 0x407ed4913f25978dU,
  0xbe5f3bcebf1530feU, 0x3ead7362bd7f8e15U, 0x3ee734743e4485fdU, 0xbf4b7e39bec9a25fU,
  0x3f5ae2d03f3dd8ddU, 0xbe96acb4bf19069eU, 0x3cfc1dbcbdbe9e6dU, 0x3f7b4996bf2a201fU,
  0x3ec6df7fbe54ea12U, 0x3efb978abf46dbd2U, 0xbe18618ebfc80869U, 0x3dc650e73d3c6a4aU,
  0x3e807f5d3e037c9dU, 0xbee6e1febf0b40d9U, 0x3e93e397bed3a1fdU, 0xbe0ea340bff03faaU,
  0xbe081b093e855d31U, 0x3f91160e3e868832U, 0x3ea8d2453d821a9aU, 0xbd08392fc037a188U,
  0xbf00e5c7bfe69835U, 0xbe376aebbeb08ca9U, 0x3f057638be6024e0U, 0xbf59a491be6b47a6U,
  0x3eac4953bf48c6aaU, 0xbd15018c3fa295e3U, 0x3d1739fdbec72a57U, 0xbd8a1187bedadd6aU,
  0x3f1c6d3ebf7587b2U, 0x403eb69e3ede915dU, 0x3e407f5b3f5e093cU, 0x3da8739f3d94e3f9U,
  0xbf308dccbea98d8eU, 0xbf898790be9579aaU, 0xbfb2243cbf5ba971U, 0xbd255d07bfc8ddbfU,
  0xbccab7b6bd892ef7U, 0x3fb8531e3e0c86d3U, 0xbf67d2a33d9b6629U, 0x3e9c8e30401b70bdU,
  0xbe21e0d9bef6d124U, 0xbe0064debd86c877U, 0x3f6518a7be933a8aU, 0x3f17a6b3bf224c4fU,
  0x3e6c314bbfaeb823U, 0xbd67238cbe0534c2U, 0xbc9a94d5be31f08dU, 0xbfa5e111be4186eeU,
  0x3edc00f43ec3ea0dU, 0x3e3192453eee59c4U, 0x3e40e7123db25746U, 0xbda3637ebe30a8b0U,
  0xbf546c2d3cca2a24U, 0xbf9711993debd185U, 0x3f5b356f3f652069U, 0xbcaffed43ec9835bU,
  0xbe10b8d9bddc53d0U, 0xbec4d2bdbe8cdad0U, 0x3eb48be5bedf3ad8U, 0xbffc4083bf1078fbU,
  0x3e4841ba3fece782U, 0xbd9f9cfc3dcb493bU, 0x3f08a18dbebbecd9U, 0xbf2aa064be925e4eU,
  0x3ff24c084002f416U, 0x3e44019b3efcfed2U, 0x3d85d1773b1d4f6bU, 0xbf266769bfafd43cU,
  0x3e1696febe0bb0e2U, 0x3fc1652abde57782U, 0x3c866738bf430012U, 0xbcce9d483c71e7c9U,
  0x3f7603fc3ed7ae7bU, 0x3f47974ebf38a3edU, 0xbe6f9d64bf6dfbe5U, 0xbd0f7d323f486ec7U,
  0x3dc7f3ddbeace327U, 0xbf4360eb3ec212b3U, 0x3f65b8cabef86fb5U, 0xbfbde3ad3edcb1aaU,
  0x3dfad5a33ffc75fcU, 0x3e86813bbe6bd49cU, 0xbe8a4691bde9c4f8U, 0x3f0d9f8d3f1f2ba5U,
  0xbfe909953f5078a8U, 0x3e2c77fdbf304cdaU, 0xbd1ce7c3bd6a7b36U, 0x3b89c6403c85e3feU,
  0x3de9652ebd4a5260U, 0x3ff469123fc505bfU, 0xbeb6b15dbde0408cU, 0xbe09d0193e910f63U,
  0x3f34f3ecbf382cabU, 0xbede951ebb57069aU, 0x3fbde1de3fe2d125U, 0xbeac55343f6caaaaU,
  0xbd91b6583de35b8eU, 0xbe07c553bf40d96aU, 0xbebe85323ef8f956U, 0xbece16f0400f117cU,
  0x3ea19085bf8d70c3U, 0x3d8741d8bdf7d108U, 0x3f12bb4f3ee6b867U, 0x3fb5bd2f3e03877bU,
  0xbfc21a6b3f1d3e62U, 0x3e00a707be9c0e94U, 0x3e433842bdb5837cU, 0xbee4d974bf6ddb39U,
  0xbd854791bf457bb9U, 0x3f12ddecbf4d634fU, 0x3e2931b43ebd20c6U, 0xbe5523b83cd7521eU,
  0xbeae8d843e00360aU, 0x3f7e2c513f12cd7aU, 0x3f9dfc4bbea86089U, 0x3ee6aa92be8e1258U,
  0x3d2bcb493cacee8aU, 0xbe82b15ebdb907ddU, 0xbdd4694abe4c8e12U, 0xbfde17d9bec93b42U,
  0xbdb0679fc025524fU, 0xbe2894aabe8c937dU, 0x3f6ed4e23ef37efcU, 0x3ee0ccd7be2b2b9fU,
  0xbfd6000a3f15bc74U, 0x3ebdc64d3ec7ee22U, 0x3e222c08be18b77dU, 0x3d02a3833ee58037U,
  0x3ec2db7d3ebf6986U, 0x3ecfcf53bf090389U, 0xbedad0653f2ab756U, 0x3d1bc67d3ce4a92eU,
  0xbf6d92f2bce1f42dU, 0x3f8708093e04d865U, 0xc0035b5dbe943c28U, 0x3e01cef53e5bb29cU,
  0x3dd3b6a8be0c7162U, 0x3ef6993abe86c8edU, 0x3e7953a1bf036713U, 0x4042e7cdbf1cda9aU,
  0xbd8e2a593f47f2a3U, 0x3e813feebd103935U, 0x3f8c4dc33e9edc68U, 0xbebc0306bf739637U,
  0xbf8a78083f853b2cU, 0xbeefae44bfe87f17U, 0xbda372543d0a85d7U, 0xbfa1750bbe920744U,
  0x3dfa9909bf883723U, 0x3c8cef493f98e25aU, 0xbe19a2de3f2d4042U, 0x3d447422be9c7dd5U,
  0xba41cf37bdfef2c6U, 0x3f61f3b93da52bb4U, 0xbf23be323e3fca77U, 0x3e25a2ef3f5d5ad3U,
  0x3e28ae253db2dc07U, 0xbdd3f0b43e61e451U, 0xbdabef4dbdd770ddU, 0x401b5aa33f1432abU,
  0x3f01bec0c012196fU, 0x3c0e0e803ee7586dU, 0xbf1a5e22be36edfcU, 0xbf175cb0beca3288U,
  0xbe4ff32a3fefbf6aU, 0x3cdb2134403452daU, 0x3d1f47ab3e35b545U, 0x3f947399be13fa3dU,
  0x3e535d39bf6913d8U, 0x3cc2949fbfb81f54U, 0x3db221dc3f881606U, 0xbc856ab3bd75fe00U,
  0xbdd2f060beffeaccU, 0xbeedae00be9ea155U, 0x404f55e33fd5334eU, 0x3ed027f7bf154418U,
  0x3dba1f3dbd8829b2U, 0xbe5043a0be0d042fU, 0x3f699d2ebe091e82U, 0x3f8ef2b73f129192U,
  0x3f1fcfacbe21b1bdU, 0xbe773420bdfd2e16U, 0x3fd1c8f73e45418bU, 0xbd36c26c3da8d96cU,
  0x3e76ca963f2e58fdU, 0xbd7590063e565f89U, 0x3dff4d12bed94c2bU, 0xbe980e1b3dbfc5f0U,
  0x3f206e3ebc6777e0U, 0xbfdd606a3e98f390U, 0xbc78cc79bfb2e9eeU, 0xbe241ad2bf2181a9U,
  0x3e9c83bf3dde72eeU, 0xbe87df00bf18be55U, 0xbf37a3c24013ab8bU, 0x3ef8c8f5bd8f12b0U,
  0x3e22b75a3e9fbf8dU, 0x3ee7bc983f044699U, 0xbf1b504c3db430ddU, 0x3e451a48bf823cccU,
  0xbc453d543f94bfa0U, 0x3bd8ff223da2d7f6U, 0xbf699ab3be301a7eU, 0xbe439c26bf1da3b6U,
  0x3fa9797f3f471d64U, 0x3d736d67401fb690U, 0xbe0ec85539ecf78cU, 0xbfd553813d2681aeU,
  0x3f5bfb373eb0d580U, 0xbf6e7047bfa2fb65U, 0x3e3f3d29bed8a9a4U, 0xbd6ac127be58d194U,
  0xbdfe6737be81b5fcU, 0xbeca899bbd6f2692U, 0xbf9e82f8be8b2e8dU, 0xbd0bca15c073d4afU,
  0xbd6f85e7be8903b2U, 0x3f51c335bca702c6U, 0x3fbfa971bddde333U, 0xbfaaeea6bf4960fbU,
  0xbe16b42c3fefcd8cU, 0xbe0eacc73d0e1856U, 0x3ea55e9f3d349516U, 0x3e96a7063f285726U,
  0xbe8028913fd1d5b2U, 0x3f079e823fc6b948U, 0xbb036f43bd7de958U, 0x3f8af103bb3ed950U,
  0xbeeba8a1befa7004U, 0xbfd6e7d8bfbe0ee5U, 0x3e580eeabf22aea5U, 0xbcabbd27be944630U,
  0xbfc15cd4be79e8adU, 0x3f639ed83ee5e7e5U, 0x3eba6e23be52a8dbU, 0xbc67e7803e299d90U,
  0x3dec0785bdc11ac8U, 0xbe439a13bec3294eU, 0xbe904690bfd4e428U, 0x3fbc58bdbecf4096U,
  0x3db74d213e9fdc48U, 0x3da5f036bbe2e6a1U, 0xbe782ade3dec54d9U, 0x3e98e8223ebd8c5cU,
  0xbdfda25cbfb217aaU, 0x3ace48abc02fc0ebU, 0xbd4768183da89110U, 0xbd9ebd58bfb84e29U,
  0x3e8f7deebebc3b1eU, 0x3ec0b5d83efff371U, 0xbec7a054be2dff88U, 0xbdac66093cea1708U,
  0xbf53e0493ee1ba2cU, 0xbf39a0f43f0958d1U, 0x3dcab97ec01bf2abU, 0x3e6842253eb96871U,
  0xbbb81ddd3e4a8c04U, 0xbfa420893e6468aaU, 0xbf6eaee83ebcfda7U, 0xbe2e25713e1386b9U,
  0xbe8841bd3efd1b32U, 0x3e05ddecbe16ca59U, 0x3f8b2b2e3e0510d4U, 0xbf8e04a23e60a440U,
  0xbe949c173f19db8bU, 0x3e9d59d6bf64fa86U, 0x3e3370f03dc7ad3bU, 0xbf9bcc1cbf2fb43eU,
  0x3e1169f8beb488dfU, 0x4008ed923fa1c1b4U, 0xbddb5615bea7cdf1U, 0x3daaea86bd9442e4U,
  0x3f1da71c3e57a45bU, 0x3ec5ac6abeffc79bU, 0xbfb9cdde3fc47f18U, 0xbed54b9ebf6eb8fbU,
  0xbe654dcd3e82f8c9U, 0x3e932182bf1f65beU, 0x3f2ff89f3e26646aU, 0xbfe0dcc33db6a3deU,
  0xbd71fde6400b4c22U, 0x3e0bd6e13d9cc6a8U, 0x3e5ddf2fbf27f222U, 0x3f66e600bf3106d0U,
  0x3e8118203dc0e687U, 0xbd3831303fdb5af0U, 0xbbff0b673b94307fU, 0xbe754d81bf690008U,
  0x3ef17edf3f8442b6U, 0x3fd31e3bc01c6eb9U, 0xbe82bd2b3fcfe9fbU, 0xbb19e7d43d839cf8U,
  0x3e6dff433ef8c786U, 0x3f589317bcc9c65eU, 0xbeb445b63f95709dU, 0xbe0282893f349a0fU,
  0x3dcf33e63e0fa1cfU, 0x3dc5c915be1dc33aU, 0xbf4dcec9bea0024fU, 0x4002099dbecc80e4U,
  0x3d91c25340350adcU, 0xbc9830a53ea30093U, 0xbf9042cbbeb86039U, 0x3c99926dbe54f88fU,
  0x3e8dbe023ea4eb11U, 0xbe2483f7406837baU, 0x3c9977663e37c8ceU, 0x3e55aedfbe891b90U,
  0xbebeb19c3ef3fc46U, 0xbf876fe4bffa9a11U, 0xbe7519c83f8d12dbU, 0xbe87ef3cbd751fd5U,
  0xbea6e48dbe198a69U, 0xbf6c5633bf34f679U, 0xc06931d03f5be9b1U, 0x3d5696c6bf310e67U,
  0xbdd36e66bdec4ba0U, 0xbfaec343bde92d88U, 0xbf0f49c63e23f1eaU, 0x3f66e17bbf90b4beU,
  0x3aa127353dd41260U, 0x3dd4cff2bc88b8c9U, 0x3e8fff123d8e51b1U, 0xbf5553ff3f56337fU,
  0x3f9a432a3fa06008U, 0x3da924953f0425f9U, 0xbcb79c6a3eea1f99U, 0xbf62280b3e7fe7a2U,
  0x3ee025ce3fc4e3bcU, 0x40043db7bf042a71U, 0x3d633cbabf03a9ccU, 0x3e5974e3be27184dU,
  0xbed01121beab8656U, 0x3c0b2e88bee3ce8eU, 0xbf09cf023ffd3e02U, 0xbcec6b883fc113c0U,
  0x3e07a32b3d52fcb1U, 0xbfb56ab53e8d4340U, 0xbf0a0765bfa37f9dU, 0x3d16f7d43eae6d27U,
  0xbece8e7ebf06ca4dU, 0xbe0b0569bdb8731eU, 0xbed860e0be0924c4U, 0xbf3cdee7be2f1e76U,
  0xbf001a863c48e45aU, 0xbe517ca8406cc937U, 0x3a8b8cf1bde9b13bU, 0x3f0c4662be68f9a1U,
  0x3c1c15bebf157c6eU, 0xbf85ffb5beb57635U, 0x3c71b4a4401d89afU, 0x3c4243aabed1418cU,
  0xbf99fce7be7a95e1U, 0xbe6c76a6bf5d4497U, 0x3f1079983f527c05U, 0x3e732048be153d69U,
  0xbe0c9df4be0f311aU, 0xbfe1bf463e0622c0U, 0xbf62ed913e5e9c30U, 0x3f8c3c81bc9af272U,
  0x3ed58a80bf4acd64U, 0x3dc6e323be3b1b83U, 0xbea142c43ce0e4ebU, 0x3f59811c3ec06626U,
  0x3e43a292bf6b5d09U, 0xbe0666c13f58a002U, 0xbcc07438bdc47b7aU, 0x3d854905bf052cf0U,
  0xbed1fef23f905772U, 0xbfc48eec4038a828U, 0xbe1410ef3fcd4795U, 0xbe23e335bdfd82c2U,
  0xbe03d3a7bf14e265U, 0xbf63e89b3e29af86U, 0x3f4498933fbddd64U, 0x3e1cc61fc03b2caaU,
  0xbd8caf51bc695d58U, 0xbc7612983db37f3aU, 0x3e48b1aebf3b8144U, 0xbe7ad752c0145adfU,
  0x3f48849e40402cfbU, 0x3e7664a23e9d373aU, 0xbf424bf43df004b2U, 0xbeeaf3c43f62358eU,
  0xbfcdaf6a3f27961cU, 0xbd522c163f03cdcfU, 0xbc88213c3e551edeU, 0x3eed1b883ccb7ee9U,
  0xbf6cb4c03f5363feU, 0x3fb0f8203f630dfcU, 0x3f23cec6bf949a79U, 0x3dcefb64be13baf4U,
  0x3f2db4ab3d94bee2U, 0xbd020c6bbec416a5U, 0x3f4991bbbf8833c9U, 0xbde4f67d3e878382U,
  0xbdc0b89b3d640f8eU, 0xbf81a42abea4a844U, 0xbf359feabf2e6d7dU, 0xbed45aa23f97b124U,
  0xbeae58953cfc6e22U, 0x3d148dc8beff6d2aU, 0x3e0fb750bee5046fU, 0x3f3998f3be8851e3U,
  0x3edc46cbc044aee7U, 0xbc4f8938bf3b440fU, 0xbd93bf53bd0d2d68U, 0xbf73f70fbe0dfa69U,
  0x3ecf07153e6daa38U, 0xbda1d191bee2424bU, 0x3e0736f34098a1c1U, 0x3dfba657bdd1bf2cU,
  0x3f964dbfbf24aba7U, 0x3f16340bbed01a55U, 0x3fdbe66bc057fcf1U, 0x3cb08c95bdc8d8dfU,
  0x3d1f535ebd16898fU, 0xbecf7ebcbd921ceeU, 0x3f945f8abf3df69dU, 0xbd6c2770bf8a691aU,
  0xbcb4f1ea3fa304bdU, 0x3d9e1e2cbc300a04U, 0x3f5b3b493e0c7e33U, 0x3ee03259beb094c3U,
  0xbf5937cfbeeebf93U, 0xbe08e8a03f1d9241U, 0xbd49f4b2bd38c4c2U, 0xbe6ec8fcbdc49970U,
  0xbf9c9ef0bfe57289U, 0x3fbd8951bf591648U, 0x3c039be4bdbfb422U, 0xbdbc585b3e1929dcU,
  0xbee3ce8bbf017377U, 0xbf2ab4e8be1e33b7U, 0x401d3ff13ef66ad3U, 0x3e3e1d133fb0c912U,
  0x3e4e39a9bd0b75bdU, 0xbee448d43e972717U, 0xbfdb9fda3f251a95U, 0xbfd1adb24063548aU,
  0xbe2486fdbe7a33fbU, 0x3d9a8372bd498aa9U, 0x3e0f589ebed3216bU, 0x3f489e513f538a29U,
  0xbf67fb74bdbd89a9U, 0xbdc0a7dac012b353U, 0x3de384953c3d1cd0U, 0x3e8e76fdbd64bad6U,
  0xbecbd9cbbeb44083U, 0xbf2b3ec3bfc7801fU, 0xbf2e2f04c0453ec9U, 0xbe9387bfbde464e6U,
  0x3f75bfc8be2c39c5U, 0xbd53593ebf98a1cbU, 0xbf8235c93fe30fcbU, 0x3ec0b277be6a7b92U,
  0x3d6a2151bd81bd9aU, 0xbee0803bbdffbe14U, 0x3f262eb9bf223adcU, 0xbd44e0a03fd99681U,
  0x3e090efb3f9d93e7U, 0xbcdfd7803d4529a2U, 0x3dece7acbdff67a9U, 0xbeec5b9d3f875f81U,
  0x3fbb559abfca6acaU, 0x3e9406633d94aee4U, 0xbd9187513e2b03adU, 0x3fce65cebdeb2a88U,
  0x3f273febbe8d8492U, 0xbfc88f6e3dfe0c12U, 0x3d90baba3f8a02c4U, 0xbde2577bbc6e1d3dU,
  0x3f4189103e7a312eU, 0x3ec8654ebe1c9de0U, 0x3f5d50b1bfbd7871U, 0x3d837865c01435d1U,
  0x3d42e75dbdf06dffU, 0x3f158971bed53a68U, 0xbcbff3cbbfd3c2f4U, 0x3f362648bfb6170aU,
  0xbe44c3a63e8ff08dU, 0x3e098bddbcc8b14eU, 0xbeb733193e2141deU, 0x3f55d52cbf4e81c2U,
  0xbfb691acbf88c7e8U, 0xbdbd7eaf3f380895U, 0xbde654a13d8b3e48U, 0xbe0ea7efbcf8c657U,
  0xbd2ffbcfbf7c8c67U, 0xbfafc2fe3c9444ddU, 0x3e51f5fdbfc331beU, 0xbda74eb4be3f2e8eU,
  0xbf10849abe329b37U, 0x3ee830583eb48970U, 0x3fa071953fd2165fU, 0x3d4fe9e03fbd8d7eU,
  0xbd3267403d8adfdaU, 0x3f9c8452be94320dU, 0xbf3608863e13be28U, 0xbee06972c026d757U,
  0xbb9d71293ead6159U, 0x3c2909433d13f145U, 0xbf516b5dbcd74901U, 0xbd9ab9373be10b80U,
  0x3f64a840bfd164c7U, 0x3dd15b553ecad851U, 0x3ec8abb43ea816f7U, 0x3d8cb1d1be59fd91U,
  0x3ee09a9a3f329212U, 0x3e2cff133f1ecd81U, 0x3e162a05bf3c0b28U, 0xbdc03fd7bc4faf4eU,
  0xbf1dfea9bef439dfU, 0xbf163f92bf624a04U, 0xbf7c581dbf4db76cU, 0xbeb2bc2a3ec68aaeU,
  0xbd0625303d85d771U, 0x3f9135db3ec00ddeU, 0xbcaa0cefbe93e32dU, 0x4007904fbff51ec6U,
  0x3d2b4b26bf348167U, 0x3c796aaebd21e429U, 0xbf7fc677bcf85cc9U, 0xbf83b532beee7baeU,
  0xbef87acb3dcc7e25U, 0xbd99316abf50064aU, 0xbd1b09df3db94240U, 0xbe9be6f5bf9babf6U,
  0x3e6b68a0bde2db0cU, 0xbf100f5abff20ef4U, 0xbc2f55643d0ff713U, 0xbe3ea2213da5daabU,
  0xbf3ddc06bf370646U, 0xbf74ea9b3e6dfd75U, 0x3fd490053fff70bcU, 0xbc19a8143f79b742U,
  0x3d38a8f9bbe2442cU, 0xba9528cabcb39190U, 0x3f777d033f12de2bU, 0x3fb80b8dbe6d4a31U,
  0x3e9dcf453fa6e203U, 0x3e1937493d48a1e0U, 0xbfd9a99a3da942c1U, 0xbe81e5d63e25002bU,
  0x3d5d2be13f73854eU, 0x3eda04f03e9e35f3U, 0x3e3a81e93e497f3aU, 0x3d811f12be9373b1U,
  0x3f2e547dbcc70ba3U, 0x3fc7f2663ee03250U, 0xbe837a71bf95db7dU, 0x3d9c15f03c2e1029U,
  0x3efbd319bd5b6e87U, 0xbf6991c7bf3184e7U, 0x3f98cd7dbfaa6621U, 0xbed39868bf9a346cU,
  0x3dcf32b73cd66b3cU, 0xbe9429dbbdcbe06dU, 0xbf84df143ebc4c77U, 0xbf882c08c03a4f77U,
  0xbd45e149bf9eeaf5U, 0x3c5027c3bd97acd1U, 0x3eb42167beb09a91U, 0x3eea87213f054405U,
  0xbf3fdf84c0006c7eU, 0xbd8cb175bf78c4daU, 0xbe5d91b83e26ac1cU, 0xbfbb60493dd49846U,
  0x3f459006bf483b66U, 0x3e910129bfc08370U, 0x3e79e29c3febdb56U, 0x3db9f1ff3c1b828cU,
  0x3e260a1fbe05782cU, 0x3f8012f0bf02f0dbU, 0x3fb7ba3abf3df740U, 0xbed510ecbf0758a8U,
  0xbd54e0e03c700219U, 0x3e0e54eebefd00c0U, 0xbf3bf4e7bed7aa1dU, 0x3fe29d603f3abd7eU,
  0xbe48ddec3df46acbU, 0x3cb0facf3da2cc45U, 0xbe93cd41bf10b64dU, 0xbf4f4a3cbeefd152U,
  0x401c76863fe8f94fU, 0x3dab50194022b46fU, 0x3e2de87abdbb6f29U, 0xbf72cc5c3ed17719U,
  0x3f1023f93fb26678U, 0xbfd79c233f92687bU, 0x3d731ce1bf454f11U, 0xbdc233513e65f002U,
  0x3e850d09bd8048ebU, 0x3f46feadbc342d13U, 0xbc83b2534025e0b3U, 0xbdeb6de3403293b0U,
  0xbdf4c5163e1141d5U, 0x3fb19688bbf120eaU, 0xbea746ec3f3937f2U, 0xbf28172c401eb1d3U,
  0x3d3389513f806ea0U, 0x3dcabf5f3d15e4c1U, 0x3eca8c90bd3614edU, 0x3e2e33d5bf2489b2U,
  0xbfd703dd402a51a7U, 0x3ec1ce6cbf7e59ebU, 0xbde6c62dbd08ebe7U, 0x3e8ad5fb3e0493e4U,
  0xbe59a8973ebbf12aU, 0xc00c9d03bfb0fbb9U, 0xbe91981e3ed8329cU, 0x3d504c963e3c8296U,
  0x3f95436dbefa97c6U, 0x3e8b0696bf27e86eU, 0x3f918449bf4f333cU, 0xbeb41f3b3f012616U,
  0x3d650ee33c650f6cU, 0xbeb4ebd9bd862b37U, 0x3e2b5ebabf41e663U, 0x3f162c433fcaf756U,
  0x3d3b50bcbfeedba2U, 0xbcae37d33dfad638U, 0xbea7c7da3e068737U, 0xbded4bf9bf2ed83bU,
  0xc04ad14c3f921d17U, 0xbe820de5bee8ccbbU, 0xbe8fa09dbc53edeaU, 0x3f3fbd20bd835c1bU,
  0x3fa41e3fbe6a571fU, 0xbeab0797bee12e27U, 0x3e3d2900beaaac90U, 0xbd8d5f473c2752e2U,
  0x3eee2e31be748de0U, 0xbf1555fcbdebc3bdU, 0x4027f39e40447240U, 0xbe165726bf3525a0U,
  0xbd806c5b3d251467U, 0xbdd35ce5be9d6f01U, 0xbe2a7cffbf1820bcU, 0x4020ff75c0255d63U,
  0x3e1bc2563f1c4bb0U, 0xbdfafbaabd9ad3e4U, 0xbf4173d5bf7b4fc7U, 0x3d6896f13c4d0a0cU,
  0xbd9d26e6bf84fa2bU, 0xbddc7525bfc0916bU, 0xbb791dca3d5d5b37U, 0xbe7b1167bdfcf974U,
  0x3d2a43593fa05eb9U, 0x3f8e43a83f147a4eU, 0x3e276aca3ea76bb9U, 0x3c4eeb21be38ef62U,
  0x3e776a02bdd9e9faU, 0xbf08d6f8beec179dU, 0xbfcd02d03fd14825U, 0xbea0e7f9401f2c83U,
  0xbdd66e8fbbb694d4U, 0x3e17ea67bf929598U, 0x3ea8bff8bf59a315U, 0x3eaef8a5bd738d54U,
  0x3e100a0f3cc79a16U, 0x3df2eb25bc9c8e9dU, 0x3df04810bee06c77U, 0xbf3b910cbf7518f1U,
  0xc0053a0d3f64aa0eU, 0x3e95fa753f18f364U, 0x3daa4bc03d80a126U, 0xbeb5bc52bf572b88U,
  0xbcecdbdb3f2f7202U, 0xbf5ecdfd3f3ab911U, 0x3d5e177f3f986949U, 0xbc9d5743bcc1217fU,
  0xbf54c403bea1c6e0U, 0x3c5c9f05bf1d8d83U, 0xbf770bfcc02a2e36U, 0xbe1a855b3ddc33d0U,
  0xbd0278db3e6169b8U, 0xbf95995fbf53ecbaU, 0xbebcc58fbc48a7d8U, 0xbf50820bbfb7af9dU,
  0xbdbe7f623e29741dU, 0xbd1a88293d61635bU, 0x3f50c7553c2461d6U, 0xbf0b9df1bf324138U,
  0xbf0c40023f98776bU, 0x3a9a1b593f044f56U, 0x3d9129c4bf0166d8U, 0x3f519fd9bef9359bU,
  0xbe720143bf00ab22U, 0xbfa410cc3eed0448U, 0x3d8e414bbf9ae8f8U, 0x3de27c473dfd593bU,
  0xbef881e13eb3241fU, 0xbf8625a2be40263bU, 0xbdbeb11ec00726f6U, 0xbe94c9893f93c8f9U,
  0x3d84e40dbe924294U, 0xbf1d3760be8413a7U, 0x3e2cd2bbbe232b63U, 0x400303d03f907df0U,
  0xbe866e7a3ea288bdU, 0xbd5a0ee33db0ba9eU, 0xbfd9dd29bd33bfefU, 0xbf5cacf1bf18e1caU,
  0xbebb5703bf9c6483U, 0x3d568bb73f9b65bbU, 0x3e1899febdfdadb1U, 0xbfb605733ed5be9eU,
  0x3f4aac823e4ea928U, 0xbe5cfac44006aee2U, 0x3e2312593f33779fU, 0x3e1801a5bdfb65f4U,
  0xbe533263bee86d14U, 0xbe37cc963ead2e1eU, 0x407ae6623f03547cU, 0xbe09d751bf056d7aU,
  0xbe1602a83dc8d4c9U, 0xbf0136493f18a4feU, 0xbf7d46653fdb2314U, 0x3e796e983f5ff5ffU,
  0xbeb701293e01b226U, 0xbd3a81723e5fc64bU, 0x3f8f803fbd9202aaU, 0x3dd625d9be196df2U,
  0xbfe915d1bf4189c9U, 0x3ec66d23bf7e446eU, 0x3e103f743da150c2U, 0x3f31ca2ebe36982bU,
  0x3de720ba3f342920U, 0x3f844f0f3fab18fdU, 0x3e88e9f83fb8929aU, 0xbd4314193ee93ac5U,
  0xbf6d1ab63e49c755U, 0x3f8e0dc9bf4b0f9cU, 0xbf8934a04009b329U, 0xbc9604253f7a74b3U,
  0x3dc12646bd86cd3eU, 0xbf6e191a3dfb381dU, 0x3edf85093ec131f0U, 0x3f2eedd4beaabf50U,
  0xbdd524183f890eeeU, 0x3e132eb43d945bc5U, 0x3ec699383e64d053U, 0xbf4e8d01bf5e3fa9U,
  0x3f87a864bf7cd9b2U, 0x3f0ffcfcbfb60cf5U, 0x3deadbc63ea2e4d2U, 0xbeeeb700bf243f2dU,
  0x3d05a462bf814a02U, 0xbebe95923d828222U, 0xbcf6970cc0952253U, 0xbcbfe29fbe03e73dU,
  0xbf974a06be235edcU, 0xbec7fe473f79b535U, 0x3f960c344035ff92U, 0xbd7485b03e07b7fbU,
  0x3e23698abe3b6ec4U, 0x3f6cf0293e8a06c7U, 0x3f34b422be4fbce7U, 0xbd4510273f95a888U,
  0xbe0082efbf1e09e3U, 0xbdf7dfd9bd17c50bU, 0x3db1a16fbf14987bU, 0x3f46b16abfb90104U,
  0xbe2df7bfbf800e4eU, 0xbe29a158bd128bc7U, 0x3daf2b2e3cbfa161U, 0xbd5f7d6b3d89ae0bU,
  0xbf1f32fcbf4f7b16U, 0x3fe3b0e93fd2ac4cU, 0xbebf022e40199e41U, 0x3dbcf2edbea5a30aU,
  0x3ec67323be7604a0U, 0x3ed5d2d83f00e8acU, 0x3f7fbc363fb4e49dU, 0xbdff14163fd84b11U,
  0xbe59a5d23e4965a9U, 0xbf44621ebe53a547U, 0x3e87fdc63f92f00eU, 0xc01cde573f56821eU,
  0xbe1572023e01b94dU, 0xbd5ce35e3de02aaeU, 0x3f58f7b83e67a7c7U, 0x3f10da60bf8f60e7U,
  0xc04217413fe00e1cU, 0xbe19b6aebf503833U, 0xbd8dff1d3dd851a0U, 0x3eb2a1fc3d02aff9U,
  0x3ea3bf0a3e4f91ffU, 0xbf9a376a40015d2fU, 0x3e46cea53fe51033U, 0x3dd950bbbe42a2eeU,
  0x3f56877c3e0018efU, 0x3f1811c2bf21d273U, 0x3e0c7f7dbf39c4f7U, 0x3ebdc44340315fb5U,
  0xbd2364e53c6c4d9aU, 0xbed48d1cbf4ba4c7U, 0x3ec772543f667dd2U, 0xbf3cc031bfc082bcU,
  0x3d4392ca4017e6e0U, 0x3da7cdb03d8c18faU, 0x3f386661becf8098U, 0x3f7ef375be9f0e01U,
  0x3fb8bd68be8f90afU, 0xbd677b213fddc363U, 0xbe22b32d3dcd9307U, 0xbdb91d24be923759U,
  0x3ebc86a4bf6ecc0eU, 0xbd6707df403796d1U, 0xbdbc61f03f189fa6U, 0x3d98c8c33dc93fd9U,
  0x3ea3365fbf8db548U, 0xbdb45d4cbf83cc72U, 0xbf5682703febc23fU, 0x3b9306a33eb015e2U,
  0x3d4c16fbbd0d5938U, 0xbea1c882be458bfcU, 0xbef98bec3ebc248aU, 0xbfa31d9a3e67ac0aU,
  0x3e37c5ca3ffcb821U, 0x3e325348bdca8686U, 0x3f5da26cbf3987b9U, 0xbdac9e303d44104eU,
  0xc0268a2dbf46ea02U, 0xbda29184bf186b0aU, 0xbe88e9313d8609e7U, 0xbf7794d5be8252cdU,
  0xbea526af3f363696U, 0x3e19f027bf9292daU, 0x3d998f77bfb7e1d4U, 0xbdbf00e2bcc6f422U,
  0xbf279920be7b77cfU, 0x3f799f09bf3d29fcU, 0xbeba40733fd5abd6U, 0x3e60dafdbf73e185U,
  0x3e022a0fbc9e5496U, 0x3fc624583e826dafU, 0xbead369abfb0b776U, 0xbf6337ec3f6a3adeU,
  0x3e98fa7a3f09b378U, 0xbd9eac723d9c62f6U, 0xbe8b54b1bb8e16eeU, 0x3c5d40103fab32e1U,
  0xbf4f623ebf31ccd3U, 0x3ded98eabecacd46U, 0x3e3d3bbe3e12dc78U, 0x3f42d8b1be4a678eU,
  0x3f2f7bde3fc71cb8U, 0x3f908d92bff60df4U, 0x3e490cd2bea9faeeU, 0x3e2a62d2bdf4de72U,
  0xbde9b82ebf5f2bb7U, 0xbf3123373f07f769U, 0xc02bc1e5be94d838U, 0x3e1748abbfeeeee2U,
  0x3e6172623d901ae6U, 0xbed28084bd3c10dbU, 0xbe5aa5d33fa8716bU, 0xbf79a3833fa06ee6U,
  0x3d077589bfe99383U, 0x3db3cb563d4648cdU, 0xbe16e9bbbeef91dbU, 0xbdc102383ef4015eU,
  0xc03315a1c00be2feU, 0xbd91c7ff3f876d0aU, 0xbda08e093e3db0bbU, 0xbf4706483e3d26a5U,
  0xbd8c9c19bee9a0a7U, 0x3e208af3bde2aa8aU, 0xbb6e0d93bfa50927U, 0xbde09faf3e9e19d3U,
  0xbf01fc53be891a2dU, 0xbf0445f53f1553efU, 0xbf47dfb8bf75224dU, 0xbe8307553f56291dU,
  0xbdad955dbe8fa863U, 0xbf3b29d7bf1bb983U, 0xbf37203b3d746b81U, 0xbfa4f876bf41e57aU,
  0xbd9c4c93bf5d9a41U, 0x3e44a33c3e2242c8U, 0xbf3fb95ebe334d0eU, 0xbf0d0a2a3de860cfU,
  0x3f8166ab3f1bae1bU, 0x3e709a5340027733U, 0x3e3b136c3caed470U, 0x3e9a34a9bb01d973U,
  0x3f4eafc53f9940a2U, 0xbee5ff6c3e316866U, 0x3e0498c6bf854959U, 0xbdd2807abe874560U,
  0x3fa20253be8393a1U, 0x3df9e8dc3e04a61cU, 0x3f5d3f943fded727U, 0x3ea1e2b8400932ecU,
  0xbdff65d0bd8b3e87U, 0x3ee45b673e98f5a1U, 0xbebea36a3ec67de0U, 0xbf5aa6a73f3def71U,
  0xbe967013bded5215U, 0x3dd01c4d3e6b111aU, 0xbf46fc45bdc83f3eU, 0xbf5625ab3f291154U,
  0x3ff1d406c020f398U, 0xbe8740ccbe7346a1U, 0x3df209033d581c4aU, 0x3d1a8afb3ea1a1cbU,
  0x3f08b234be8e1ee6U, 0x3f8d8fb3bff8f905U, 0xbd9755d9be9a9278U, 0x3c5773dcbe60f855U,
  0xbd694cd73c120483U, 0x3f5f936abf95835fU, 0xbfa86f34bed5e556U, 0x3ea9279fbebc7ef5U,
  0x3af4cb4d3955a869U, 0x3f7ceffb3ed325e0U, 0x3f1dc8363dce34d8U, 0x3ccef1c7bffc7ba8U,
  0x3f285c783f78677eU, 0x3e37ef653e415edaU, 0xbe0882363ec5bc50U, 0x3e22db2dbeb7c193U,
  0x3fa3e4a7becc13bbU, 0xbc4441bc3f77eb44U, 0x3df7284bbe16a640U, 0xbf3488433eb70f99U,
  0x3dbac2343f3ec122U, 0x401d939d3f37fac5U, 0xbe9724bc3d82f88fU, 0xbe396424bdc758c1U,
  0x3fcbb929bec9797fU, 0xbeaacd0cbf7d55a1U, 0xbf12d6e73f6fe423U, 0xbe92f0e1400368a0U,
  0xbe2a3316bcc4ad49U, 0x3f405f75be7667f6U, 0xbe9adf8dbf31db1aU, 0xbf1c6029bfe488c2U,
  0xbf0529f84038a4d0U, 0xbc45301abcd22045U, 0x3f983242be2e332eU, 0x3a7a3cc03f8dce36U,
  0x402003f83e6aacecU, 0x3d3f9aac3fa881b1U, 0xbd4d43cabce2daa7U, 0x3d29a166becbe627U,
  0x3e44baf0bedb0c59U, 0xc00d1750bf952ee9U, 0xbe9baee640651008U, 0xbe4a85243dbf7bfaU,
  0xbf9b1b52be1cf62aU, 0x3c101a4c3f38ba09U, 0xbf666aee3d61e6eeU, 0xbdddce2dbf8fe908U,
  0xbdff25b73cc83a82U, 0xbf0f8bd2bef96d6cU, 0x3eccdf693d7db7d8U, 0x3f92416b3f155265U,
  0xbe9099b6bfafa4b1U, 0xbdee8af9bc8c469aU, 0x3ede31613d40d9dbU, 0xbf85f7eb3fda738eU,
  0x401b2c0e3f953adeU, 0xbe8cf2843efe998eU, 0x3dc618b6bc8ef8e9U, 0x3dedb817be9a506fU,
  0x3d439d293eff476eU, 0xbf96eac33fd0a444U, 0xbe9ecddd4032db3dU, 0xbdb2f2523d50dc5cU,
  0xbe5f33cdbf7433a4U, 0xbf7940e4bf108a9eU, 0x3e8a678fc005e623U, 0xbd8c3a693ced205fU,
  0xbde1a45a3ddaf693U, 0x3f33b770bec56ca6U, 0x3e675b0a3e00d351U, 0xbf4915cc4015b943U,
  0xbe7b7613bfab1c9dU, 0xbdd13beebe27fd3eU, 0xbf1fab97bdb14ae1U, 0x3e8ef4bdbf9b0cc1U,
  0xbf72510b3fbde6acU, 0x3c3834babf21b6eeU, 0x3d981cc2be6fc9e7U, 0xbf04b40dbe8ceb9bU,
  0xbf76e7cd3e1552f2U, 0x3f0f36ad3fe74f30U, 0x3e070aad3f848388U, 0x3d79dfcebd585e78U,
  0x3f701d31bf17edc4U, 0xbe8106c43f2ee246U, 0x3f9d94e0c02fdf11U, 0x3d5736253e5bcc20U,
  0x3d281fd1bc4427bdU, 0x3d888bba3df1b562U, 0x3f5a49f3bc3e421dU, 0xbe208371c011a730U,
  0xbf041129c02bc463U, 0xbd5402c03e459c82U, 0x3da4b70fbdd26144U, 0x3f807fe4bed7af65U,
  0x3fa43b73be1529edU, 0xbe319e453fb76cfdU, 0x3d7b4d72bd524894U, 0x3f96bd06be12612bU,
  0xbf5726cfbf6d906aU, 0x4003d08b3db7377bU, 0x3d95a89e3e01bd81U, 0xbe174ceabe2deb58U,
  0xbe7727db3d80afadU, 0xbfd6b2483f0624cbU, 0x3f69e070bfd33316U, 0xbde05ac6401cce70U,
  0x3d90e92d3df420bdU, 0x3f571c7fbd811593U, 0x3f05cdaa3f0a523eU, 0x3fa83fccbfa34677U,
  0xbe3cb15cbf418ce3U, 0xbd24209d3e9d8770U, 0x3f10a144bf4527b3U, 0xbeb821df3e684520U,
  0xbf4030db3f788755U, 0xbdfb29eabf362424U, 0x3dfc75a3bd86526cU, 0xbd57772bbdd572b6U,
  0xbc7c9fbc3e05d97bU, 0x3fa87e07be493577U, 0xbd6cfd81405637f4U, 0xbeb8f62cbe9317ecU,
  0x3f44f494bf23d79bU, 0xbf8d423bbf137853U, 0xbf95cd17be416208U, 0xbe9dcf7dc035319aU,
  0xbea7d67e3d955686U, 0x3e7c9cd1be9ef063U, 0x3f26795c3eecdac1U, 0x3fd86327bf5416e1U,
  0x3c6c97c53e38ef35U, 0x3e58d6ecbd8a6e6bU, 0xbe7e29b53c0e944dU, 0x3e97d2cabf349c5eU,
  0xc02f8b70be38f322U, 0xbce2492ebf322772U, 0xbdf5fe05bb385e2dU, 0xbe4bbd9b3ebfcd43U,
  0xbf8121b5bd774414U, 0xbead2d2e3f63ade3U, 0x3e9aa441bfbaeecbU, 0x3d81fb7e3dd97cb6U,
  0xbf989e91bdf66920U, 0x3f672c00bfa41c04U, 0xbed8df18bfd8b49aU, 0xbd75625abcc8e0e0U,
  0xbdbcfd083d8d7bbfU, 0xbf7d1394bf6f61c1U, 0xbf1874d43e467c17U, 0xbfc1ff723fc859e0U,
  0xbe40833abf44c2a0U, 0xbd82c9223df96d9eU, 0xbe5c8520bec8e0f4U, 0xbe6326623f4af939U,
  0x3ee9578640580b24U, 0x3e4f0b8d3fe00559U, 0x3da33415be1947f0U, 0xbf4e8bd53e788b0bU,
  0xbc1aa295bf37da05U, 0x4018721abf5e2a1fU, 0xbe0a5699beecebb6U, 0xbe5ef6ce3d00265fU,
  0xbee6f3e0bf1a3e9aU, 0x3e7579bcbf6368c8U, 0xbfb63bd2be53d222U, 0xbe9ace4fbedc5795U,
  0xbdd153bd3c74bd44U, 0x3f9d107fbef90013U, 0xbf77211ebe572189U, 0xbd300adfbf392c42U,
  0xbd93fb143fb252feU, 0xbca84e603dcbf7e4U, 0x3fa99c3abdfc420bU, 0x3e6fc38fbd9434feU,
  0xbe6d8fb4bf21a01eU, 0xbe05ffcc3f826b7eU, 0x3df6e2f5bdb8bd7dU, 0xbf7aeadebd7fbab2U,
  0x3f0467fd3ecf37bfU, 0x3e0afeb8c01ba829U, 0xbf18cbdabeeb59b7U, 0xbe21a55abdc47b97U,
  0xbd2034f5bf321c30U, 0x3c918ff7be4e67c3U, 0x3ec869f33fab3e26U, 0x3e0376cc408aa868U,
  0x3d067136be4282c0U, 0x3f3ad18bbeebfc3cU, 0xbe5bbadb3f440dffU, 0x3f5cc3eb3fd5cbdcU,
  0xbd1260f240454ce0U, 0x3d2ebd2abd853c38U, 0x3f0da9bd3d1efd4dU, 0x3f1f1463bfb24a57U,
  0x3f7aea2bbf84dad7U, 0xbeab6336bfa7f445U, 0xbe0dc9c63d79704dU, 0x3ec1abbabf8650b7U,
  0x3ed017623d27bdbcU, 0x3f8e31853ef0b3a1U, 0x3e4869213e1dec48U, 0x3dc5ea2fbdbd9c9aU,
  0xbe2f4813bf23842fU, 0x3df112c6bf00f267U, 0xc051def73fda9a46U, 0x3ee6dd12402c9991U,
  0xbd8f7830bea13884U, 0xbf23b563bf6e6f9cU, 0x3ecd4724bf12154eU, 0x3dafeebbbb8d285cU,
  0x3e06a10c3fcb9e2eU, 0xbd8e70e33d15e4bfU, 0xbea2c201be06c069U, 0x3e361e45bea6d762U,
  0xbfc734833f84425cU, 0x3ea787f03f463f6cU, 0xbd62287dbf084adeU, 0xbd9f8088bf85f4b8U,
  0xbea7bedb3f4f43e4U, 0x3d3ffb2bbfcec9eeU, 0x3d6bbd3cbf7df96fU, 0xbc3c06a03d0aa557U,
  0x3d1a4d6dbde27120U, 0x3f4347083df1ea4cU, 0xbe819f603f4c76ccU, 0x3dec60dcc01558e2U,
  0x3d12f6f43f44fcf7U, 0x3f997bde3eaea941U, 0x3f0a52583f79f6b1U, 0x3e9759763f2ff89cU,
  0xbe14d5093f9a9d65U, 0xbd04128e3e3fac02U, 0x3f82a5cd3ec2396aU, 0xbf649b643ec35817U,
  0xbfcd9dacc02ac0d0U, 0x3c7a86b5bf4683aeU, 0xbc93de6a3db1e480U, 0xbe8f08da3eced2d0U,
  0x3f6207273ded954bU, 0x3db64f2cbf728f3bU, 0xbd20f5163ecf8327U, 0x3cefefd13cb3147cU,
  0xbf1fc927be55249cU, 0x3f538f50be2f5e56U, 0xbc6e3614bfaf94d9U, 0x3cf9e8ebbec467acU,
  0xbeaf843bbdf828cfU, 0xbeae5e69bd292150U, 0x3f338de2bfb6e978U, 0x3f902dffbfe18c3bU,
  0x3df33b023fd29477U, 0x3d11c5523d31c215U, 0xbd75ec66bf19ef9eU, 0xbef40cf93f2b4377U,
  0xbd54eeed3f35e470U, 0x3dee17fb3f653073U, 0x3e6dbe933ed154adU, 0xbf89d30d3ca9682eU,
  0xbe94ee28bf21fe2eU, 0x3f1b15fa3edd5686U, 0x3e355791bf98e816U, 0xbd849d933e96be94U,
  0xbe551a7bbf3e0731U, 0xbf28e7f7bebac8bfU, 0xbf0b5266bf3fa5c8U, 0x3c63b273bf8124bbU,
  0xbe51ae08bcfbef00U, 0xbd1bc5af3e2a7fc5U, 0xbf4e901ebfd2538aU, 0xbfb43c373e1610ebU,
  0x3df62e78c0356a39U, 0x3e79936f3ccbc2d3U, 0xbe6153b93e977c17U, 0xbf3aa6f9beb6ad9dU,
  0x3ff48b90bfe04530U, 0xbe65a9fa3ff3f0a0U, 0xbe06f5da3d6554dcU, 0xbf3950a4beaeffadU,
  0xbf2b27bfbf3c5e60U, 0x3f426a7840161859U, 0xbb0c15053fa12f6aU, 0xbca8c770bde6721eU,
  0xbf0725183e92d765U, 0x3eb42e683ede68f6U, 0x4029f7a43dd83214U, 0xbe181530bc8f35deU,
  0xbd6d8ca83ea28319U, 0x3f51c0e1be07ff37U, 0x3ea0bd82bf16fc83U, 0xc0131bed4035a3b3U,
  0x3dbf35f4be3bf996U, 0xbdc90276bdd6e1a7U, 0x3e5faa8f3ea53b36U, 0xbf301153bf96c423U,
  0xbf8a07b5bf1541f9U, 0x3eb6ff33bfe603a6U, 0xbd2abdb0beff4fc6U, 0xbf8d0f513d214660U,
  0x3df4978b3ef06b0aU, 0x3f32fdf7bf1e825bU, 0xbc14f6ae3e98365aU, 0x3cdf5faf3dc85586U,
  0x3f4482e1be9253c3U, 0x3e994223bf6a8922U, 0x3f7e936cbff51768U, 0x3e20ba4abf84054bU,
  0x3e17cfc13e5710a0U, 0xbe7af2ad3ccddd0fU, 0x3f871ababf159ac5U, 0x3f94d76d3ede70f5U,
  0x3e2cf45fbf842f3eU, 0x3cba80043e19270dU, 0x3c7c09ad3e044f4aU, 0x3dc9f86bbfdcd3ccU,
  0x3f40f6353fc87c9aU, 0x3ec119a73e205a36U, 0xbd8121783d4c31f9U, 0x3f5fda8abe3ea32fU,
  0xbeef04c93e593a5aU, 0x3fc93df33e9be905U, 0xbebe9298bfd6e940U, 0x3e246ca53dc2854fU,
  0xbf3c40643eb385e2U, 0x3f970b52be513e30U, 0x3eb2277fbe19f882U, 0x3dead83e3ec3bafcU,
  0xbdbc0c89bdd7ab3cU, 0xbedf1c82bf5c75f6U, 0xbe0e27f9bf92ef9cU, 0x3d5a14fd3fc208e9U,
  0x3e473db13f3331c9U, 0x3c411b9bbcdf039fU, 0x3d98adac3d3e5fa8U, 0xbe83b4c03f212175U,
  0x3fa54f34bfa1d337U, 0x3e8fd205409861c1U, 0x3c39ab17bc87ddfcU, 0xbf35c4eebe458295U,
  0xbee49595bf79f83dU, 0xbf5174e1c019aa4cU, 0x3e49aee13fac2bf0U, 0x3dd6adf4bd87dfb9U,
  0xbeff3738be625969U, 0xbf67d5993f887bcbU, 0xbf88a0e83e8f672dU, 0xbe6f1fcd3f8ef4daU,
  0x3e8854fd3e322771U, 0xbdeedc8dbf7f01b6U, 0x3e2f4b903e9db397U, 0x3efc40eebf7ce8dcU,
  0xbd245843bedb33deU, 0xbe09ffaf3b8f1273U, 0xbea4d0a2bcf720acU, 0xbea2fde2be9fa078U,
  0xc057f8bd3d98faf0U, 0xbd2b8dffbfad1ed3U, 0x3ddda81fbd8e23a4U, 0xbf71a42b3dba0d83U,
  0xbf28177dbed875bcU, 0xc029fcaa3de37701U, 0xbe64dee9be8fd1e9U, 0x3dd3e5d4bed9d028U,
  0x3ea375353ebf1357U, 0x3e24b812bf3c602dU, 0xbfd9ae62bf7b1204U, 0x3dc875e93e92911fU,
  0xbd9c16933d885030U, 0xbf46861fbe953f59U, 0x3ec7e3793fcb44d8U, 0x3fa89a8e3e808e7aU,
  0x3da07a173f295e4bU, 0xbdc2e7cdbd4e76ddU, 0x3f03ae31bd903f1eU, 0xbf6aa0c03f10d88aU,
  0x3e0c59f3bf2a9325U, 0x3eeae629bfbbdcf0U, 0x3e50a7dcbdc5e497U, 0xbf477de93e8a7f48U,
  0x3f81b2debf05be88U, 0x3f078ded3f8152bcU, 0xbdc10a3d3e7b89afU, 0x3e6a79efbed7b493U,
  0x3c874ec9beb6cbd1U, 0xbe713909bcf53ea3U, 0xc074f7c4bfd8d7d5U, 0x3d0373d73f02eb1cU,
  0xbde14937bd91fdc1U, 0x3f2ec020bedb4e8dU, 0x3efe9f04bf3d1d5dU, 0x3f80d761bb8673e2U,
  0x3e1b5d4b3f549f08U, 0x3db17e45bd563b52U, 0x3e98ad973f0119e8U, 0x3f2b063dbee7efaaU,
  0xbe2132f03fc7b88aU, 0x3dc208f9403609aeU, 0x3dd2a0f23ca92c3cU, 0xbed55775be033938U,
  0xbe3358f5bdc75691U, 0xc0448bc5c01eb956U, 0xbdc3da01402cf9a1U, 0xbe3211c93e0d5f3dU,
  0xbee953af3ebb7761U, 0xbfd053513ee12c18U, 0x3ea06cd03eadf42cU, 0xbeb07012bf6da11bU,
  0xbd50f8d63dff924aU, 0x3ec0d970be8a27fdU, 0x3f0b81d8beb9f9c4U, 0xbefefc05bfaf42b6U,
  0xbda8e633bf9ac463U, 0x3ced5e433e1b0c9fU, 0xbf0e72803ed457f0U, 0x3f491ebbbf7a81f5U,
  0x3f9c99db3e46dadbU, 0xbdb6d2c7be30dff0U, 0xbd4cdb9dbde6b605U, 0x3edcc55cbef2bcf3U,
  0x3f68762ebe1f994aU, 0x3f0235b83f50cd4cU, 0x3e13e4f53ef217ebU, 0xbdec56dbbcf22b35U,
  0xbf2ad6e5bf143ab8U, 0x3eae5b953d18c071U, 0x3f0f66d0c0304d6dU, 0x3d6c4624405e59ffU,
  0x3d61ba88bd24da39U, 0xbeea35d8bf94ebe7U, 0x3f3bcfde3efb5f5fU, 0x3ecc5fa23f473989U,
  0xbd9e81ddbec7e841U, 0xbd9a2bac3d250d8bU, 0x3fcb96abbeb64b41U, 0xbf95fb023ed3c630U,
  0x3da776b23f537815U, 0x3dfc5e15bef75055U, 0xbcd33256bda8dd96U, 0xbf73ecdfbe2c1b22U,
  0x3cdcdba8bf1c9020U, 0xbfb7d710403f2b16U, 0xbda493e4bfb7e9feU, 0xbd300355bde173cfU,
  0xbecd703a3e06cadaU, 0x3da098cabdeb8f93U, 0x3f2b909ec053441dU, 0xbf36dc4c3fb28a5aU,
  0xbc8bdf6a3c2b29d3U, 0x3e598c02befd6fbdU, 0x3d2f869ebf8040ceU, 0xc00823053f99956cU,
  0xbe5b8dec405b696cU, 0xbe40adbb3da9f356U, 0xbf9acc08be651bbcU, 0xbf1e3b803f822b92U,
  0x3fc656673f714dd0U, 0x3e850f6ebf1f7456U, 0x3e60c9663e2e17dbU, 0xbf1d9beb3cac8ab3U,
  0x3efcef2b3e8c35c8U, 0x403fa95b3ef53ee0U, 0x3d4cd132c03983c8U, 0xbd9981f53daf1e0aU,
  0xbe5126dbbe2dc6cfU, 0x3f368c7ebd8671a5U, 0xc031cc62bf7bee03U, 0x3db5b55e4033c113U,
  0xbddada22bf059b28U, 0x3ee326dbbce46117U, 0xbfb16eb83f13edfeU, 0x401ad2fe3f50b5d6U,
  0x3e4a4ae9bfe38a5aU, 0x3d9eb08f3e608200U, 0xbfe977c43e830d6eU, 0xbfa53279bf56209cU,
  0xbea92d2bbff03a26U, 0x3e7e95af3f112e48U, 0x3e286e62be723cceU, 0x3d321d9fbde5b3dcU,
  0x3f7636eebf408379U, 0xbe34c57f3d0ca41fU, 0x3eb0d2253f9eb869U, 0x3d7f68373d022c65U,
  0x3dae77533bfa305cU, 0x3f30b967bf87b776U, 0xbf4160a2bfba042cU, 0xbec65c23401e2855U,
  0xbdfc60a3be9d0b73U, 0xbf5dfc063ea3cc00U, 0x3f35876a3d9170f9U, 0x3c6bc0f1bd66f580U,
  0xbde3a27abf0faff1U, 0xbd6793a53e927b41U, 0x3f95214d3e005d1eU, 0xbf4bde6d3f4ed99fU,
  0x3ed52f993e47c750U, 0x3e9f45cb3e07a2daU, 0x3e561107bd38d9feU, 0xbee271083e0b3b14U,
  0x3ee90786beaf2c7dU, 0x4012b8703efcf751U, 0xbeb2f4c4bed9935cU, 0x3d2e755e3c8f94a1U,
  0xbf0ed68ebf2d4090U, 0x3eed2bf63f1f1464U, 0x3fc3a41a4008ef89U, 0x3e865543bddba535U,
  0xbe158a82be023896U, 0xbf201eedbf419e02U, 0x3f85e6333f1c5a0aU, 0x3fec51dcbf6bde6eU,
  0x3cf7c4b63fbbe3f9U, 0xbdb03611bbbb9549U, 0xbf363461be95d586U, 0x3f1f925d3e233aaaU,
  0x3f6414efbfaf085fU, 0xbe81784a40112314U, 0x3e87a0b7bc59c3ffU, 0x3eb47f683d5d3ea9U,
  0xbda8caf93e777fb1U, 0xbf5229263f29c10aU, 0x3e3ff3a1406de58aU, 0x3dcf0f673e5ec768U,
  0xbf564fb73e95e7cdU, 0xbf606260bfa50f4bU, 0xbf55bbba3fc76697U, 0x3e0d7f444019ae2eU,
  0x3ded127cbddc1fa0U, 0x3e25fd63bef96096U, 0x3ea3aeacbf09ac2cU, 0x3f922acbbf22c923U,
  0x3e6f7b233f24da73U, 0xbe2558f63d865c8cU, 0xbf0d228abe389123U, 0xbe971e42bea45e94U,
  0x3fd2a14ec0278236U, 0x3e9b7d983fed01bfU, 0xbe04c2163efd6ec1U, 0x3f8469b03e264252U,
  0x3f3082b2bf2e072cU, 0x3f1bd1c1bf874f4eU, 0x3caf461cbf29b53eU, 0xbd319b74bec0fad9U,
  0x3c13dd973e704e28U, 0xbf8d42f53eb92151U, 0xc0100a104009e036U, 0x3e73f486bf27dab1U,
  0xbc879cbd3b03c7afU, 0xbf242f83bf2301b0U, 0xbdf595783e1897dcU, 0xc018cad3be1f5af6U,
  0xbe48d1a13f8b7147U, 0xbe813ba03e297069U, 0xbefd815e3c222d13U, 0x3f1d0d13bf9036cdU,
  0xbf84e46f3f82792aU, 0x3eda2658bf199217U, 0x3c255530bd54c533U, 0x3f0505ef3dcb0b79U,
  0xbf7b24e13eb130f5U, 0xbfdbd3be3f07c7c0U, 0xbe255a58bec323d7U, 0xbdaddd863e541817U,
  0x3ee4b1f03def0913U, 0x3eb83217bfa6f4b1U, 0xc024159c3fa5e0cfU, 0xbea4bce93f88fd2eU,
  0x3d0ce5d93d3996e5U, 0x3eb490a0bec33bfcU, 0x3ee239db3fbdcba5U, 0xbe76bb9a3ece6463U,
  0xbe0b90ae3fda378aU, 0xbe5aa462bdaf8fdbU, 0x3f96148c3d9a241dU, 0xbe10c03d3f6b5c92U,
  0xbf1d20503f05d578U, 0xbda7da7bbf41ad03U, 0xbe1fd3633ea249cfU, 0xbe99043d3cb1e9bcU,
  0x3f13eb943f35fe36U, 0xbf1eec36bf88b041U, 0xbe1d46413f3a891dU, 0xbd0cbd30bebbfc0eU,
  0x3f9fb9de3f006a45U, 0xbf395ebabf6f72ccU, 0xbf843fa8bfcee187U, 0xbf08e32a3dbf02faU,
  0x3d939bcfbdbefcc3U, 0xbe5b7186be3d4c19U, 0xbee9695c3e6f6e97U, 0x3f8a40adc04bbb7eU,
  0xbe55ae29bf2a5d94U, 0xbe9b63c73d028747U, 0x3f09b1733e2ea249U, 0x3f72acff3eb9ae6eU,
  0x3f798c32bf31ea5bU, 0xbf1164453ef46fe2U, 0xbe30a8353e7164d5U, 0x3f598a8bbe2ea5adU,
  0xbed85f9e3f998fb9U, 0xbf9d3ae5bfad7f1cU, 0xbe05e53e40106631U, 0x3dd430bf3e23be84U,
  0xbebdbf52bdd3a792U, 0x3f1bf1b1bedb55ecU, 0xc01de69fbfc9a0f0U, 0xbeba59063fa76639U,
  0xbe94cc5fbe209f5fU, 0xbeaa02d43eaa8f65U, 0xbe73c24c3e5ac7faU, 0x3e307d793e093b47U,
  0xbe30db854029fc29U, 0x3ddad1c2bcccbadeU, 0xbed64280be1621e9U, 0xbedd3fa23e825bbaU,
  0x3f8daa8cbf6a2e00U, 0xbd48c589c015c448U, 0xbe1078423ed40448U, 0xbeb3d59b3e44c6edU,
  0xbf8079a53e1e6867U, 0x3f29200fbfb665faU, 0x3d3e47fabfc4181fU, 0xbd45f7273d2787edU,
  0xbe1f835d3e4a4853U, 0xbd9c07fabe55a561U, 0x3e420d97bdee3b63U, 0x3e0d8151beae333eU,
  0xbd55c06fbeac17d1U, 0xbdf46173be3c1d09U, 0x3e7d1d16bdd800deU, 0x3f2768c2bd98d8daU,
  0x3e0dee42bea7d01cU, 0x3e15b0233eb42b78U, 0x3d31172b3e0df5c6U, 0xbe7e49253e3383b0U,
  0xbe0f79843d6127f9U, 0x3c82bcc0bedc8cffU, 0xbd809b033d9ae721U, 0xbe0c100abed80d73U,
  0xbeb70d65bca511c0U, 0xbf13dcd6bd68e380U, 0xbd4e2ce93e225178U, 0x3f0906c8be15beffU,
  0xbd902774bdb1937eU, 0xbe2726c93d0c5bf3U, 0xbe28afbbbe5ea4f8U, 0x3e9e143cbe2e4fb8U,
  0x3d374da7bdd2f74eU, 0xbdf0130abde06002U, 0xbe2e56fa3e0200aeU, 0xbd90f55dbed063b8U,
  0x3e2d513d3ce61614U, 0x3e7b646e3dedfa21U, 0xbdf8d7c83e647639U, 0xbe59c96e3e15799aU,
  0x3dc97f97bd924b46U, 0xbe256874bea16f67U, 0x3d0a001038642d8dU, 0xbe607aeebe9dcc82U,
  0xbe00f37ebe85a885U, 0xbeab6d66be8b9276U, 0x3e98f3ed3e994d5cU, 0xbe0367bbbd0d0283U,
  0x3e605cf0bea6bd17U, 0x3c52b2043dc28c8dU, 0x3df67e61be7a5cf5U, 0xbeb303ab3dbebe40U,
  0xbee76164be2396efU, 0xbd8ef7b6be1e1c2eU, 0xbe43b425be7fc524U, 0x3e580cafbdca55a5U,
  0xbe7ff8613cdabf1cU, 0xbd1c9ac13e90e22aU, 0xbdd3f72a3e7ebc36U, 0xbed6ccf23e862a3cU,
  0x3e708015bc95b55dU, 0x3e0677e2bd5729e3U, 0xbea7828abe92a878U, 0x3dbd414f3d0b0e50U,
  0xbd2806d43e8d21dfU, 0x3df26978bec32ee6U, 0x3e2ddbca3d5afac3U, 0xbe8de973bea95ec8U,
  0x3ed584dcbe4169c0U, 0x3e7956f9be3c1820U, 0xbd7d76fcbea7eafeU, 0xbe488e7cbdb46247U,
  0x3d9e5edc3d410385U, 0xbd922f25be0fe747U, 0xbe23685dbd91d338U, 0xbe3e9d2cbe68cafcU,
  0xbeb5b709be1eaec7U, 0x3e294d47b985f3e6U, 0x3e692cb5be2a291dU, 0x3ea2e0d0bd8ed56bU,
  0xbe359cabbed1999cU, 0x3dac9826bddfd120U, 0x3ed003c5bdeab96dU, 0xbe91938cbe1c50c2U,
  0x3e3e4951beb4bf2cU, 0x3e986af73ce35d10U, 0xbe91a1b43e4a9fe4U, 0xbe68b8bdbd67e981U,
  0xbe6d455f3e5db5b5U, 0x3e8e5bca3e2acaa8U, 0xbdb5c319bc941e8bU, 0x3e304c1bbc2b0728U,
  0x3c7aee2f3e0c3689U, 0xbe44d414bcd364bdU, 0x3ec628433e3ed5caU, 0xbeab31db3dd088c7U,
  0xbdc52f79be3084baU, 0xbe720b6cbc64394aU, 0xbe5d6c123ea79851U, 0x3e0d1b44be7b344eU,
  0x3e19532abe5b806dU, 0xbe1cdfd33e8a9611U, 0xbd99f2c7be6f475eU, 0x3e1ef7ae3df908a1U,
  0x3c4fa05e3e6f5147U, 0xbe56ad3b3d927184U, 0xbf07724c3e3a92cdU, 0x3dec77e13e0b770fU,
  0x3d6d70db3db5855eU, 0xbe6102fabda731b7U, 0x3de2c1c63dcfe733U, 0xbe05768a3e763cdaU,
  0x3d9add1bbf082cc4U, 0xbec7248ebd1fd7f5U, 0xbea4658c3e144905U, 0xbca68b9c3d9ebe53U,
  0x3e4ec0403e14add6U, 0xbe9b6cb3bd2c40faU, 0x3ea06d66bcae785eU, 0x3d3a16433e76f2d7U,
  0x3d7781ebbc83e00bU, 0x3f091f61bd3915e6U, 0xbeaee8853da2ba99U, 0x3eeb4b0b3dba9ccfU,
  0x3e3138c9be9bd98aU, 0xbef24f663ccde676U, 0xbf120e8c3deb3871U, 0x3e61c2423dd6916eU,
  0xbd6ca4b5bee541cbU, 0x3ed40d49be237c65U, 0xbe69aee3bd23256bU, 0xbc75eb3dbd66ede6U,
  0x3e2a334abe612796U, 0xbdca411fbec444fdU, 0xbed35fb8be01e23bU, 0xbc8d8a2abebacc2cU,
  0x3d18e56c3dbc3958U, 0x3e8313f23e028371U, 0xbe1769c83bd27240U, 0xbe90e449bdf5b60aU,
  0xbd69e1333c7644e3U, 0x3d802f69bdd43393U, 0x3eac95493ea16c11U, 0xbba7f325bb96b0ddU,
  0xbe0c6e97bcf54a67U, 0xbe33ea823df9d34cU, 0xbeb8e3403c06b4d5U, 0xbe19efa5beb069c8U,
  0x3e9561f7be5f1d14U, 0xbdbab671bd8f566dU, 0xbc8df2883d5eb851U, 0xbd83789fbee3f3f0U,
  0x3e17b7323e96f711U, 0xbaf204253d78d7f9U, 0xbd9ee4e4bea5eb3fU, 0x3e1a5dde3d612701U,
  0x3dd5bdc6be1225aaU, 0x3e22bb9a3eed46c8U, 0xbecca6563eaaacaeU, 0xbcb3fafdbc3fdc36U,
  0x3cd105e3bea1c6b3U, 0xbdbdaffe3eadef3dU, 0xbdd93f283e41c1c3U, 0x3dbf2e273e0fac7aU,
  0xbd5c347c3d03cb32U, 0x3e4be3893c9d0c8bU, 0x3e8021d43e7ffafeU, 0x3da869e8bdd82d9eU,
  0xbe8368023e36e54fU, 0xbeeab576beb55ab3U, 0x3d5b66793dfbae68U, 0x3d130e453f1593a5U,
  0xbea988be3f3a43b6U, 0xbe0aa5a0be27244cU, 0xbebb54abbe9ee57fU, 0xbcb656fabdef2c2eU,
  0x3ae632af3e9cee20U, 0x3d7fbe0fbd182447U, 0x3e30d0d6beba0599U, 0xbd916100bd2fe2e7U,
  0x3ec7c6e0bb4c079dU, 0xbd8e37d1beb354ddU, 0xbdea9d233d3862e8U, 0xbe11a5493e2c4f8dU,
  0xbdf9417abdde3456U, 0xbe98e1c3becf6396U, 0x3eaf56cbbe2140faU, 0x3e867c55beff4ea8U,
  0x3e47c6503e89edacU, 0x3d3e52d33e4a211cU, 0xbd5041d33de63dffU, 0xbea6eb623d06e629U,
  0x3d94171e3e82c566U, 0x3df121cfbe4f7c27U, 0xbe5a5fbb3cfe2cfaU, 0x3dd7839fbdc889caU,
  0xbe44478d3cd2e5b8U, 0xbd106be43de22605U, 0x3e12071ebe831babU, 0xbdd52ce13e5e7a97U,
  0xbc54c082bec69e0fU, 0xbe97f24ebeaf8027U, 0xbe23fb96bdc13c97U, 0x3acab0efbc5b5947U,
  0x3e6a3814bed09fe1U, 0x3e122020bd056242U, 0xbe9abb4b3e57ec3aU, 0xbca7d9a53e9183e0U,
  0xbe7a16a93bd704dfU, 0x3e97d133bc51860fU, 0x3d6c14bcbdb6dd0eU, 0xbd944ae63e291db2U,
  0x3dea8fbe3e6693cbU, 0xbdf6996c3e944483U, 0xbdaba3603eefb7dcU, 0xbdf5a310bda4a539U,
  0x3e0af7e43e3dbff7U, 0x3e3565ef3ccc1383U, 0x3e2c7fd5be135392U, 0x3d8d49963d89ae1cU,
  0x3d3f5e85bd18c52dU, 0xbc104cffbdf60f17U, 0x3db473a0be041229U, 0x3dc960bc3d21f37bU,
  0xbecf915dbeb6ce2dU, 0xbc842847be069dd4U, 0xbcdb2f8d3ea20a0cU, 0xbce49da6be6dcbd9U,
  0xbe27a378bdf4c22fU, 0x3cdf9ae13de2d31cU, 0xbe63f29cbdb4134eU, 0xbe2fe7ad3e2399ddU,
  0xbecee157bd728ca2U, 0x3ca8705cbead1a61U, 0xbb98b85fbc88656fU, 0x3d09474f3e31011dU,
  0x3e1f8cbb3b7cd8caU, 0x3bc1e29dbc50f96dU, 0xbe7b0143bd477696U, 0x3ddda3fabd4e0415U,
  0xbe40d6f8be73ee51U, 0xbe773c973dd47f3aU, 0x3d6b29efbe7b20e0U, 0xbe311294bde43a53U,
  0xbcc59bc8be82151aU, 0xbd1d19643d25bb9dU, 0xbe03f7923daef389U, 0x3e8490e63d34461dU,
  0xbd9e82c53e9a43faU, 0xbca97a943d88bffaU, 0xbd4c58093e84d545U, 0x3e3d8c1abe765174U,
  0xbcbddb293eaed48cU, 0xbe3479843e82f998U, 0x3e2b816e3d1db071U, 0x3d89fb433e2d7a42U,
  0xbe2ecded3e15342fU, 0x3edaf1c33d9e0c47U, 0x3e2e48683d72dff9U, 0xbe6641d53dd4f01aU,
  0xbdb17550bd486ecfU, 0x3d1e6e6a3ead3504U, 0xbea0a6c63de0a550U, 0x3e31f6c2be8ede5cU,
  0xbcd895d0bd834cd9U, 0x3dabdc763e7834caU, 0xbe5e35eebddda614U, 0xbd358dacbd220df3U,
  0x3e48eda53e8f55f4U, 0x3c9342b93e09bc15U, 0x3e9b3604be3f652aU, 0x3e8cac073d905cc3U,
  0xbd5172813e536f02U, 0xbf27a1dfbd853e8bU, 0x3e20ef54be6d6286U, 0xbf08f406be062c5bU,
  0xbecea742ba93d9ceU, 0x3e33212bbc92c43dU, 0x3e502acdbda6271cU, 0x3df2810b3d3420f1U,
  0x3d62a538be805f52U, 0x3cf427d2be3f782bU, 0xbebfc33dbe5b1101U, 0xbd4369163e20d672U,
  0x3d77ceb9be1a28aeU, 0x3bb0b8e2be94eea5U, 0xbe028790be080fc8U, 0xbd28b11db8ada097U,
  0x3c68bb34beacd93aU, 0x3e0f36ea3d3e2816U, 0xbdfbe7803c781477U, 0xbd9f15b1bda437f5U,
  0x3c3812f4bcddcfc1U, 0x3e79ed62bde9c39bU, 0xbbc1c52e3db579a1U, 0xbf3f8a2b3e94f503U,
  0x3e8edeadbdfb630bU, 0x3d57caddbe8bd3b3U, 0x3e635ecf3bb215c5U, 0xbe31e6b4be6b79f5U,
  0x3e282b8fbca942bbU, 0xbe51d34dbc0aaa72U, 0x3e190f1b3e51f6cdU, 0xbd3af634bd4aa2c6U,
  0xbb360f8bbe323ca4U, 0xbe801cd4bd921ef0U, 0x3e6475ce3985616dU, 0x3cab7b503e3193abU,
  0x3d1d9eb43cf43e5eU, 0x3e483272beb8ddbaU, 0x3e1602823e32b573U, 0xbe5fa621be244a1aU,
  0x3d2520003e2175d4U, 0x3e029a4f3c084fb3U, 0xbdc38b10bece0eeaU, 0x3d76dafebb8376c9U,
  0x3db338db3de139f7U, 0x3c305292bd8d26deU, 0x3e0793f5bd921f50U, 0xbe3c76933d512ef1U,
  0x3e30497cbea4c7f1U, 0xbe14663a3e04b8ebU, 0xbec3e10fbc807753U, 0x3ca3e2953e3ded29U,
  0x3e08e3f03dca4d38U, 0x3d14ace63db4dbcdU, 0x3df8fb593ded512cU, 0xbe8103cbbea9727fU,
  0xbeac0d64be83063fU, 0x3d92d33abd9f9d8aU, 0xbd7ef2f9be3b5ca5U, 0x3db0ac7d3e8b34a0U,
  0xbb58a86abec38ff3U, 0xbd81da023cb34ee4U, 0xbec8c1183eb762fdU, 0x3e8e23d13d9d52a6U,
  0xbe4c2dce3df58012U, 0xbeb2e089be45a82cU, 0x3e3dabcdbdbb0f1cU, 0xbf2021453e23860dU,
  0x3e163ab8be9904b4U, 0x3d9449e03dd96356U, 0xbce24474bc0da5fbU, 0xbf2eb6f4bcec2665U,
  0x3e1c2341bcabede8U, 0x3d5118d03dd2e352U, 0x3d857211be96aaf1U, 0x3da9e15a3e1c28b7U,
  0x3e0bdd66bd2e81e5U, 0xbec100f4be71514bU, 0x39bce904bcf977c7U, 0xbe261db23df6cbf6U,
  0xbe679d423dfdf54cU, 0x3d0d74a2beb52d4cU, 0x3ef31abdbc0e124cU, 0x3e19203ebd463cb0U,
  0xbbd6a9ac3e7e3c50U, 0xbc4ba0763b93c7eeU, 0xbd6426463c8317b2U, 0x3e20464cbe4a0a53U,
  0x3cced94d3d09112fU, 0x3c6960fdbe716fbbU, 0xbc3d07883e314c65U, 0xbe1e7e72be5a9fe1U,
  0xbebad379bf0ea229U, 0xbdd162d33e5e786dU, 0x3babf3f0be8f618dU, 0xba0ad11ebe937e5dU,
  0xbd1e2e5abdc53d1eU, 0x3e1c3c6bbe310ee1U, 0x3d2a8d88be3a1bb2U, 0xbe03741dbe04cbb8U,
  0x3e3b0dda3ccdb609U, 0x3d4dcdaf3e2b189aU, 0xbe0ac8183e7c7928U, 0xbbf9fd993dff2a7eU,
  0x3e8a89c33dd13129U, 0xbdd77b253c381859U, 0xbd4bbfa6bf499ca0U, 0xbe1000ab3bb8a486U,
  0xbd3c2a34bd8f2c3dU, 0xbe11a86fbe959910U, 0xbdcbbd033d29aeb2U, 0xbe86100e3cbe975dU,
  0xbd8bc1763c80d23cU, 0xbe6c1604bdbbfbb4U, 0x3d8afd503df9740cU, 0x3dca4d1ebe7a0867U,
  0xbe456db5bdde0cc2U, 0xbebdb42ebd93eefaU, 0xbd96c58bbcd23475U, 0x3dea7e3cbd83e3abU,
  0x3db7337ebd059b7eU, 0x3e25f15ebdcde592U, 0xbede8074beaa1906U, 0x3dc57183be28a683U,
  0xbd867360bdfd7a01U, 0x3dbd7f53be78e56bU, 0x3e56e489be0547d3U, 0x3d55f0423d935b95U,
  0xbe2ffb693ec17c84U, 0xbdd27a143e858184U, 0xbe8b6578bd222762U, 0xbf4b8d39bdd2a7b5U,
  0x3d7803b03df5ca15U, 0xbe83d1ef3c9785d0U, 0x3df70821be13e713U, 0x3e32c17f3df139beU,
  0xbdc874063e429ebaU, 0x3e189d393dc8c703U, 0x3cbb6ebebd40f1c6U, 0xbc9bd5393c6f24d2U,
  0xbe313174be85887bU, 0xbe2dd68a3e05b0daU, 0x3e7fd6f0bea010c2U, 0x3b9a1b92beae1017U,
  0x3eefeea7be8610aeU, 0xbeb169df3e825199U, 0xbe21aa853e2be369U, 0x3dafc92f3ea42bf9U,
  0x3e9e9bd63ea8891fU, 0xbd1afc503e55ec34U, 0x3e93ceba3bf548bcU, 0x3dbf59073f0676e2U,
  0xbea350013e89ccabU, 0xbdab0be33e3d8a37U, 0x3e8f757abf08cfd8U, 0x3e648ce6bef7485bU,
  0xbe30845a3eca1f4bU, 0xbeebdf1fbdcb102fU, 0x3e133f1d3e18dd7fU, 0x3edf9525be1ef4d4U,
  0xbd46f4913dd789a2U, 0x3c81d35d3ec24988U, 0x3c582d443e524e2cU, 0x3b35c4ce3ec3e875U,
  0x3d801cdd3d1085b9U, 0x3be65bc73ea2f6eaU, 0xbb1106013d41c5a6U, 0x3de836e13d20341fU,
  0xbdf7775bbed193bbU, 0x3d86c4e4be840952U, 0x3e0a76c93dd333cbU, 0x3e81d107be39abbbU,
  0x3ec513c4bf06f98eU, 0x3dcdacb7bbd0ec95U, 0x3dea2f993ea2fb6cU, 0x3d0dffd5bd0f2d53U,
  0xbe2d06623f2234f7U, 0xbd851e5c3d0acb59U, 0x3f2144e3be29a3feU, 0x3dbc26063d706b61U,
  0x3d6be2abbcd35c52U, 0xbbf7c792bdd7b7f5U, 0x3db8090a3d8ba8acU, 0x3eb4bd633e8be3e1U,
  0x3ec417cdbf2b87feU, 0xbcae1c963e1443acU, 0xbed7d0bf3e0b9baaU, 0x3e070b413eefbed2U,
  0x3e4c66f93e103cf4U, 0xbf6918f33d176386U, 0x3e61f7b93e8834a1U, 0x3e174fbd3f06f7a5U,
  0x3e468ed13d9f05a6U, 0xbc91edcf3e966b6dU, 0x3d78c5bfbef81ba8U, 0x3e364e113e80ff7eU,
  0x3ecc2826be37222dU, 0x3cea5eb6be9dab25U, 0x3ea126f6bea2d3ebU, 0x3edb41063edf98beU,
  0x3d381cab3df4b097U, 0x3ec2c6fd3ead399bU, 0x3e19297f3d24d7c5U, 0x3e6b51af3e0ee6d9U,
  0x3e66ef043ee4f642U, 0xbc993957bd4cb021U, 0x3e9e5cd4bdf83e27U, 0x3e0777223e9721b6U,
  0x3e827211beb4b8c4U, 0xbf046aba3ad70697U, 0xbe8094703e16c666U, 0xbe1dde44bdea50f9U,
  0x3dd2a8d73dea6034U, 0x3eb1446f3e3b0ea2U, 0xbe40930a3ee485b4U, 0xbedae05bbca5d398U,
  0x3edd53f63e450b83U, 0x3ed64309bec1e34aU, 0x3dc44c0a3ea03d2dU, 0xbcc83f723e6496d3U,
  0xbdb63e73bd123c98U, 0x3db40a16bc8c7c33U, 0x3ea36f5e3ec05494U, 0x3e8785e0be154fc0U,
  0xbe1b916a3e803ae0U, 0xb98359f83e4796f8U, 0x3bffb63f3dcfd4c0U, 0x3dc715153efc893fU,
  0x3cf94af03e90390dU, 0x3e6ab5aabf1025a0U, 0x3e8bf6c43e8db6a2U, 0x3e2762e33e3d2d06U,
  0x3e6011a1bf22d02aU, 0x3f4ad099bed9dd23U, 0x3ed4f0fc3dd1a02eU, 0x3e6d7e08becd490cU,
  0xbeb48ff4bd3c0768U, 0x3c0e3c063e922876U, 0xbec30a953e65ae12U, 0xbe3ea5163e042d6dU,
  0x3ddbde7bbd36a89dU, 0x3eb88ee3beee046dU, 0x3e5f8994be9bebf6U, 0xbee493983f043b97U,
  0xbe7feddabe6423a8U, 0x3ea21a4f3e7f46ebU, 0xbde8a4edbc87deeeU, 0xbea2ee6abd72ad94U,
  0xbe17d38ebd13a0b6U, 0x3e7417823ec61331U, 0x3d273563bee2951aU, 0x3e25966b3e1c5f10U,
  0xbde1e4ef3f03fa26U, 0x3e1bfdc1be7dcaacU, 0x3dabb66ebf577179U, 0xbe57a0e83f110231U,
  0x3e4ee1413cf2f610U, 0xbdb462e93ea1b2a8U, 0x3e1d80913e2a3aecU, 0xbc3cfe3f3e369caaU,
  0x3e53b0ddbdfb0375U, 0x3ee5f1e43dedb48fU, 0xbe94353dbcb192b3U, 0x3e7e765e3ea1694eU,
  0xbe4962643c261e36U, 0xbe4e8e1cbd93ae52U, 0x3e9d4007bd8e8b3bU, 0x3dcecf59bec42c3dU,
  0x3d8f0b20be8645aeU, 0xbe035ba83e0bd580U, 0xbdd071183e022c09U, 0x3ebacadb3eb8bd07U,
  0xbcf9512e3e281672U, 0x3ebf7c5abef6f78eU, 0x3e88e8eebdb3c646U, 0x3e1a0b1ebc97a68fU,
  0xbcc803693e62055dU, 0xbd74ae1dbe983cc6U, 0xbdbc45343dedc9a7U, 0xbe55185abf43e50dU,
  0x3ed81c1e3e648ea8U, 0x3e76f2843dd45ad6U, 0xbc82c47c3e325fc9U, 0x3ea5d96d3de8cb13U,
  0x3cb47982bf1549c3U, 0x3dbfa36bbe6d43aeU, 0x3e7592633e41169cU, 0xbe496b593ed7e488U,
  0x3ea8fd1abe0a9f6bU, 0x3f1502fc3f43d3e5U, 0x3daa73563e6722e8U, 0xbc3dada63e4d52a1U,
  0xbc506ddbbdf64fd6U, 0x3ea8fe183db0be67U, 0xbd6609e93f077933U, 0xbe10333b3f72afafU,
  0xbea27ad5be4791b3U, 0xbd30d3613e0c4de3U, 0xbf5527a3bf38cbc0U, 0x3e32ee79bf2da414U,
  0xbde0c97b3e0752feU, 0x3ee098d53e56e0ebU, 0x3c81258d3daedcacU, 0xbde31b2bbe9adea8U,
  0x3daa650b3edc5639U, 0xbd012b353dc94adbU, 0x3ed81fd63e302747U, 0x3e49ed41be346e45U,
  0x3ee7a5f4be42127aU, 0x3e816a70bef4ec37U, 0x3e5985383db5f2e2U, 0xbe631e8fbdcea60aU,
  0x3f1961543d1aaa1cU, 0x3e5c082c3e56b377U, 0x3ca790a7bedb3c44U, 0xbd8fd9373ded116bU,
  0xbed8ada3bef4f373U, 0x3ea90d123cd19a93U, 0x3e4553f83e84dc88U, 0x3ee025bdbd9069c8U,
  0x3cb785a03ecde1b9U, 0xbe14b6a53dc7cd30U, 0x3e380fbd3e2c72cbU, 0x3c29ba353da93061U,
  0xbec81f203f1a23beU, 0x3dfd8e373d73d0a1U, 0xbddd3f003ecc845bU, 0x3f27491b39fbf513U,
  0x3efb4800be53b1ceU, 0xbf39c47b3d247881U, 0x3e48a7243df74a6bU, 0x3d76aa3b3e04a7ddU,
  0x3d380c2abd767ba6U, 0xbd7b39eb3f07ba48U, 0x3d978ffa3e399257U, 0x3d904cd9beece246U,
  0xbda7ae663d3b5556U, 0xbe54f4bd3e728d05U, 0x3ea9a6993d168a84U, 0xbc5d79b8beab137aU,
  0x3e41333c3e8fa9afU, 0x3d79e0aa3d058461U, 0xbefb67b03e0c5c0dU, 0xbf5027fe3ea6176aU,
  0xbf43dc22bdc326dfU, 0x3e54fa39bd981460U, 0x3d847b1d3e252a37U, 0x3dd8473abea2e69eU,
  0xbd987ad03f120e3fU, 0xbeb4e185be4755aeU, 0xbeae2fef3e37b697U, 0xbf093bd2bea26785U,
  0x3eb90abe3eaf6694U, 0x3e94bc1a3e447f8bU, 0xbf5acbf53f29b83aU, 0x3d6ddda63e885388U,
  0x3d18ae383ea56e78U, 0xbeefa7753da1e0ffU, 0x3e39d2d1be817257U, 0x3e9a07ee3ea00575U,
  0x3eb0be35bdad2bf6U, 0xbf45017abcee6251U, 0xbdcd1afe3eefab80U, 0xbe86ea313cd59a5bU,
  0x3ef7f47abeaa0c18U, 0x3e3bd6403e4adb97U, 0xbd7b4413be8bb2c3U, 0xbdbbc01d3dfa8a58U,
  0x3dba8c88bd789177U, 0x3dbf1dfabec3d6a7U, 0xbf6c1fb8bd3dfcffU, 0x3e66dabf3eb225c9U,
  0x3d02656bbdbe9ffeU, 0xbe3829d03df72cadU, 0xbe145884be826e99U, 0x3d6a46333daf626dU,
  0x3bdcf853bcd06fe2U, 0xbdd2a312bab51356U, 0xbebe39d6be7f64beU, 0xbdfd7625bef0e154U,
  0xbedcfc2cbe152e81U, 0x3f03b962be9e4ddbU, 0x3ebd45d33ec6da39U, 0xbe127b31bf11b7a7U,
  0xbed3f1d2bd724464U, 0xbf0054fcbec58e48U, 0xbe141a433e8dbb47U, 0xbdf123f1be0d8b01U,
  0x3e3beb033e1f444cU, 0x3d6aab1cbe6dd22cU, 0x3e29444d3e9c9008U, 0x3e1c4cd13e483d22U,
  0x3e2542ddbe886726U, 0x3e8037803e5896c3U, 0xbd190cbd3e635bb8U, 0x3e64d122bf05d113U,
  0xbea6a1fb3e5ad4faU, 0xbe3a50833dde60daU, 0xbe48842d3f0342a7U, 0x3e242acebe9b2eacU,
  0xbe2e4304be02a06fU, 0x3d1aecd23f0bfc22U, 0xbe6cee07be53a86dU, 0x3e9ed549be064802U,
  0x3ef3a74fbe3a7da9U, 0xbe0ebc55be80bb1aU, 0xbe1a61f93d85437eU, 0xbbf663583e1239f0U,
  0x3e78d056bef1e1f5U, 0x3c757075bea05d66U, 0x3b8803f7be5a9f59U, 0xbcaeddebbe5fdae4U,
  0x3d86acb9bea4b33aU, 0xbe0ae5383db98940U, 0x3e50525ebe6843e5U, 0x3e988d463dc32b7dU,
  0xbf0fae7e3d2c4f23U, 0xbe971781bd4e3e16U, 0x3db1508f3e4faad1U, 0xbd8708953eb8f87bU,
  0xbdebaa753e35a82dU, 0xbf11fff53e54ea43U, 0x3e5b61fcbee46625U, 0x3dd2a5fe3ccf783aU,
  0x3e0f6720be261413U, 0xbf36381c3ee71428U, 0xbd230fb4bea2101cU, 0xbeeb07f93e52dae4U,
  0xbed23d0ebe113cecU, 0xbd17b4343c0a7b50U, 0xbd6a3321be5ff0e5U, 0xbe85eac03d837597U,
  0xbeda5f79bc0e0ad6U, 0x3e8bd2cf3ee971d5U, 0x3de1785f3d3526daU, 0xbe60115dbd83817fU,
  0x3e9b1e373ecb0118U, 0xbeda1fd03e129316U, 0xbe0af67cbf04d05bU, 0x3d621cb63cfb5876U,
  0x3e9cdf613cfc0f46U, 0x3e5d2709bdf23056U, 0xbd6eaf513e3f816aU, 0xbddf2181bd281077U,
  0xbd8035b2be3aae83U, 0x3ea41a4b3cfc8936U, 0xbf1d483e3ef1659dU, 0x3e80b0c73eb6f8e9U,
  0x3d48975f3d265f96U, 0x3deeede63cb84015U, 0x3e86e19d3eba130dU, 0xbb11cdbbbe092ca8U,
  0x3d458d49bd91db94U, 0x3d881b50be207bffU, 0xbd97d1cd3e89be26U, 0x3ca9059c3d0e68a2U,
  0xbe558c283ef70e95U, 0x3dde163d3d93a4a4U, 0x3e30d1a63e5b669fU, 0xbea54d783e059278U,
  0x3eb8e6503d8524abU, 0x3daff33c3ed40a9eU, 0xbd5b0c943ef9fbb9U, 0xbefe41823e92c320U,
  0x3e40b6f0beb7b103U, 0x3ebdf15c3d8a5b28U, 0x3d72a377bedd6fb8U, 0x3ea2d9f93eaba9ceU,
  0x3e9d4b663e935211U, 0xbe8ebeec3e74e77fU, 0x3ec2872b3edbc264U, 0x3de4c644bdd9ccc2U,
  0xbdb0eaaf3c9bae72U, 0x3ccc150a3d91f495U, 0x3eaa3548bf25effbU, 0x3ea3572abd9a5d5aU,
  0x3ce4d148bbc41e2cU, 0xbebbd27e3e40b392U, 0x3ddea6703f06687aU, 0xbe234e323dacffb2U,
  0xbd91e812bbc1ce5fU, 0x3eb486ee3dd9a24cU, 0xbcd75fffbe079ac9U, 0xbec5ebb03ed081ccU,
  0x3e342f7dbdb74e6aU, 0xbdb2e198be5f55e1U, 0x3dea9af63d2152ffU, 0xbe3fada0bd212872U,
  0x3f35aa36be244551U, 0xbe2913973c4179f5U, 0x3d814e01bdc8bc28U, 0xbdddad873e5fa1d7U,
  0xbf4d8d27beb6b90aU, 0xbdfd38f8be515d95U, 0x3d1af02e3ee401dbU, 0xbe34c983bd9e8f52U,
  0x3ec863be3ef2f982U, 0x3ed66f90bf0d4db1U, 0x3ddef2f03e802e1aU, 0xbebc9865bd37c871U,
  0xbf910ac73e4ee1fcU, 0x3ec28d21bdddc6fbU, 0xbe64a2553e8e9b4bU, 0x3dbb2213bcceb3a8U,
  0x3e9647c4be8082efU, 0x3dee50a7beb96008U, 0xbe9da3df3e907cb8U, 0xbe24471dbf238953U,
  0xbe45b10a3ee95ff3U, 0xbe0d27a9be249d46U, 0xbe00182ebec5325dU, 0x3e3e43553e13f3e1U,
  0xbf2a75883cd98678U, 0xbeb962b2bf539655U, 0x3b87497f3dad5f0aU, 0xbd3af944befff45eU,
  0x3e19e744beb14599U, 0xbe53884ebeb2a21bU, 0xbdc27b173e86e7b3U, 0xbd8e25aa3e7ef0cfU,
  0xbd76a4833e46865bU, 0x3e66e378bede00e5U, 0x3dbc93c13e9e8cadU, 0xbd29e1e23c9d113aU,
  0x3ae05dcf3d78f8aeU, 0xbe7eac183e71357dU, 0xbda0af60be3411c7U, 0xbf59e224be496f3cU,
  0x3ea3aa8bbe1acb45U, 0xbeb1b89dbe6a2af4U, 0xbe273cf23e216eafU, 0xbe036270bd8abee2U,
  0x3c345bce3b887677U, 0xbf01b7a43e9b9f16U, 0xbf1393f93e495475U, 0xbeb8e051b98e76acU,
  0x3eac1a3f3f11df3cU, 0x3d98b8573e0b1c5fU, 0xbf2015533eb745f4U, 0x3e7aceae3d2f13cfU,
  0xbf8bf5873e2d7355U, 0x3f0f79433f008ff5U, 0x3e539c783e825391U, 0xbda4ece73e1464dbU,
  0xbe872e123d81b6f5U, 0x3e87a083bf02d4a1U, 0xbda6766fbf0005f4U, 0x3e09556c3f0c8d74U,
  0xbeb2636fbdc8b1f6U, 0xbea213bb3f0acd6aU, 0x3ecebd00bf0047c7U, 0xbc0ebf903f441efaU,
  0x3e7c60423e37aecaU, 0xbd84b4023e3f011bU, 0xbd1dae4ebf055c0aU, 0x3e1e4d53bef8775dU,
  0x3d3261b2bf260f41U, 0x3e3c9f6abefad390U, 0x3ea3328bbdb709a7U, 0x3de471f0bf94f83eU,
  0xbd112f403ef2c585U, 0x3e9badccbe44c8e9U, 0xbf06976e3ead90ceU, 0x3ec48dba3ee88635U,
  0xbe617c60bd4d4ebeU, 0xbf21ebafbd3d0333U, 0xbc5ba9a1bed70c90U, 0x3f04b2613f44b710U,
  0xbef5f022be8c965bU, 0xbe9815153dc81aafU, 0x3f2dab7f3e27dc80U, 0xbdfc5019be21632fU,
  0x3dfb025abebff523U, 0x3d0f1d27beb3e246U, 0xbf1a84bfbe9da117U, 0xbde20ec73e5a73e3U,
  0xbcd792f83e019e9aU, 0xbcce8641becd5e4cU, 0x3e58d60f3e03570cU, 0xbf19f49d3eb6acaeU,
  0xbde79fcabf2b4eaaU, 0xbea7bd6dbe57b410U, 0xbcadacbf3ebd3746U, 0x3d8560d6be803aa0U,
  0xbb92ead5be4e6944U, 0x3eeeeb5c3ed02c1cU, 0xbe61c6793df8a121U, 0x3e2832783e9cf519U,
  0x3c876562be31ac06U, 0xbe897cb33e0080beU, 0x3b34bfe2be29e0b3U, 0x3dbe24543e9580f3U,
  0x3ec05f38be8cdecbU, 0x3ecdc4babd9c579bU, 0xbec6c3a53df8dbf0U, 0x3d7f3c7abea065d2U,
  0xbcb727bbbf251ad1U, 0x3e08fddcbd3b8e3cU, 0xbe06ab3c3ed65c89U, 0x3d89df853edfc83aU,
  0x3ea498eb3ea973b8U, 0xbe020f94be985815U, 0x3d496782bdb33afeU, 0xbd8c3485be46e481U,
  0x3e625e4dbe061d36U, 0x3ed6c3633e45952fU, 0x3dc659e1bdc4f48bU, 0xbf152d2d3ee680deU,
  0x3f15e134be020d7fU, 0xbde9ae63bc189e26U, 0xbe0acb5e3cd5dedaU, 0xbc01057ebde927cbU,
  0x3c98823e3e794243U, 0xbe409f1a3dac3528U, 0x3da82708bf1203deU, 0xbf41c86b3dbe0df1U,
  0x3ecb23c0be44dc28U, 0xbe48a5cb3ebcd349U, 0xbdcb87f4bd3aceefU, 0xbe9d07eebdf25844U,
  0xbe03b799bed9f2d9U, 0x3d540a1bbe4d3295U, 0x3df223ce3d334d42U, 0x3d09cef73e0d61d4U,
  0xbe132e293eb8d10cU, 0x3e6d70873e7a0a30U, 0x3ee7ef123e58a4c4U, 0xbf132307bea9d1c5U,
  0x3ead1d533f084742U, 0x3ec6ff26be3bc15fU, 0xbede181c3e02af67U, 0xbe015c9ebcfb47bcU,
  0x3d80ccca3da6fda6U, 0xbc99f4c63eedbe54U, 0xbe2a2c06bf2a7793U, 0xbe4f6e4c3edf6f47U,
  0x3e073b9b3eaee7bfU, 0x3e289d7a3be32330U, 0x3dbb0c393e766f7dU, 0xbb89ccc5bf2a4f0bU,
  0xbd0086a33e25ef86U, 0xbddeecd03e703da3U, 0x3da5ee0b3e313f64U, 0xbe38801d3f32d765U,
  0xbbd5b3623e580e81U, 0x3ed4bf5b3ea1d043U, 0x3ddbfc243e540b0cU, 0xbe7edaacbf68c6daU,
  0x3a4960ccbe44cc98U, 0xbe919fd4be0b89c5U, 0xbe83679bbee91c7fU, 0xbeac3a993d0984ceU,
  0xbf5c0c8f3e940796U, 0x3e1bec3d3f30441fU, 0xbf27fd0ebddf09a4U, 0x3ddb13fd3d1f7c40U,
  0x3f02bcbcbd0c6d55U, 0xbf7a4c41beab0909U, 0x3df910363def8e3dU, 0xbba76a853e8c0b92U,
  0xbf4142f33f11b6d1U, 0xbde1e17abefd8802U, 0x8005c08e3e5166bdU, 0x3e3839a63e9665aeU,
  0x3dda67acbe8a5c1eU, 0xbf3276753d05c4fcU, 0x3ef5ff043e469f74U, 0xbebc3529bd8ee1e4U,
  0xbe9890373ca7f973U, 0xbde972ab39ab6e79U, 0xbf0197703dc15fa9U, 0xbf1810823d05ed12U,
  0x3ddbfdedbec0dc01U, 0x3ea5fb663c0ef76bU, 0xbe914597bea1e497U, 0x3dbfe7d0bf02f191U,
  0x3ea5874ebe73ab4cU, 0xbf51b5c03c1ac9c9U, 0xbdecf1ab3e2a68c4U, 0xbd8986afbecd096bU,
  0x3d2cee45bd1e1dacU, 0x3e16e7a73c62a290U, 0xbe6526b8beeed319U, 0xbec236d43e77f3f0U,
  0x3c4b64603e97b185U, 0xbeb86ca5be90a87fU, 0x3d2a4f8bbf0b24feU, 0x3dc03f2cbed1a2e6U,
  0x3dcbf6083ddd7a93U, 0x3e195b03be486909U, 0xbee86175bf22b217U, 0xbe16af27be008ecdU,
  0xbd4890b63e194311U, 0x3e7701ee3e78d504U, 0xbeb73115bbc966b2U, 0x6fc083e4dc376U,
  0xbd908d053c04d718U, 0xbf096161be77c25aU, 0x3d528683beb86702U, 0x3e8bcf06bf22580eU,
  0x3e807ad4bdf3b128U, 0x3f2442063df66019U, 0x3ee8e61f3e8c8ec7U, 0x3e566d483dfa0696U,
  0x3e13aa0ebe8a3881U, 0x3cb0ca883e0f0d88U, 0xbea6c7d03ea6ac80U, 0xbe1c54cb3d2503b1U,
  0xbf366f86bf0de08eU, 0x3ec54db73d9fbd2eU, 0xbe93ee713d842f4dU, 0x3eabfb8dbf57fc7dU,
  0xbe225a46be212e1cU, 0xbf0dbf39be024da9U, 0xbee4d048be8fd6cbU, 0xbd14f0903dacc352U,
  0xbebc9e12bef98522U, 0x3da05f2ebd960eecU, 0xbf872aeb3ec59c08U, 0x3e88fcc8bdec74c1U,
  0xbe97d70cbec6b317U, 0x3c95eeb1beea6fa7U, 0x3e6f19463f0ffec6U, 0x3e3c2d56be54e4aeU,
  0xbeb80140bdea01ccU, 0xbeff0a0fbec8db4eU, 0xbed1ef213ae7ebdbU, 0x3e858e4cbf277694U,
  0xbf12e0a9be39a125U, 0xbd9a7ace3efee2dbU, 0xbdc6a4233e89664aU, 0xbeac7532be8b516aU,
  0xbe91dcd33e9c0989U, 0xbf133f9f3dfb3585U, 0xbdfbf6d6be259e10U, 0xbeb99634bd9801c0U,
  0x3bcd054bbde0e178U, 0x3d1e15f43e063356U, 0xbe8d2ffabe6f372fU, 0xbf88a1193f199274U,
  0x3c1e3cb33d3936cbU, 0x3d6189123f29ae20U, 0xbedfe8ad3f7244c9U, 0x3ddd233e3e7b194dU,
  0xbf05a8c53e897cafU, 0xbeb8b6033e6f2958U, 0xbe6dd168bef09255U, 0x3f3c2e83bf631948U,
  0xbd6c6a123db9e2cdU, 0xbccf9d4bbe1c5840U, 0x3e46cfb3bc1c7b41U, 0x3e95bb9f3ec4b7f7U,
  0xbdd651cebe21c24eU, 0x3e29bb50bc9f3605U, 0xbe14e70b3df34087U, 0xbe4f50e23dbbbe29U,
  0xbed4f589b9734d20U, 0x3d4d9631be143003U, 0xbed23da63d8d25faU, 0x3ecacf52be1f583cU,
  0x3d6e84553e1c2e43U, 0x3e9a7bfe3c9c9ce0U, 0xbeea33bfbe4bff87U, 0x3d47b8633ef6e50fU,
  0xbec509a83e0c8f14U, 0xbea41c433dbedaedU, 0xbe606e713ec84241U, 0x3e95bfd6bca4a13aU,
  0x3d34c4333ca00552U, 0x3e7351203f0a9172U, 0x3cadc70e3e6bee60U, 0xbe17694ebf0554efU,
  0xbe9f5dee3f3dac22U, 0xbda47c203e1803d4U, 0xbd41878abe09dc76U, 0xbf0dec423dd1351bU,
  0xbe344a613e4b6aa4U, 0x3ec12e22bf2fd1b6U, 0xbf0c31e53df0b982U, 0xbe85e383be65a3d6U,
  0x3e559b5fbe9f090aU, 0x3ea4b0723da5fa7aU, 0x3ed3a9f5becfc57cU, 0x3e6f21c63f042082U,
  0x3e9ef1ce3e28a57aU, 0x3c9fbd263e7a6cd9U, 0xbd1f41c4be88d775U, 0xbd3fd91f3c9078b5U,
  0x3e030bc0be59db02U, 0xbd88544abf430c8fU, 0xbe629ae2be5e14eaU, 0x3e9b61c1be795664U,
  0xbbb866d6be6081b5U, 0xbe3ce1a63e1454bdU, 0xbf1536a7be8e9616U, 0x3ea81d05be491eb4U,
  0xbeab039e3e932a8fU, 0xbe8581633ec244dbU, 0x3e6d452a3e8c57f6U, 0xbedeed97bee3d87eU,
  0x3daac87f3e355f2cU, 0xbe9dab7a3d7dbc13U, 0x3ee8a65fbd9b296dU, 0xbe25a37bbda0d32cU,
  0xbe6124aa3c476b50U, 0x3ec2d51cbecf528bU, 0x3c3a1d323de9617dU, 0xbe0de4623e8f72f8U,
  0x3f719b1cbe2892e4U, 0xbd8906cfbe599cb5U, 0x3e2bd4393d9f61c1U, 0xbea8b71d3d2d34f1U,
  0x3ec3ff053ebe5d49U, 0x3c0a13b43b3b5aa8U, 0xbe1e6aefbe8f7a35U, 0xbf2581bf3dda803fU,
  0x3e53d256be4c4e1aU, 0xbed24a233e8d1d63U, 0xbf8163293f153c5aU, 0xbf084e1a3c9905e9U,
  0x3de3e487bf2f0d52U, 0x3ce66e553eadd44dU, 0x3e94c19a3e17abfcU, 0x3dfa0bdf3e45c650U,
  0x3ee07182be51d8c4U, 0x3f020e543de4dc4bU, 0x3dd67ed33f4ebe12U, 0xbf1728663c032708U,
  0xbc8e76b3be7a9747U, 0xbe881e583ebee4e9U, 0x3db1567e3ea9f557U, 0xbf536c9dbe07c22aU,
  0x3ee0b6883e0726daU, 0x3eb36642beb89326U, 0x3e47af523e6e1231U, 0xbe07cd5fbdbac6c2U,
  0xbec73c99bc269962U, 0x3f2d5906be974cbcU, 0xbf28d4cabe6679f0U, 0x3eec43bfbde23c9dU,
  0xbe4ccbef3f361b38U, 0x3c00054abec26cd0U, 0xbed8d7efbf442214U, 0x3de7554f3e0ed833U,
  0xbef1eaa5be593feaU, 0x3d014eeebf33c530U, 0x3f194374bdda303bU, 0xbe8f128bbe9bf6ffU,
  0xbf22acbcbf28695aU, 0xbd82aa3c3ce7fba2U, 0xbdaab8b4bf2ec78bU, 0xbf07c42bbee6e976U,
  0x3ed7add6bf06538bU, 0x3e870f2b3ea76661U, 0xbe41f534bf4cb5edU, 0xbe3c8faabf754075U,
  0x3e07e0eabeedfa57U, 0xbe7857f13dff6bd8U, 0xbd9fc6423ea5bdbdU, 0x3dcc5a0abde24b0cU,
  0xbe952407bf243db9U, 0xbeafb9fdbf8adc00U, 0xbbe650893daec84cU, 0xbf016dc63e50377cU,
  0xbe40e73f3ca01643U, 0xbe2ab557bec3b36fU, 0x3f52201a3e81dccdU, 0x3dab5e3bbf9dee02U,
  0xbde62d793b0f14c9U, 0x3e73c0ccbdaf20beU, 0xbe9b4911bec6dbbaU, 0x3f239c2b3f5c1047U,
  0x3de7f694bd23cceeU, 0x3e51f4a5be5b066fU, 0x3e95d8adbe1807b9U, 0x3e995e403e2df38eU,
  0xbf0f26643e3e11e8U, 0xbdc629893f05ceacU, 0x3ca872a0bea92d9cU, 0xbf0f6fc13cfa09c1U,
  0xbd836f37be962fa0U, 0xbdb093b03e47d3f7U, 0x3dc10805bdf46f2eU, 0x3dfb6a1e3f393eefU,
  0x3f0d0f0c3c0031e9U, 0x3e80f951bee9b37aU, 0x3e26edd1bf7c1108U, 0x3d8c8c0fbf2b3dc3U,
  0x3b8bf60d3eb9aa83U, 0x3e87227d3eb0ef3cU, 0xbd44961cbe9c1102U, 0x3dccf5a1bf249d57U,
  0xbf38434cbed2ffa1U, 0x3d934cad3f2cf4d7U, 0xbc0dcedebf2f3e44U, 0xbccae00c3db5d5efU,
  0x3d7a71393eb8c596U, 0x3ce970563f6d3f3dU, 0x3e5278d0bde69675U, 0xbe50d8eabe111d8dU,
  0xbcc95883be9faee0U, 0xbe4784883da8d1b5U, 0xbd5baba83eba2d1dU, 0x3da98b8fbf3537dbU,
  0x3eef71193db62a2bU, 0xbe1036c73da6e683U, 0xbee61ffa3d955e73U, 0xbdd6c984bedd7263U,
  0x3d46dfbebec05a23U, 0x3f0631a80006cac8U, 0xbeb27a0bbd7dddd7U, 0xbebec121bed51ce2U,
  0xbe54ed34bc8282ebU, 0xbf31acf33e2ae81dU, 0xbe9b1920bb195a1cU, 0x3ebedfd43ee7d8b3U,
  0x3e6100c73e47eef2U, 0xbe906e41bea072ceU, 0xbec422ab3e065498U, 0x3f1c57d13e166ec8U,
  0x3efee4febf86fbb9U, 0xbcfd0df93eac6c3cU, 0x3e7d969ebd82453fU, 0x3efffcf1be404f22U,
  0x3f2238693eac5ad7U, 0xbe38ca393f12b86aU, 0xbe4585893d82a752U, 0xbd7006e43cd1c854U,
  0xbe622035bf343d17U, 0xbd69e9c7be863c13U, 0xbe91f5b0be059bbcU, 0x3f1a61d83e1f00cbU,
  0xbe27be6f3e9b4906U, 0xbf061a933eed174eU, 0x3eb0ee94bea1d0f4U, 0x3e3723133e5dda66U,
  0x3e7a21b1be1c78b7U, 0xbf34d9173e200872U, 0xbeb0b2a1be504d7fU, 0x3cc49653bd7715aaU,
  0x3dfbb692bee828b1U, 0x3e058175bef1d07bU, 0x3d8537243f02b6c2U, 0xbeb2f47dbe88e127U,
  0xbcaa15703eac3cbeU, 0xbda1710d3cf3e32eU, 0xbeb70b003e2a6e76U, 0xbd883ac9be49f4c1U,
  0x3eb0ef29bf21ec08U, 0xbe82cfb9baea1a39U, 0x3f345974be62e695U, 0x3e7a9f383e8f6daaU,
  0x3e1c02e63e6a113fU, 0xbefa7b103e86c721U, 0xbf0fcefabe624a1fU, 0x3a8ea33f3d069477U,
  0xbf1c9bfebe462ccfU, 0xbe053745be5201aeU, 0x3e8b1f31be823c8aU, 0xbe6a7e63be0327b3U,
  0xbce20d29bf401088U, 0x3d830e08bddc5ffbU, 0xbdd867a93bee044cU, 0xbcd3ce7e3e9117d8U,
  0xbefddc6cbdfb5774U, 0x3cda4fd0bea9a91dU, 0x3e5c959fbdb4c416U, 0xbea77b11be8b6761U,
  0x3d31494a3e3e532cU, 0x3e092ec6bd1b7572U, 0xbe9d17923e92e50dU, 0xbe8fb8113e710ea0U,
  0x3ec5c591bf03b06aU, 0x3d5650e33e105be6U, 0x3ed1d293bdf99934U, 0xbdfff7293b73a233U,
  0xbe6fe2863e43184eU, 0x3e8c9972bcc9c8edU, 0xbee720bf3ef3522dU, 0x3e450a863e89e0dfU,
  0xbf0b95783ed4f019U, 0x3c8c6d3ebcb51f4cU, 0x3e26cdc2be3eea00U, 0x3e3aca31bf085b0cU,
  0xbdcd4e24bef21d24U, 0x3ed7b634be55d587U, 0x3dbeaa393db5f884U, 0x3e8a676ebd38d269U,
  0x3ed33292bea5c2c0U, 0x3c87dc28bd9a9877U, 0xbdc2f4ddbf6bba60U, 0x3e23a3f53e2ee2a9U,
  0x3e6eb972be9d70c8U, 0xbd6c1d79bd9be39aU, 0xbdd7cdd8be3d76d7U, 0xbe195455bf09f46eU,
  0xbf30c9513ef26ab1U, 0x3e88a0d8bec62e69U, 0x3e63154e3e08c7f8U, 0x3d443106bf1b019aU,
  0x3da4353fbd69b9ceU, 0xbb90203dbe741eb3U, 0x3ec166b53e0eb882U, 0x3e69b8593e941e17U,
  0x3e5924f33e19bf9cU, 0x3ebfcd3ebd743c07U, 0x3cb74afb3e8cd2adU, 0xbd341236bcce0d7eU,
  0x3eae7b333b12178eU, 0x3ea9c80b3dec2b2eU, 0x3f191a77be865606U, 0xbefcb0803f08425cU,
  0xbd4560d1be5f7cddU, 0xbe7aa9873cbe041bU, 0x3c3fb8983e3bf30fU, 0x3e14915bbe38a913U,
  0xbe2d71633e476629U, 0x3d8a519abe776e1eU, 0xbd7bda35bd0abbb6U, 0x3e772c523e0314a5U,
  0x3df3d5fc3e461886U, 0x3cfa12483e87b464U, 0x3e022f30bf35d264U, 0x3e9bb0893dfd7a46U,
  0x3ec914f83e0f299eU, 0x3d677b68bce991d7U, 0x3f10c516bd9d45b5U, 0xbcbe61233e11795bU,
  0x3ddb67b3bda1eb37U, 0x3ebea5ecbe882932U, 0x3da0ecb6bf01affaU, 0xbde10b84bf189b9dU,
  0xbd084baa3da7ab7aU, 0x3e0cf6323eece04aU, 0xbe0c9731bd6dc9ffU, 0xbdce4d04be8e6b13U,
  0xbefe374bbefd4604U, 0x3dd1d91f3e321478U, 0x3d86ab2cbef7d8eaU, 0x3e8090d43d8fadbeU,
  0xbe1c1b58bec837b7U, 0xbe336199be4b2c15U, 0xbdaa7c9c3eba7d6bU, 0x3ec1ef073db27663U,
  0x3ec68917be56b89fU, 0xbe045c9bbd9ce363U, 0xbf4bb885be46b4d2U, 0xbdb386093e3a79cfU,
  0x3ee34296bdd3410fU, 0x3e55a5773d927f89U, 0x3eb77865bd872d31U, 0x3e88a4f43e80a013U,
  0xbe093d123e8b52c4U, 0x3c377ec53d9a664fU, 0x3dd40f14befb5e9dU, 0x3ceee6d43e364d03U,
  0x3f0a96fc3ae9b194U, 0x3ee0802a3d5d88b7U, 0x3def85ab3e59c4a9U, 0x3e80ad0b3db8f430U,
  0x3eb28d513e12e0ebU, 0x3f0d095dbd46a703U, 0x3e5d94ebbe6ab23cU, 0x3f3e7ef6beb7cd6bU,
  0x3dad5f5f3dc840baU, 0x3e9b40393f1d6c1cU, 0xbe30a001bd3a2891U, 0xbe55c1b1bdd9aa5cU,
  0x3eb2099d3ef43782U, 0x3ecc94543f2f7812U, 0xbe2e53f43e0cd010U, 0x3e1d53913cb43fa6U,
  0x3e8afdcfbea4dac7U, 0xbf38c258be0a520eU, 0xbe0efa203dbf6eccU, 0x3e0e8d10be3b308cU,
  0xbf05f3b0bdcd2684U, 0xbeb28eb5bec40d00U, 0x3e61ca5abd11e802U, 0xbd017911bf2bb4f0U,
  0x3e8624083dd193dcU, 0xbeded16b3ddedfc6U, 0xbec01283be94224fU, 0x3d72c4f1be9f90c9U,
  0xbe30c78fbdb4349aU, 0xbd8aa6aa3e82f238U, 0xbe9e82443dfca368U, 0xbe17c7273e7599b4U,
  0xbe584091bdfb0bb5U, 0x3e859272be7eff67U, 0xbf2945803d24bb3dU, 0x3e0c872d3dfeb0f6U,
  0x3e58b2a2bee2c14dU, 0x3e499e9abe957ffaU, 0x3e6a04b13d3563ceU, 0xbde514f73ea01395U,
  0x3e43a19e3e283814U, 0xbe15ee683dd65085U, 0x3cd6d7033dadf920U, 0x3c9088ae3ea2463dU,
  0xbe4bb4753ddb3f1cU, 0x3df51478be86fee3U, 0x3ec58bb73ec70e58U, 0x3e715378beed8409U,
  0x3da79f44be12eefcU, 0xbe38314cbef2b101U, 0x3e3d47963d1dfb77U, 0xbdec186ebe1a5f3bU,
  0xbe121b34be4f3eb2U, 0x3eda81973e13e584U, 0x3dd0a4fabf3420e0U, 0x3db121683b54a86bU,
  0x3b837cce3db654c2U, 0x3d4945dfbdbd77a6U, 0x3cf0e8fc3b1c9397U, 0x3e85727fbf01fd4bU,
  0x3e4cf301bc173e6bU, 0x3e98be4a3eabaee8U, 0xbde3712ebec3b09cU, 0x3b3ae4373d308434U,
  0xbda56181be1bbdedU, 0x3e8848a33ecc003eU, 0xbe1758dbbd8bd9e7U, 0x3e48c12f3d90f60dU,
  0x3e2ad36d3ead7db8U, 0x3b8878263e02a620U, 0xbcd71fcdbd2bf56cU, 0xbf1d8148be492cecU,
  0x3c59da613f1fd720U, 0x3eec21923e4221cbU, 0x3ec3a0cbbf0d0c93U, 0x3f1e25e5be2fe494U,
  0xbc938568bbe723f1U, 0x3f07947bbe91edddU, 0x3e2b77e8be0b230eU, 0xbe0be1993d92a467U,
  0x3ebfca393e485014U, 0x3da94a18bf59b4ceU, 0x3e67e4c13e075e41U, 0x3e4b9dcabde6f74eU,
  0x3dbd73a93d90ad49U, 0x3e93f887bdbf8661U, 0x3eaeceaebed459e9U, 0x3e7271703e9a4b59U,
  0x3eac01193dd11a7eU, 0xbe809b763e0a0bf9U, 0x3d9ca6653df163faU, 0x3dfe36ef3e9876d9U,
  0x3eea7f583d427c80U, 0x3d64cf9dbd8711e4U, 0x3d620ea43e939cdbU, 0xbe8317093b891f73U,
  0x3f0656883eadfdd5U, 0x3dce648f3c7b708bU, 0x3e45cddd3d69a1ccU, 0x3eba61f0bef620a1U,
  0x3f1d590e3e8cd74dU, 0xbeafda403e9dc5b7U, 0xbbea6666bf2ed1e5U, 0x3c9d0e82be4b4495U,
  0xbeb78255be85f220U, 0xbf0a86943e1d7452U, 0xbd8639e33bbd4ccfU, 0xbdee89c4bbc0830fU,
  0x3d83a4a23e7bafbbU, 0xbe25df72bf04dd46U, 0x3ea0b81f3f1060b2U, 0xbed0de68bd19e94bU,
  0xbda823d2bd40650bU, 0x3e95111e3eb6a086U, 0x3e8abd163e640e3aU, 0xbe29778cbe18371dU,
  0x3e384afdbd946183U, 0x3e13407a3e8dffd5U, 0x3df883a03e69b1c8U, 0xbe7f706f3db4650fU,
  0x3e8b5669beb415e0U, 0x3e91fcfa3e261e0eU, 0xbcb0da2f3ec242c1U, 0xbe44ebdf3f0d665fU,
  0xbe533a11be27ac8aU, 0xbe6121283e8a5873U, 0xbe99a0303d78cd8dU, 0x3e4f26d33e7d9d0fU,
  0x3ec2fe723e70afe6U, 0x3df12ff43e051934U, 0x3ee04dbc3e5e3135U, 0x3d9fff35bed04d83U,
  0x3e73f99a3cb7b19eU, 0xbd0ccaa23e7d2f47U, 0xbedada623e063542U, 0xbf0b6843be2098d7U,
  0x3e89dcfe3e1d2decU, 0x3d9e29373eb73c22U, 0x3ec54c32bf26460cU, 0xbecc6af0bc530299U,
  0x3d258b683b85bdebU, 0x3e90cdc93e91db1eU, 0xbca348adbe0cc211U, 0x3dce684d3def00cdU,
  0xbe70bc893d9b09a7U, 0xbd5732fa3f112da5U, 0xbde2fb153e887a1dU, 0xbe7b5450bdf220dcU,
  0xbd5c883bbd4defb3U, 0x3e59cb623e04be28U, 0x3dd708753e19bbdcU, 0x3e82bdd7bd194174U,
  0x3d1f1251beafa262U, 0x3e972be63ebc74b2U, 0x3e1a36833e52a91aU, 0xbedc24b23d462e61U,
  0xbc0b4185be9cc714U, 0xbe59ad2cbe1fe562U, 0x3e8ab2753e8fa83aU, 0xbe61dade3e43ccfaU,
  0x3df629ca3f329105U, 0x3d2b19963dc0f525U, 0x3e5e81203e2b148dU, 0x3e9fd4f8bdb5f537U,
  0xbf1fb10e3df88eeeU, 0xbe7b9463bd0bb7eeU, 0x3e7dbe71bd99dabdU, 0xbd4a5c35bebb2622U,
  0xbe61ebcbbed37300U, 0x3e4d28c4be5b9951U, 0x3e6241c0bc8b4831U, 0x3d6b587c3e9fb9c1U,
  0xbc1892993db73b07U, 0x3d8392adbd85b45fU, 0xbe1045ed3dc026fcU, 0x3eb56bedbee96bd2U,
  0x3d53f2d6befee3ecU, 0x3ddac86e3d18b221U, 0x3efaca563ed88ce9U, 0xbe26dafa3e8d4ed1U,
  0xbead168a3e403726U, 0xbe322671bd942104U, 0xbea514873e98dc92U, 0xbed72e3bbc1ffef0U,
  0x3e093c94bdf23ef9U, 0xbe9f0bd0be246f51U, 0x3ebc7bee3eb7fa21U, 0xbdd601863ea49145U,
  0x3e3b77aabe306a04U, 0x3dc2e3323dc86cafU, 0x3e3332d13d8016e8U, 0x3db2cc323e8c8c90U,
  0xbdefcabf3e868075U, 0x3da9834a3e4bd90fU, 0x3d2976223e277293U, 0x3cbc27063eea7d1aU,
  0x3d9006a2bdbfa2c9U, 0xbf496d2fbdf59050U, 0xbdd84c093d920d5dU, 0x3e8e2d113d9e1d63U,
  0xbf139a2bbe8006c0U, 0xbcd4ac5b3ead8f88U, 0x3e8d06453e0a7823U, 0xbd286df7bd08312cU,
  0x3ea39a19be2158b1U, 0xbbe059443d8e22deU, 0x3e27bed63ca9d122U, 0xbdc9f2fabec705edU,
  0x3e231dc63ec9cc01U, 0x3e721acc3e2b918aU, 0x3f1d558b3e8b6c79U, 0x3e84c3babea700f8U,
  0x3e5a18743e307beeU, 0x3e0a4ebfbdec2cafU, 0x3defc5eb3dbe9f46U, 0x3d7475f83d4cfa78U,
  0xbdf3777dbe8f837eU, 0xbe80cf45bcb8de50U, 0x3df70b813d43a92cU, 0xbf5d82aabf6dca19U,
  0xbe4dbd983e953d2cU, 0xbe16fa6b3dbcea37U, 0xbda452243e870ba7U, 0x3e1e8b663db10357U,
  0x3e444983bd720bb3U, 0xbcddfcf6bdc8d3d8U, 0xba121b8dbe21cf4aU, 0x3e4c5081be54ad21U,
  0x3e53d38f3d8c7485U, 0x3cec97513c7e7d3dU, 0x3ce3bd3b3e196dfdU, 0xbcc6081dbe3a8a6aU,
  0x3ea9319c3db3a495U, 0x3e2ffcab3eb23d8bU, 0x3bf16d523e54f707U, 0xbe34d8b03e71446bU,
  0x3d2a97973e277554U, 0x3dc1ff583ce2f134U, 0x3e5669e53f004245U, 0xbdde969abda74a94U,
  0x3ecc29f6bd2a0590U, 0xbe872ab13ef25fddU, 0xbed93679bda37713U, 0x3e853d313dc806ceU,
  0x3edbf8f3bd7f8a3cU, 0x3e21d5e8bdf58ba1U, 0xbd697717be950fd3U, 0xbf1f7a583e58bc67U,
  0xbe5fb52cbdbfda21U, 0xbd9235c23e37b9ccU, 0x3deaf05fbedfa1b6U, 0x3d83faef3cd30483U,
  0x3e3a8f5b3dbdf722U, 0x3dc2e45e3ef55b72U, 0x3de88af43e65a937U, 0xbe66d9523e385e60U,
  0xbe8f460a3e24c291U, 0xbe7660d7beef5d3dU, 0x3d503ec6bce168b3U, 0xbe12ae11bdff44a6U,
  0x3e68fce7bd322af9U, 0x3df7ef573e69f945U, 0x3ef3b25cbf3db2e6U, 0xbdc41f623dd042c2U,
  0x3e557de23e1e93b6U, 0x3c858be5bd8e988bU, 0xbe6512b9bed5c385U, 0xbea850c73ea864c9U,
  0xbe995b2abe41c621U, 0x3e61c2673d181d4fU, 0xbec67d4d3dea3cdcU, 0x3c7a2d60bdb5cb92U,
  0xbdf4c4aa3e3b0f6dU, 0x3e7ae19e3ec8afd9U, 0x3eac9d31bd3c8744U, 0xbd3eaf983e4b7f42U,
  0xbe5454343eb66855U, 0x3e2e752c3eb32d2dU, 0xbd6565eabefe5b41U, 0x3ececf23bd8f39a5U,
  0xbea424c73e2fe6c6U, 0xbe5abd313efadd55U, 0x3d36f0a03ef89a49U, 0xbe75c2b2be11badeU,
  0xbd112ab23d88caddU, 0xbf183d7bbdf8acceU, 0x3e988c72bf1e314cU, 0x3d5fd2b4be84b6d9U,
  0xbde54237be0f9847U, 0xbecc79513e6d01d0U, 0x3db65f203d16cbd6U, 0x3cb7135abeb7f942U,
  0xbee271303c5de780U, 0x3dc8be4cbb9df75dU, 0x3dbc04713e90c327U, 0xbe565390be236591U,
  0xbecbe83e3d96a7c7U, 0xbe187bc0be8ee643U, 0x3dce2266bf1e3012U, 0x3c89c68d3f3b86d5U,
  0x3e07c085bde25aebU, 0x3e2798333e3a04cdU, 0x3f11db6c3dfd3d4fU, 0x3ebaa742bbb4cbbdU,
  0x3e9925e0bd7d269aU, 0x3ea52ebfbdefe185U, 0xbdaee3153e744af7U, 0x3e2b5a1f3eaccfc9U,
  0x3f0c2f92bdbc7e81U, 0xbec18b283e1ad6b6U, 0x3d3ecbd73c70e34aU, 0x3e9c0e733e31f4bfU,
  0x3e79f8083ea8084fU, 0xbf006eee3d9dd995U, 0xbedb50973d1a0923U, 0x3e6a96203d45532aU,
  0xbe58ac603cb0cdafU, 0xbcc278cabd0b931aU, 0x3cd8c41bbe7df729U, 0x3e4c51a43e64e560U,
  0xbf242c203e009357U, 0x3dfe78a73e7fbc3cU, 0xbb8e143e3edeb238U, 0x3e88265c3e0708b5U,
  0x3d9094133ec38e5fU, 0xbf6a027c3ebe1db9U, 0xbe3898ac3d9d21b3U, 0xbd5cbf53be84dc72U,
  0xbddd7a25be9795d8U, 0x3db3f1833ed10c2dU, 0x3d72c9b63e17a54bU, 0x3df80aed3e003dd4U,
  0x3eba3d9abdf5cff1U, 0x3e9e43ca3dee49c5U, 0x3eb9086d3eb78075U, 0x3bb4575e3e2051b7U,
  0xbe287e1dbd8135b2U, 0x3ecc2a1e3ead5d26U, 0xbf1079213eb4346aU, 0x3e0670a03e78a719U,
  0x3f0d5e69becc5cbbU, 0x3d73e35ebeb57c67U, 0xbf625a333e3fef12U, 0x3e2ed00d3f8477b4U,
  0x3e40c274be5ffdcfU, 0x3e6d94403df564c4U, 0xbdadb43b3eaab993U, 0x3e6f4d3c3daaeb62U,
  0x3e8d2ad2bf22a4ccU, 0xbf2e624bbe2f0596U, 0x3ef51fec3cddff3fU, 0x3e91637fbef669bdU,
  0xbe24a06d3b95b764U, 0xbd9b4b363eb9ecbbU, 0x3ea4c6cd3cc171bfU, 0x3f0a42a6be35878fU,
  0x3eb697d13dcb797dU, 0x3e8d46283e895c99U, 0xbe5a596f3d287befU, 0x3e39a9cabe7c8956U,
  0x3da535dabe07d87aU, 0x3eb79f553c9e3330U, 0xbeaf4c003eca1552U, 0x3edac3393e67093aU,
  0xba185aafbf178f16U, 0x3d3bf5e83dcd175cU, 0x3e870dea3e147ef3U, 0x3d769a6f3ecb0f42U,
  0x3d777cf5be6cc8caU, 0x3e87fb683ceeb30eU, 0x3f015828bcb74dc3U, 0xbe042a9e3e2375e4U,
  0xbba4b8c53e982a9cU, 0x3e370f84be84baffU, 0x3eeb6ca7be88d919U, 0x3df911463e5a9afbU,
  0x3ef47c103e4d3de5U, 0xbb5933e43f44b052U, 0xbcaf1aa53e724e73U, 0x3f079fa8bd88a777U,
  0xbea1a8df3e9a4d99U, 0xbeeabe7f3e0f2ec1U, 0x3e98dd013e8def4bU, 0x3e98943e3ed0dbe3U,
  0x3f3dae5abd2f320eU, 0x3e682762be25711aU, 0x3ec1f27dbd97bd05U, 0x3e7f39a9be5c2604U,
  0xbd810ae73ddc144cU, 0x3ea1bc63bdd04c84U, 0x3e8a47203e028dc5U, 0xbf6ccb6cbe6747d5U,
  0xbdf776d23c39a0e2U, 0x3f01eb513f0158c6U, 0xbdec29e83e0bcfdcU, 0x3e9020f93e60f3beU,
  0x3eb33d283e8f0694U, 0x3e9756c93d77766fU, 0x3edb41cebeb3bfb4U, 0x3d330a5bbaf2fb55U,
  0x3d4545a5be9c74d3U, 0xbf04fbe3be288f09U, 0x3d0af047bf13232aU, 0x3f1222313dfd797dU,
  0xbd9bab4f3f3fba1aU, 0x3d2892dd3dc7a268U, 0x3c23b2af3dce6c0bU, 0xbeb7be783d6d0451U,
  0x3ea73942be07382dU, 0xbea7e6ba3dc02cd8U, 0xbec39817be575ae7U, 0x3e87257d3ebb2ff1U,
  0xbdaed10fbdcc1af4U, 0xbe9c23513e87241bU, 0x3e8782733e8bb770U, 0x3ee121cebe03403aU,
  0x3e5b29883bba11f2U, 0xbe8d52493eb4c70dU, 0x3d227ec5bdb171d0U, 0xbd9ac52abdaba049U,
  0x3ebb387f3e30b93aU, 0x3d7300c43ef25820U, 0xbe8e21443ec6545fU, 0xbf54a9df3ce4ea11U,
  0x3e501d5c3e929614U, 0x3f512a05bd0a62ffU, 0xbed88adb3f36879bU, 0x3eae4ce8bf1fe38cU,
  0x3d61c4df3e8fbcf2U, 0x3ebadd7f3d4e9676U, 0x3e36b381bdecc7baU, 0xbe9159463e07fbe4U,
  0xbd619d5bbdf91b90U, 0xbed19f303f02274dU, 0xbdda9a9abef87efdU, 0x3e9ac7cf3ebb8e10U,
  0x3e30bd36be8bb164U, 0xbbe69dd23d5f10fdU, 0x3ec634bd3f1163f3U, 0x3df6577ebddad273U,
  0x3f0d4d7ebf04c80cU, 0x3e2d598cbdf5c002U, 0x3f41947ebe322297U, 0x3d3937d1bdee1147U,
  0xbe2f28a73ea285acU, 0xbe3093803d018b5fU, 0x3e56b8043ccc4858U, 0xbda05d79beb771fdU,
  0xbe271e703f18cef3U, 0xbeb530683d66e59bU, 0x3e9016fc3dce6863U, 0xbdbdd8183e941279U,
  0x3e324ea03eabacedU, 0xbbf698c6be5506ddU, 0x3f2767ca3d55e2f0U, 0x3dd86dcdbeaa0ff4U,
  0x3ee3c6393e1fdfd4U, 0x3ed87bff3e80c223U, 0x3b8eacbfbe1dbce2U, 0x3eb62c27be1898c4U,
  0xbe71a1d4bc0f97acU, 0xbe0bcc32bd95f25aU, 0x3e4eebe03db54f19U, 0xbe9bc1bfbe2f1a1dU,
  0xbe0a8c00bd0ea40eU, 0x3e129aba3e4cb38dU, 0xbe6808253e8c1381U, 0xbe9d59853e6c2979U,
  0x3d0fc6d8bea160dcU, 0x3ec81e233f308743U, 0x3e9bbf773eb4c8adU, 0xbe412bf53ee68543U,
  0x3f1373963f316ba9U, 0x3f008e2fbf0530e9U, 0x3ed91c543d9e6d08U, 0x3c8075603eb06f6fU,
  0xbe9efb63be64f0e1U, 0x3f2095e33e56cf28U, 0x3e9926103e74584aU, 0xbca634f2be26824aU,
  0x3e324229be6523bfU, 0xbdb7d5cfbdad0ea2U, 0x3d5459ac3e2cd147U, 0x3df7f9e03eef8005U,
  0xbeb55a3bbe0886c0U, 0xbd5cdfb43e8f9761U, 0xbaba32dd3eb56ea4U, 0xbd236be33db09869U,
  0xbde84e38bd215dafU, 0xbeb9b9a0bdad0d48U, 0xbd2f3910bd0b4d74U, 0xbea34f9abf2786aeU,
  0xbeb04a2fbd387c7eU, 0xbbdf92eabe1ea67aU, 0x3f10eb1dbdd2ae43U, 0xbe6ce9983eb92334U,
  0x3e0ad5553c92f512U, 0xbe522eacbe2502a0U, 0xbee8c0883e220188U, 0x3e0d95fabd95f0bcU,
  0x3c4a80053d8c6560U, 0x3d44bb6fbc65b738U, 0xbdb3244bbe2c9c63U, 0xbe6e31193dd0a1c6U,
  0xbe3903fc3edb1156U, 0xbe468d8d3c303a75U, 0xbeae4a293ce5e29cU, 0xbdbc6ea3bd324b3aU,
  0xbd81c494bc10b446U, 0xbe55ca36beb38f0dU, 0x3e6e6b37bdee297cU, 0x3ddd50da3dd7a368U,
  0xbdc056cabe6d7b14U, 0x3d465e763edb86a8U, 0xbdcb59283eee0584U, 0xbea47851be490c14U,
  0xbe57c49abd85df5aU, 0xbdcb9e77be131204U, 0xbe3f583b3d62b7a2U, 0x3e77adb23dc96a6dU,
  0xbe145aaabe8e4595U, 0xbd1e2b88be9a93b4U, 0xbdda2033bcf93ac0U, 0x3d7ce2973dc4859fU,
  0x3e1a81193e6e9fb5U, 0x3e1ae551bc47c900U, 0x3deab79abe031dcbU, 0x3c607399bdc3668fU,
  0xbeade069be4437e5U, 0xbe97818fbe3055daU, 0x3cbdf240bd4d7e55U, 0xbd7a35febdbaba8aU,
  0xbe1fc76d3d98f636U, 0xbd0db3fc3e181c60U, 0xbe85f102be96064dU, 0x3e139731be0b44beU,
  0x3d81c84f3d7afe53U, 0xbd9290e6bf0a0622U, 0xbe7e88dc3d6ae0edU, 0xbe0b191dbe66e98dU,
  0x3e0159f6bea8798eU, 0x3e4ef582be66eb46U, 0x3e92e5e1be519048U, 0xbf147133bdce363fU,
  0xbdda411abddb6eacU, 0xbe35507abda6c7c2U, 0xbe2a93abbdf94a5cU, 0xbe8be326be4598e4U,
  0xbeb31e61be67fc55U, 0xbedd89ce3df11ac6U, 0x3d6f990abde02cd5U, 0xbd664274bd3f053fU,
  0xbdfee8bfbe1209e9U, 0x3e07bb763d035323U, 0xbe941532be2d267bU, 0xbd85d219be680cd0U,
  0x3dfbc6d73db2f835U, 0xbe5ea4f7be6f3e71U, 0x3dae88b43d5410ccU, 0xbe4d01573e37f7a1U,
  0x3e4aaf9a3cad0ac1U, 0xbe733e8e3d3b7919U, 0x3da16f7c3d843d87U, 0x3e09c999bed36f8eU,
  0xbe9f2f37bc897107U, 0x3d09f5a7bd753d79U, 0x3e2f040fbce87402U, 0xbed0ad543e831d1fU,
  0xbe5012fabf0af105U, 0x3dc711d7be1faa37U, 0xbd6128c23c57ea02U, 0xbec926c4bdbf2c08U,
  0x3e68c1abbe63b3deU, 0x3bbf4609bda751bdU, 0xbe3d800b3e7a059dU, 0xbe70361c3d048e15U,
  0xbdfd56c6be0af939U, 0x3da37d4c3ddcb3afU, 0xbe8aef92bcc0f57dU, 0xbe3499fc3dbfbbcfU,
  0xbf3f50843d27327fU, 0x3dfaa5b03e0f55daU, 0xbe89323bbe866aeeU, 0xbd8aa280be77ce3fU,
  0x3dbbd6833eb62c65U, 0xbd0841753e1670e7U, 0x3e4cee8dbd99869eU, 0xbe0e7fa3be80ba58U,
  0x3e147022be8cf0d8U, 0xbe6e5cd6be65d15dU, 0xbd603de23e080a1fU, 0x3d7b371ebd62dce6U,
  0xbc6be9903e002c37U, 0xbd8be21a3dfb1d5eU, 0xbe1f070abdbcd4c7U, 0xbd0b7e86bea061a2U,
  0x3e268530bd4bd3b7U, 0x3e68f90c3df9e342U, 0x3d2e7e663d40d2a3U, 0x3e34e78dbea27d30U,
  0xbe8ca7b5be7639d7U, 0x3e8d4923bda2cfa1U, 0xbe11b98f3c94342cU, 0x3e2f535c3f1b9953U,
  0xbd9399493e0b6a13U, 0xbe13a5a23e9a0a77U, 0x3cca642cbe619e4fU, 0x3d69afa3bebc7727U,
  0xbc3ed63f3d1ab6eaU, 0xbe1cb15cbe1431bcU, 0xbed5330d3eac681fU, 0x3c775b913ce33d47U,
  0xbd9c998abe7b3911U, 0xbcdbaed43acbb281U, 0xbd0b170abdeb2797U, 0xbde3ff6a3df2b617U,
  0xbd69b7f03e3b1231U, 0x3e87f7663d7b070cU, 0xbe3902693e8cf75cU, 0x3da8c1b63dffec56U,
  0xbf076308be96bf0bU, 0xbece0e673ea35cadU, 0x3d8dc501bdf99207U, 0x3e21b3a63d1c0bd4U,
  0x3ced96a2bdce7279U, 0x3dfe052a3eb48f51U, 0x3d665daabdc4a2b6U, 0xbeaecdecbeaafbaaU,
  0xbeb6177dbd2bfcdcU, 0xbe9aa8abbdf12543U, 0xbc0b74bbbdde927eU, 0xbb937c8e3e166087U,
  0x3c82f1d53f395ffeU, 0x3e93d4803e0f9f77U, 0xbd54ff62be22e20cU, 0xbea8ccdebc734881U,
  0x3e7b7a30bd538fccU, 0xbde159403eb7dedbU, 0xbdc2260ebe9315c7U, 0xbe13b9d9be162966U,
  0x3d92307a3e94023cU, 0xbe3a3bbdbe589d6dU, 0xbdf66f453e00b687U, 0x3ea2944cbb9a413cU,
  0x3b9464a4bd533454U, 0x3e4237d6bbd359f7U, 0xbdb0ea4d3e48c5c1U, 0xbc15d44ebeddd1eaU,
  0x3ec7cd533e51f30fU, 0x3aa785dc3dd825d6U, 0xbb17282b3e6131c0U, 0xbe1635273df81d0dU,
  0xbdafdeeabc5f2601U, 0xbde921d6bd93fb2fU, 0x3d65f701be1ecbb7U, 0x3df6b594be09e6c6U,
  0xbe922119bd7a84e7U, 0xbd702ee6bedebb37U, 0xbcb554a4bda1b7a7U, 0xbd3b222d3eb8ae70U,
  0xbdf08320be5de3dcU, 0x3bbd63393d8318a0U, 0xbecc0951bda62fb4U, 0x3d83d827bcfcd5d3U,
  0x3dce1b7cbedeba26U, 0xbcec18423dbee1f2U, 0x3e444f1c3e31de1cU, 0x3e9d179f3d9a75acU,
  0xbe734a00beaea289U, 0xbcf7b218beac2943U, 0xbd3586633d1a3ad4U, 0x3e04ae96be763fc5U,
  0xbdbb7c233d178921U, 0xbdcd8d483e69127dU, 0x3c44f8a93e9225f3U, 0xbeef57ab3e1da031U,
  0xbe57102ebf13b241U, 0xbcc9463abf5ae772U, 0xbde1fc94bec00391U, 0xbd64b287be756feaU,
  0x3e80102bbddb3981U, 0x3e0e46ec3f41ad4dU, 0xbe7da470be1a8b34U, 0xbe69a891bd95fbd2U,
  0x3d99cc163db61c62U, 0x3e1be1743ed74ea4U, 0x3dec65353d623988U, 0x3ecb86823e8aaec2U,
  0x3f1236a03e0ac50bU, 0xbe02a47d3d7fa1abU, 0xbf0afbe83db7c723U, 0x3e9bf63d3ecbed5eU,
  0x3ea64f38bf038981U, 0x3f15a76a3c0587d8U, 0xbd637254bef9a4b3U, 0xbed3f0a6be5ea6a1U,
  0xbe392a41bf0395eaU, 0x3dc765e8bf09a09fU, 0xbd8fb81abcac152eU, 0xbf25d1803f271610U,
  0x3df00221bf1b4804U, 0x3eab1a55bf349252U, 0x3ef614a83f244a47U, 0x3e7a2d9abecc8ae2U,
  0x3dd1979bbe633935U, 0x3ef3005abf610b8aU, 0xbf0949c13e98924eU, 0x3e9665cd3e75fc99U,
  0xbe1a99e3bf06d20bU, 0x3ea396963e8530c0U, 0x3db2d92fbeed45afU, 0x3e0affa43c8ce372U,
  0x3f0f3bc13e8721e2U, 0x3d4bbc9f3eab71b6U, 0xbee8ccdf3e263d72U, 0x3de30d853ea932e6U,
  0xbe553e5a3f134236U, 0xbdc123363e74f29aU, 0x3d1a1a453e47e4e7U, 0x3e5280b93dee35dfU,
  0xbec7b3253dd2f54fU, 0x3efd8ae2bd8a3b58U, 0x3ec899b63ead1482U, 0xbe88ffbfbd329c8dU,
  0x3f0a19f03e1ee468U, 0x3e345020be892c72U, 0x3e38081a3f043decU, 0x3de65019be1a6740U,
  0xbee13b1e3c73f425U, 0x3c708c6cbc4722a7U, 0xbf05411fbf2d044fU, 0x3d94c6babd154d76U,
  0xbe8443563e6573c2U, 0xbe1e41c3be3ac18cU, 0x3ec129683ed14afbU, 0x3cdb662c3e8130acU,
  0x3eb74f833d527350U, 0xbf026ea23cf57eb7U, 0xbdeb4e583e24b5bdU, 0x3e0dd397bb84b20cU,
  0x3edaedac3d89480dU, 0x3d6fa038b9ff840aU, 0xbcefb5673e984038U, 0x3e595d9dbea16ef3U,
  0xbde96c223d905a5aU, 0x3b2eee47be9d5079U, 0x3dbc66a83efc7587U, 0xbd86c541bdb01226U,
  0xbe9c51eabe2efa58U, 0xbd8db794be3b4582U, 0x3c973bc1be840533U, 0xbe9ff988bed102cdU,
  0x3ed949253d5652f9U, 0xbf48025ebe5ad553U, 0x3e1c1107be677b1dU, 0x3c7736d23ead1f21U,
  0xbe50d7e1be045ae6U, 0x3e1936a63e88f4c5U, 0xbe2b897e3e80c163U, 0x3f13cb263ee5fe8bU,
  0x3ddffb3cbd351088U, 0x3df93f56be469334U, 0xbf171dfebeb61b8bU, 0x3d188fe83efcc077U,
  0x3e0f61e93e5b28b5U, 0x3f27c0a03b6649dcU, 0xbe6311dc3ebb0244U, 0x3e7a2f333d902277U,
  0xbd71f69d3d5b5dceU, 0xbd892457be30913bU, 0xbef1e2503deb37deU, 0xbdee3a653c87247cU,
  0xbddb0c133d960b22U, 0x3ddc05863e3f1c6eU, 0x3de9e1153e907b94U, 0xbd2a0b2cbd840a0cU,
  0xbe3c04b1bcec2233U, 0x3e79b3753dd635e1U, 0xbee54f8abec9f69eU, 0xbf1696e8bf577129U,
  0x3e82e863be850eaaU, 0xbe95f7f9bea02cb6U, 0x3d34cb91bf22a73bU, 0x3e59b39ebedc491aU,
  0x3c2d58f8bdbd3b20U, 0x3ec7831fbedd3f59U, 0x3dd0be64be986f46U, 0xbe00c0df3e73187aU,
  0xbe4a27ac3e26e965U, 0xbe4a5a84be61a260U, 0x3ebb74e13e7671c7U, 0xbd29be4fbf1978d8U,
  0xbe64511abf2461acU, 0xbe87aac3be023cb8U, 0xbd116868bec25efcU, 0xbeb53738bdfef18bU,
  0xbc55d4853eec1edcU, 0x3edfe551bf83347eU, 0xbe24d3063d93ae64U, 0xbde1764dbea75378U,
  0x3df9b41dbe329f7eU, 0xbf0bfb483e8324b6U, 0xbf0098d2be97ccbeU, 0x3df46d8abda9cce3U,
  0xbece8e8bbec3c6a4U, 0x3e45a33bbf014623U, 0x3dbd987a3eba7454U, 0x3e613b653f3283bdU,
  0xbea5bcbdbeded5f4U, 0x3e5b5b47bee3b429U, 0x3de9fa27be71fb68U, 0x3f2befae3de6b5d7U,
  0xbdd97d14bd8cbe0cU, 0xbee798b0be1fa0b2U, 0xbe89246f3eb30348U, 0x3e2195863e16aef7U,
  0xbe2f64e2bef13f9bU, 0x3ec5b87b3f00e74aU, 0xbf127e393e2404a8U, 0x3f27eeff3f178574U,
  0x3e518123bd88e3b6U, 0x3dd7d3f8bed0b849U, 0x3dcaa58ebcf90f07U, 0xbd00e1b23e4f6831U,
  0xbcf0a92cbe492e79U, 0x3def577d3e2ca217U, 0xbd514b163e9a3512U, 0xbda3da0c3e9ba730U,
  0xbdb2b8773e5e0c44U, 0xbb5aec65be5294b1U, 0x3ec60e483eec55f1U, 0x3e4bed1fbebb4912U,
  0x3dbb3eed3f02eeb6U, 0x3f033f4a3ef16d1dU, 0xbe04e62fbb8421a4U, 0x3e0adc92be7f7606U,
  0xbec76856beb93545U, 0x3e426d2a3eb74927U, 0x3dbd4bf83ea471cdU, 0xbe4384983e8b1feaU,
  0xbe4d8ebcbe8be12cU, 0x3f08f2a53dd9e662U, 0x3eabddc53ef08e08U, 0xbf0b6727bea74a14U,
  0xbe609bbcbee22d4eU, 0xbee954843e5a4c7fU, 0x3cb0c4bebe943bb2U, 0x3eb45a2a3eb84aedU,
  0xbf2284783c330a5fU, 0x3e658b013ed62824U, 0x3e0b0f2a3ef5df79U, 0x3d632808bc526e14U,
  0xbe95e4213ebb85bdU, 0xbe6a87cdbe8999d8U, 0x3ef61b9bbe8fce11U, 0x3d07cffa3cd69ea2U,
  0xbf203828be668629U, 0xbcf3d1bc3e059d52U, 0xbe314af7be6b6e5eU, 0x3eb29c1b3f1cdb6dU,
  0xbe8c3cb43e9122d1U, 0xbd1377083eb190e6U, 0xbf06e1cb3e41789eU, 0x3d273334be0f081bU,
  0x3eb4cd6b3eb37906U, 0x3e6d266dbdb7a1e7U, 0x3f539daa3d1c4afdU, 0x3e9ecc6ebdcb7d7aU,
  0xbeb6dc943f091b31U, 0xbe9b450f3d2b4fa3U, 0xbbac71af3ef7a9d9U, 0x3e166b40be6100e3U,
  0xbdc0055cbdad78b4U, 0xbc856c33be3733b9U, 0x3f2d5b183f187116U, 0x3ee5ecc8be4a7eb6U,
  0x3f084e623e9445e7U, 0x3f0f312dbe953d48U, 0x3e950042bd494046U, 0xbf47f216bf083f8eU,
  0xbd63c11f3ea0ad90U, 0x3e8693353dbfd3a9U, 0xbe282550bdd449a2U, 0x3f07e8c33d9fdf60U,
  0x3e3f05e0be0f2bc2U, 0x3e02ed8c3d0958a5U, 0x3edfe4afbd9a18bcU, 0x3cb0d49ebde82402U,
  0x3d12184a3d65cf7aU, 0xbe9105423dcbe4eaU, 0xbe2aa91abd86a652U, 0xbf89b5823e5a1f5fU,
  0x3eb8cc27be05b5f5U, 0x3e1107fabd0743f7U, 0xbe8352b03ccda8f9U, 0x3d505e03be7f92fdU,
  0x3e4d61643c17f6acU, 0xbe242db33c013f07U, 0x3d964fadbe61f21aU, 0xbcb91e923e1ad952U,
  0x3deb3c263d1ee865U, 0xbd852141bf02fea6U, 0x3ed023d33eca7079U, 0x3deb214e3cf85301U,
  0xbd364e33be347787U, 0x3ebe01fcb8197a09U, 0xbe8830223e9fe9c7U, 0xbe98eb9fbd84dac9U,
  0xbf2968c3beb6f417U, 0x3d592f033e9d97b6U, 0xbe717a663ebf5728U, 0xbebe59b8be231933U,
  0x3daab1e53ddb2d29U, 0x3e8bcd62ba375daaU, 0x3e2fb7423eab972aU, 0x3df65e76bbefcf3dU,
  0xbee432c3be1eee04U, 0xbe7005a7bece7191U, 0x3db101b83eb5ca67U, 0x3c3f65febe4757e9U,
  0x3f1a02b23edc06b8U, 0x3e0c6ad03cb61efdU, 0x3ec3a9f1bdb6086dU, 0xbea365ee3e980a43U,
  0x3d89e9643e029913U, 0x3eb9fd163f0b564bU, 0xbea32d633ea12f5aU, 0xbe209473bde5443fU,
  0xbcb8b74dbc1b8e74U, 0xbe93adeebeaf5582U, 0xbf1fcb49be5515aeU, 0x3dce2fe2bdc1b48cU,
  0x3ec2245abe17eda3U, 0xbe8fef9c3e6da330U, 0x3ead588b3da4c2dcU, 0xbe6596ee3e38fb2fU,
  0xbdd00a203d10129eU, 0x3dcff962bed5212dU, 0xbe89e7e8beb39a37U, 0xbc8b0612bf30abb6U,
  0xbecf9543bdc23c8bU, 0x3d226f83bdd381dfU, 0xbe761ba53d9ef522U, 0xbeab249abd216e8aU,
  0xbd24a3eabef63af9U, 0x3d28f99b3e3a1b70U, 0xbd4eb5ad3ec74c64U, 0x3cfac5b53e885517U,
  0xbe0dff4b3d4f98aaU, 0x3e9985a13daeaebeU, 0x3e5cf8193e4fec3bU, 0x3cb706093c9e0ad4U,
  0xbe09b6c03d8de78bU, 0x3ef616a4bdb88a8dU, 0x3b67b53cbe8560d4U, 0xbe59730cbde95772U,
  0xbe880de03e21887fU, 0xbd2f15863e63874cU, 0xbe30c4b9bb6cdcaaU, 0xbed1ede9beb57888U,
  0xbe6049ac3e46e7f4U, 0x3ed1eb243dd84e88U, 0xbe85e400bcba7541U, 0x3ee7d5723cd357c8U,
  0x3e75611fbec833e3U, 0x3caa4da23e994956U, 0xbe8fb80dbc87b226U, 0xbd91dd9fbdf06a21U,
  0xbc9b4f253e9c5651U, 0xbe7c6a06bd319795U, 0x3cf4ef98be21753aU, 0xbddbb555be92ba79U,
  0x3f0934f73e7d8dd4U, 0x3f42dbcebe991e4aU, 0x3e03ba8f3d3049f5U, 0xbe5223983e4339d8U,
  0xbf0369a83e035381U, 0x3e0f9a683de400eeU, 0xbead3b4ebd39e593U, 0xbee49163bd9f7579U,
  0xbe2b90c0bb08a397U, 0xbd40005ebc8c80d1U, 0xbe0823223e409ec6U, 0x3e994613bea80f1bU,
  0xbb019d013d47bf02U, 0xbeb018123de60843U, 0x3eb9592d3e847493U, 0x3cbfe9413db88142U,
  0xbe45318abbfdda99U, 0x3e56fc6c3eb2c5e3U, 0xbf3f52843e90171aU, 0xbd8be224bf15d3c2U,
  0xbe82a1d83f16e349U, 0xbd9aba093dc9ef43U, 0xbdbd13d2be567d2cU, 0x3d77b1aabddd5770U,
  0xbe88f8f33e70ad42U, 0xbda1e378bd8523f4U, 0xbd9c51a4beb73280U, 0xbea916fbbe7efd14U,
  0xbe50a25dbcb92574U, 0xbf41a67d3ea3092cU, 0x3c430f323e1aea27U, 0xbee348973f0ee4e2U,
  0xbe6aa7d9be6705fdU, 0x3b10cce13d3f158fU, 0x3df54c143df18f4eU, 0x3e4f6a893e16c113U,
  0x3d8908273e3f8b57U, 0xbeccf682be905a9eU, 0xbd150a32becbff40U, 0xbeaaa5533eab2bc4U,
  0xbc60ad88be7e91f0U, 0xbd1c91d3bed9cf68U, 0xbdf91635be744a36U, 0xbee70f7a3e8e8697U,
  0xbd6ebcbf3ef9dd75U, 0xbe59c46bbe228a7eU, 0xbe20e4e93e228e15U, 0xbe8d244dbebddd9aU,
  0xbed9de8d3d6c9b38U, 0x3ef09c0bbe6eb4f5U, 0xbf53ebc2bd642bdeU, 0x3e1ed4b33c55660dU,
  0xbcc84bd8beeba713U, 0xb9ac8669be23e2d7U, 0xbeb4f2273d9acf12U, 0xbdbd62d2bb72f0c1U,
  0xbdd52120be9f8967U, 0xbda15383be4db1ccU, 0x3ddf2350becd2827U, 0xbeacb705bd9caa62U,
  0x3dc61e1b3eeab3d4U, 0xbe0868ff3df95639U, 0xbe8826963d1472f1U, 0x3dfb65793e9aec09U,
  0x3edc89a23debcb6eU, 0x3d2b050e3e9534d0U, 0xbdf2535e3e75ce28U, 0xbea990c93e761f2cU,
  0xbba4c54fbea3295aU, 0xbe8540b23d547764U, 0x3ef2fd87beab53f6U, 0xbf1977173c65717cU,
  0xbec59f56bf09560fU, 0x3ec2b9633dd3a87bU, 0x3ebe057a3cdc5b57U, 0x3e5e04993eb56281U,
  0xbe625de53ee931e8U, 0x3ceebd0e3f0d8338U, 0xbdb8db403e095b9bU, 0x3dd798dd3dbde489U,
  0xbc6787e03e902942U, 0x3e1258793c4a119dU, 0xbdf596ef3ed8e119U, 0xbf10f65bbe19ed75U,
  0x3eaf04b2bf086f3fU, 0x3e8b43d03e59c5e2U, 0xbdc0eb1cbdc1fdddU, 0x3d16b71fbe74025eU,
  0x3e4aac303e59dad4U, 0x3e5a27f2bea3abfaU, 0x3e47c6143e48c68bU, 0xbda0c304be64b197U,
  0xbdb23da93e47c983U, 0xbe15ad2e3d0b8e4eU, 0x3d63ebdb3ef6b6c9U, 0xbb776648becbcc4dU,
  0x3d9e46223d9dd858U, 0x3c464cbb3e3ef0b0U, 0xbecaee693cc1d206U, 0xbe6b47b03ccf47cfU,
  0x3e98d2f6bdaf9f59U, 0x3d1ffe9ebd451e63U, 0xbe3982a13e9457ddU, 0xbf123f7dbd994a65U,
  0xbe0604e0be555146U, 0xbe8bf220bdeb1bf7U, 0x3e890a343dc59579U, 0xbde4723dbe270941U,
  0xbbb9aba3bf5eb69aU, 0xbdd5e9233d016916U, 0x3d8e4747bdb130ddU, 0x3c8b70e73c9427ddU,
  0x3db507a43d8d29a2U, 0xbbd71e0e3f1eb602U, 0xbeb636cd3c30402dU, 0x3e92202abd99167fU,
  0x3b8d8742bee9e1f9U, 0xbd89755cbd9a6534U, 0x3e1d6a3c3b2a34f4U, 0x3f1ea6a1be3ebfdaU,
  0x9b2f5ea2bd1e1da9U, 0xbdd8e92fbba10c78U, 0xbe4488ac3c38651dU, 0xbe11364f3de35307U,
  0xb9b609f0bc9f656cU, 0x3a267f868006ab3bU, 0xbe3292a43e691be6U, 0xbe74bb77be74fcb0U,
  0x3c3b6ca7bdea9265U, 0xbe1f9db63d353879U, 0x3bb497aebee31aabU, 0xbe6c91ab3eb86f93U,
  0xbdecca3f3e5f61e8U, 0x3e588e893e25d490U, 0xbec1f37cbe076329U, 0x3e1be3e23e265230U,
  0xbdab595f3f70a10aU, 0xbcd1fabbbe49a801U, 0x3e1a4c4fbe8567faU, 0x3efcee1cbec08c0eU,
  0x3e8395e8becd09caU, 0xbe9e7df4b9dd58f0U, 0xbe421a9fbe96b01cU, 0x3ec47cc9bb8636e7U,
  0xb89880543d172b87U, 0x3e828831ba167d60U, 0x3e25d345bf1dca43U, 0x3b9d1d763e12b37cU,
  0xba72acc53f1bf323U, 0xbe24656ebe0a3ca6U, 0x3eba92363df177e0U, 0x3d707d8939b0767cU,
  0xbf06f62ebf3633b1U, 0x3a4ad05f3b58735eU, 0xbdca83e8bb98ae28U, 0x3d350f843f1af58fU,
  0xbf9473e03f1a6446U, 0x3b804b713ef01a01U, 0xbe82a6903c32a3b5U, 0xbb2adfe23dd7b0c9U,
  0x3dbbcd8bbe4ff51aU, 0x3b95c94e3c8b721dU, 0x3e5decdebd077051U, 0xbe951f34bb6765ecU,
  0x8005fb193d1027dfU, 0x3b4d46de393a6310U, 0xbd0d4490bea667b0U, 0xbe8cde0b3dc6ae83U,
  0x3e00c4f7bc1267b6U, 0xbe25e9efbf621e30U, 0x3eb9965d3a24484fU, 0x3f35e437bf00d580U,
  0x3b9cc11bbd8d85e9U, 0xbc955c60be7c6720U, 0x3f1ffb4cbebb5504U, 0x3ecfa20dbe90c364U,
  0xbc27ffcabe62fb7aU, 0x3ee3f4bc3d0eff54U, 0xbec56532bd398a69U, 0x3b0c69cbbe99cf45U,
  0x3e87b31d3e917796U, 0xbcaf4ef43e8c7d69U, 0xbb3cc294bd390dc8U, 0x3bba1f943b19bb1dU,
  0xbe841d0e3ca2c34fU, 0x3e86186fbedc233aU, 0xbd97ca96be46d9f9U, 0xbeba5e06be8b9c86U,
  0x3e85a05cbc77ed9fU, 0xbb79da223e9eddb5U, 0x3df66568bdbd9bbdU, 0xbcab3d393d973a31U,
  0xbe49f601beab8565U, 0xbd5225d4bc0cf08bU, 0xbc99ed463d3f0170U, 0xbd8c5560be12b8faU,
  0x3b5f9ea3bcc077f2U, 0xbe5b80be3e94f788U, 0xbde2f040beed8872U, 0x3e35ae05bbc3f49dU,
  0xbe7e3c373c1752d4U, 0x3c2039c0bd9c90a6U, 0xbebde5ab3e8e4f25U, 0xbdc3b541ba38c569U,
  0xbdc7fdcfbe99e906U, 0x3a6d78013d38a0e1U, 0x3ea63d97be82c30aU, 0x3e64464f3b308ad5U,
  0xbdbb6843be8963ebU, 0x43db3e60f0c2U, 0x3deedd473f412e73U, 0x3eeb285cbed39054U,
  0xbe9a7dd4bc14d9d1U, 0xbc786480be7917e4U, 0x3afa26473d15ca2aU, 0xbc814be8bc37c051U,
  0xbf39e1c6bdf98e5cU, 0xbbf38adb3e132d4cU, 0x3eb523e8bbfb6619U, 0x3ee7271f3d18b71aU,
  0x3b8c176bbe43cf11U, 0xbddd2e86bcc85257U, 0x3de874dabdca669aU, 0xbccc3cc83b8f9d74U,
  0xbe5864563f0a8cf1U, 0x3d5e66963e8b8feeU, 0x3d8baf173eb173c7U, 0xbd9f13c5bd9f2271U,
  0xbeedef980004177eU, 0xbf0d45aebe64a186U, 0x3c4aa3b43d88f269U, 0xbe27facabd9e8414U,
  0x3d6d0f123a0cbbb4U, 0x3b7488953548169fU, 0xbe479022bc239917U, 0x2f4e5bbe5e5d0U,
  0xbedc4fd0bbc07df5U, 0xbe3298cebf47aeb5U, 0xbdd1fe0c8004d454U, 0x3dbbcd513d3a4a6fU,
  0xbbd8f20dbe3bef01U, 0xbf57dc6a3d8618feU, 0xbe730e743d99497cU, 0xbcc6e640bd423822U,
  0xbeb741b33b73ca7aU, 0x3e85b09a3e47b432U, 0x3e47c6a8bc730d03U, 0x3d6068d43eac0971U,
  0x3ecb7032be7c9660U, 0xbdc102923daa6129U, 0x8000e4de3da39ab1U, 0xb9a288adbdce8fe2U,
  0xb7876e74bddb4c4cU, 0xbeb034c43dce377dU, 0xbedc5784bd9e2a9cU, 0xbead69203dbe8a56U,
  0x3ede6b86bf1b237cU, 0x3d9ed37ebe29c68cU, 0xbb8e0d59bf0eda10U, 0xbefe6c29bc1d9bfeU,
  0x3c6c2be9bcb99d57U, 0x3e1021183d7be0e5U, 0x3e80bc8f39f9ed2bU, 0x3d38dba53d481b3bU,
  0xbc00de283a0f6dafU, 0xbb2aa1a63ebc7b86U, 0x3b81934d393f9ed1U, 0x3e526cf68004835dU,
  0xbddb06babcb81b4cU, 0xbbbb4dfebe25330dU, 0xbf056b0dbe696ce2U, 0x3e159536bdbdb12bU,
  0x3d6db87dbf32f18bU, 0xbebe4488be096656U, 0x405d9bd935da8U, 0xbe23fe0a3d3d97e0U,
  0x3c99f3953e9846beU, 0xbd26e287bed677e6U, 0xbb1466453d6743f4U, 0x3ec94b413e26f5f5U,
  0xbe34d7b43d316cc3U, 0x3ea968bd3bf85f7fU, 0xbe3d2b8a3ed3e662U, 0xbe8f46a23e1971e3U,
  0x3bb1a5183c2b3b2dU, 0x3d57d73e3dbdcb27U, 0xbf4c406f3d895d64U, 0x39dd101bbbe2e3baU,
  0x3aa20437bcd6c9ebU, 0x3e4266a2bdce665fU, 0x3c34c64bbe3fadbeU, 0xbd28e88abe3a44f4U,
  0xbe500a81be1005abU, 0x3da932993ecd43d9U, 0xbe725076be9d601dU, 0xbea113783d928ce4U,
  0xbc6a7e830004c8c3U, 0xbf5c89edbe640e7eU, 0x3eb9e9313e19e9baU, 0xbeba537dbbae8ff3U,
  0x3bbb7e9ebe1efa24U, 0xbf0689b9000142d9U, 0xbc0a35b9bbdb47e3U, 0xbc283551beadb061U,
